
#ifdef __has_attribute
#define HAVE_ATTRIBUTE(x) __has_attribute(x)
#else
#define HAVE_ATTRIBUTE(x) 0
#endif
#if HAVE_ATTRIBUTE(aligned) || (defined(__GNUC__) && !defined(__clang__))
#define DATA_ALIGN_ATTRIBUTE __attribute__((aligned(4)))
#else
#define DATA_ALIGN_ATTRIBUTE
#endif

const unsigned char model_data[] DATA_ALIGN_ATTRIBUTE = {0x1c, 0x00, 0x00, 0x00, 0x54, 0x46, 0x4c, 0x33, 0x14, 0x00, 0x20, 0x00, 0x1c, 0x00, 0x18, 0x00, 0x14, 0x00, 0x10, 0x00, 0x0c, 0x00, 0x00, 0x00, 0x08, 0x00, 0x04, 0x00, 0x14, 0x00, 0x00, 0x00, 0x1c, 0x00, 0x00, 0x00, 0x88, 0x00, 0x00, 0x00, 0xe0, 0x00, 0x00, 0x00, 0x28, 0x27, 0x00, 0x00, 0x38, 0x27, 0x00, 0x00, 0xd8, 0x2c, 0x00, 0x00, 0x03, 0x00, 0x00, 0x00, 0x01, 0x00, 0x00, 0x00, 0x04, 0x00, 0x00, 0x00, 0x0e, 0xd8, 0xff, 0xff, 0x0c, 0x00, 0x00, 0x00, 0x1c, 0x00, 0x00, 0x00, 0x38, 0x00, 0x00, 0x00, 0x0f, 0x00, 0x00, 0x00, 0x73, 0x65, 0x72, 0x76, 0x69, 0x6e, 0x67, 0x5f, 0x64, 0x65, 0x66, 0x61, 0x75, 0x6c, 0x74, 0x00, 0x01, 0x00, 0x00, 0x00, 0x04, 0x00, 0x00, 0x00, 0x94, 0xff, 0xff, 0xff, 0x09, 0x00, 0x00, 0x00, 0x04, 0x00, 0x00, 0x00, 0x07, 0x00, 0x00, 0x00, 0x64, 0x65, 0x6e, 0x73, 0x65, 0x5f, 0x32, 0x00, 0x01, 0x00, 0x00, 0x00, 0x04, 0x00, 0x00, 0x00, 0xbe, 0xd8, 0xff, 0xff, 0x04, 0x00, 0x00, 0x00, 0x0e, 0x00, 0x00, 0x00, 0x63, 0x6f, 0x6e, 0x76, 0x32, 0x64, 0x5f, 0x32, 0x5f, 0x69, 0x6e, 0x70, 0x75, 0x74, 0x00, 0x00, 0x02, 0x00, 0x00, 0x00, 0x34, 0x00, 0x00, 0x00, 0x04, 0x00, 0x00, 0x00, 0xdc, 0xff, 0xff, 0xff, 0x0c, 0x00, 0x00, 0x00, 0x04, 0x00, 0x00, 0x00, 0x13, 0x00, 0x00, 0x00, 0x43, 0x4f, 0x4e, 0x56, 0x45, 0x52, 0x53, 0x49, 0x4f, 0x4e, 0x5f, 0x4d, 0x45, 0x54, 0x41, 0x44, 0x41, 0x54, 0x41, 0x00, 0x08, 0x00, 0x0c, 0x00, 0x08, 0x00, 0x04, 0x00, 0x08, 0x00, 0x00, 0x00, 0x0b, 0x00, 0x00, 0x00, 0x04, 0x00, 0x00, 0x00, 0x13, 0x00, 0x00, 0x00, 0x6d, 0x69, 0x6e, 0x5f, 0x72, 0x75, 0x6e, 0x74, 0x69, 0x6d, 0x65, 0x5f, 0x76, 0x65, 0x72, 0x73, 0x69, 0x6f, 0x6e, 0x00, 0x0d, 0x00, 0x00, 0x00, 0x44, 0x26, 0x00, 0x00, 0x3c, 0x26, 0x00, 0x00, 0x20, 0x26, 0x00, 0x00, 0xe8, 0x25, 0x00, 0x00, 0xd0, 0x25, 0x00, 0x00, 0x28, 0x18, 0x00, 0x00, 0xa8, 0x00, 0x00, 0x00, 0xa0, 0x00, 0x00, 0x00, 0x98, 0x00, 0x00, 0x00, 0x90, 0x00, 0x00, 0x00, 0x88, 0x00, 0x00, 0x00, 0x68, 0x00, 0x00, 0x00, 0x04, 0x00, 0x00, 0x00, 0x6e, 0xd9, 0xff, 0xff, 0x04, 0x00, 0x00, 0x00, 0x54, 0x00, 0x00, 0x00, 0x0c, 0x00, 0x00, 0x00, 0x08, 0x00, 0x0e, 0x00, 0x08, 0x00, 0x04, 0x00, 0x08, 0x00, 0x00, 0x00, 0x10, 0x00, 0x00, 0x00, 0x24, 0x00, 0x00, 0x00, 0x00, 0x00, 0x06, 0x00, 0x08, 0x00, 0x04, 0x00, 0x06, 0x00, 0x00, 0x00, 0x04, 0x00, 0x00, 0x00, 0x00, 0x00, 0x00, 0x00, 0x00, 0x00, 0x0a, 0x00, 0x10, 0x00, 0x0c, 0x00, 0x08, 0x00, 0x04, 0x00, 0x0a, 0x00, 0x00, 0x00, 0x02, 0x00, 0x00, 0x00, 0x02, 0x00, 0x00, 0x00, 0x04, 0x00, 0x00, 0x00, 0x05, 0x00, 0x00, 0x00, 0x32, 0x2e, 0x39, 0x2e, 0x31, 0x00, 0x00, 0x00, 0xce, 0xd9, 0xff, 0xff, 0x04, 0x00, 0x00, 0x00, 0x10, 0x00, 0x00, 0x00, 0x31, 0x2e, 0x35, 0x2e, 0x30, 0x00, 0x00, 0x00, 0x00, 0x00, 0x00, 0x00, 0x00, 0x00, 0x00, 0x00, 0xf4, 0xd4, 0xff, 0xff, 0xf8, 0xd4, 0xff, 0xff, 0xfc, 0xd4, 0xff, 0xff, 0x00, 0xd5, 0xff, 0xff, 0xfa, 0xd9, 0xff, 0xff, 0x04, 0x00, 0x00, 0x00, 0x70, 0x17, 0x00, 0x00, 0x69, 0x4e, 0x43, 0x3d, 0x2d, 0x35, 0x81, 0x3c, 0xf5, 0x58, 0xf3, 0xbc, 0x8d, 0x5c, 0x42, 0xbc, 0xdb, 0xa8, 0x8b, 0xbd, 0x70, 0xeb, 0xa3, 0x3c, 0x1a, 0x8a, 0x8f, 0xbd, 0x02, 0xf9, 0x78, 0xbc, 0x61, 0x96, 0xc3, 0xbc, 0xa7, 0x4d, 0xc9, 0xbc, 0xcc, 0xfa, 0xa8, 0xbd, 0x99, 0x4a, 0x56, 0x3d, 0x74, 0xc3, 0xa1, 0xba, 0x46, 0xec, 0x9c, 0xbd, 0x71, 0x2f, 0x3a, 0x3d, 0x41, 0xa1, 0x99, 0xbd, 0x03, 0xfb, 0x82, 0xbd, 0xd7, 0xcd, 0x13, 0xbd, 0x5f, 0x84, 0x2d, 0xbd, 0x8f, 0x38, 0x7c, 0xbc, 0x17, 0x41, 0x2e, 0x3d, 0x2a, 0xa0, 0x68, 0x3a, 0xd0, 0x22, 0x10, 0xbc, 0x52, 0x07, 0x6f, 0xbc, 0x3d, 0x1e, 0x03, 0xbc, 0x65, 0x1c, 0x7e, 0xbd, 0xba, 0x8d, 0xb8, 0x3c, 0x94, 0xd1, 0x11, 0xbd, 0x02, 0xcf, 0x98, 0xbd, 0xe5, 0x20, 0x16, 0xbd, 0xaf, 0xe7, 0xfb, 0x3c, 0x5f, 0x93, 0xac, 0xbc, 0xbe, 0x9b, 0x1a, 0xbc, 0x9f, 0x0e, 0x17, 0x3c, 0x73, 0xc7, 0x5e, 0xbd, 0x50, 0x23, 0x09, 0x3b, 0xf3, 0x90, 0x37, 0xbb, 0x9a, 0x47, 0xac, 0xbd, 0xac, 0xfe, 0x3b, 0x3d, 0x89, 0x94, 0x0e, 0xbd, 0xc2, 0x4a, 0xce, 0xbd, 0xaf, 0x9e, 0x3f, 0xbc, 0x3d, 0xf7, 0xb7, 0xbc, 0xf0, 0xd0, 0xec, 0x3a, 0x8c, 0xb2, 0x4b, 0x3d, 0x61, 0x8e, 0x5e, 0x3b, 0xea, 0xae, 0xce, 0xbd, 0x44, 0x2c, 0x73, 0x3d, 0x1c, 0x62, 0x00, 0xbd, 0xd9, 0xbd, 0x92, 0xba, 0xb7, 0xd5, 0x2b, 0x3c, 0xf8, 0x9c, 0x7e, 0xbd, 0xb3, 0x9a, 0x5a, 0xbd, 0x1c, 0x87, 0x2c, 0xbd, 0x40, 0xf3, 0xf8, 0xbc, 0xf0, 0xea, 0x3a, 0xbd, 0xff, 0x6e, 0xd1, 0xbc, 0x5a, 0xb2, 0x91, 0xbd, 0x02, 0x7b, 0x6d, 0x3c, 0x08, 0xd4, 0x50, 0x3d, 0x31, 0xdf, 0xd9, 0x3c, 0x7b, 0x7a, 0x9e, 0xbc, 0xbd, 0x6f, 0xfe, 0x3c, 0xb4, 0x46, 0xd6, 0xbc, 0xc8, 0x93, 0x36, 0x3c, 0x2d, 0xb4, 0xd7, 0x3b, 0xe6, 0x73, 0xdf, 0x3b, 0x07, 0xbd, 0xc6, 0xbd, 0x61, 0x3a, 0xa9, 0xbd, 0xd6, 0xdc, 0xaf, 0x3c, 0x99, 0x9d, 0x97, 0xbd, 0xb4, 0x23, 0xab, 0xbc, 0x88, 0x6d, 0xf7, 0xbc, 0x92, 0xab, 0x82, 0xbd, 0x54, 0xa7, 0xee, 0xbc, 0xee, 0xf4, 0xc2, 0x3b, 0x5c, 0x4a, 0xcc, 0xbd, 0x95, 0xc0, 0x41, 0xbb, 0xdb, 0x32, 0x90, 0xbb, 0xb0, 0x79, 0xfa, 0xbc, 0x43, 0x38, 0x44, 0xbd, 0x44, 0x0f, 0x84, 0xbd, 0xc5, 0x79, 0x4a, 0xbd, 0x6f, 0xf4, 0x59, 0xbc, 0x69, 0x85, 0x08, 0xbd, 0xfc, 0x71, 0x98, 0xbd, 0xc7, 0x60, 0x76, 0xbd, 0x74, 0x13, 0xb7, 0x3b, 0xcb, 0x92, 0xb9, 0xbd, 0x1f, 0x61, 0xaa, 0x3c, 0xcd, 0xba, 0xcd, 0x3c, 0xed, 0xf6, 0x02, 0x3d, 0x7d, 0x26, 0xdb, 0xbc, 0x83, 0xd0, 0x22, 0xbc, 0x7f, 0x57, 0x45, 0xbd, 0xcc, 0xc6, 0xf6, 0xbc, 0x02, 0xda, 0xc9, 0x3c, 0x1e, 0x8c, 0x2e, 0xbd, 0xf8, 0x4b, 0x91, 0xbd, 0x93, 0x24, 0x55, 0x3d, 0x2d, 0x80, 0x7b, 0xbd, 0xc8, 0x72, 0xb4, 0xbd, 0xfe, 0x7d, 0x89, 0x3d, 0x27, 0x9c, 0x99, 0xbd, 0xc9, 0x11, 0x06, 0x3c, 0x70, 0x18, 0x33, 0x3d, 0x9b, 0x9c, 0xc8, 0xbd, 0x05, 0x63, 0xb7, 0xbd, 0x0a, 0x33, 0xbc, 0x3d, 0xc1, 0x71, 0xc6, 0xbc, 0x7d, 0x50, 0xa7, 0xbc, 0xda, 0x82, 0xc8, 0xbc, 0x3b, 0x15, 0x86, 0x3b, 0x5f, 0x3d, 0xc7, 0xbc, 0x47, 0x9c, 0x00, 0x3d, 0xd0, 0x43, 0xa4, 0xbc, 0xbd, 0x42, 0x41, 0x3d, 0xe1, 0xfb, 0x3d, 0x3d, 0x55, 0xf5, 0x4e, 0xbd, 0x3b, 0x3e, 0x8a, 0xbc, 0x72, 0x8e, 0x82, 0xbc, 0x7e, 0x98, 0x5f, 0xbd, 0xcc, 0xec, 0x9e, 0xbd, 0xbe, 0x46, 0xa8, 0x3c, 0xde, 0xa6, 0x49, 0xbd, 0x20, 0x1d, 0x5b, 0x3d, 0x21, 0xe2, 0x89, 0xbc, 0xfe, 0x1d, 0xa9, 0xbd, 0x33, 0x90, 0x4b, 0x3c, 0x8e, 0x05, 0x3a, 0xbc, 0x80, 0x88, 0xd4, 0xbd, 0x3f, 0x30, 0xe2, 0x3b, 0xcc, 0xeb, 0x11, 0xbd, 0xb2, 0x62, 0x51, 0xbd, 0x1a, 0xde, 0x9e, 0x3d, 0x57, 0x4b, 0x4c, 0xbd, 0x93, 0xdf, 0x95, 0xbd, 0xf8, 0x30, 0xba, 0x3c, 0x98, 0x78, 0x36, 0xbc, 0x8e, 0xab, 0xb0, 0xbd, 0x7c, 0xa4, 0x0b, 0x3d, 0x32, 0xf7, 0x41, 0xbb, 0x01, 0x4a, 0xce, 0xbd, 0x33, 0x4b, 0xff, 0x3c, 0xe1, 0xff, 0x7f, 0xbd, 0xff, 0x52, 0xbc, 0xbd, 0x20, 0x6c, 0x5e, 0xbc, 0x8d, 0x49, 0x0d, 0xbc, 0xa7, 0x44, 0x57, 0xbd, 0x7f, 0xfd, 0x34, 0xbc, 0x22, 0x26, 0x3e, 0x3d, 0xfe, 0x5f, 0x98, 0x3d, 0x62, 0xd9, 0x5d, 0xbb, 0xd2, 0xdf, 0x9f, 0x3b, 0x83, 0x1a, 0xb1, 0x3d, 0xdc, 0x23, 0xad, 0xbd, 0xc2, 0x3a, 0xd0, 0xbc, 0xe0, 0xce, 0xe6, 0x3c, 0xbe, 0xfd, 0xbd, 0xbd, 0x3b, 0xac, 0x86, 0x3c, 0xb7, 0xa9, 0x6b, 0x3b, 0xba, 0xd8, 0xcd, 0x3c, 0xdc, 0x29, 0x95, 0xbd, 0xd8, 0x0d, 0x23, 0xbb, 0x0d, 0xe9, 0x46, 0x3d, 0x4e, 0x31, 0xfb, 0x3c, 0x9c, 0xbd, 0x1e, 0xbd, 0xde, 0x09, 0x24, 0xbc, 0xc7, 0xb9, 0x4c, 0xbc, 0x8f, 0x54, 0xad, 0xbb, 0x20, 0x03, 0xff, 0xbc, 0x51, 0x76, 0x42, 0x3d, 0x64, 0xb7, 0x97, 0x3d, 0xca, 0xb6, 0x5f, 0xbd, 0x4f, 0xe6, 0x67, 0xbd, 0x22, 0x41, 0x3e, 0x3d, 0x73, 0xa8, 0x0d, 0xbd, 0x07, 0xb0, 0x06, 0x3d, 0xc4, 0x90, 0x4d, 0x3d, 0xeb, 0x85, 0x08, 0xbd, 0x92, 0x81, 0x2d, 0xbd, 0xd7, 0x85, 0x47, 0xbb, 0xe1, 0x41, 0x21, 0xbd, 0xd0, 0x16, 0xbc, 0x3b, 0xb2, 0x4e, 0x40, 0xbd, 0xc5, 0x10, 0x9e, 0xbd, 0xaf, 0x7f, 0x9f, 0xbb, 0xeb, 0xd7, 0x86, 0xbc, 0x42, 0xe5, 0x51, 0xbd, 0x47, 0x29, 0x4e, 0xbd, 0x38, 0xed, 0xac, 0x3c, 0x4d, 0xba, 0x40, 0x3b, 0xa6, 0xb2, 0x29, 0x3d, 0xe0, 0xd4, 0xd6, 0xbc, 0xe0, 0x88, 0xbd, 0xbb, 0x15, 0xa4, 0x21, 0x3c, 0xfb, 0x80, 0x49, 0xbd, 0x42, 0x88, 0x15, 0xbd, 0x27, 0xaf, 0xa2, 0xbd, 0x04, 0x5e, 0xa1, 0xbc, 0x4f, 0xb9, 0x2d, 0xbd, 0x03, 0x5d, 0x44, 0x3d, 0x56, 0x38, 0x39, 0xbb, 0xda, 0x05, 0x9a, 0xbd, 0x9f, 0x13, 0x2f, 0x3d, 0x85, 0x3c, 0x10, 0x3d, 0xe2, 0x2c, 0x1b, 0xbd, 0x96, 0x84, 0x9e, 0x3d, 0x1b, 0x5f, 0x04, 0x3d, 0x61, 0x9b, 0xc7, 0xbb, 0x6c, 0xdf, 0x36, 0x3c, 0x01, 0xc8, 0x09, 0x3d, 0x5b, 0x8f, 0xc4, 0xbd, 0x17, 0x19, 0x1e, 0xbd, 0xa6, 0x66, 0x2b, 0x3d, 0x00, 0x4c, 0xb1, 0xbd, 0x0c, 0xad, 0x48, 0xbd, 0x19, 0x2c, 0x1a, 0x3d, 0x88, 0x06, 0xad, 0xbd, 0x99, 0x1d, 0xf7, 0x3b, 0x44, 0x28, 0x6f, 0x3d, 0xc3, 0x34, 0x83, 0xbd, 0x14, 0xc7, 0x1b, 0xbd, 0x64, 0xc5, 0x8f, 0x3d, 0x6c, 0xaa, 0x44, 0x3c, 0xbd, 0x57, 0xd7, 0x3c, 0x72, 0x38, 0x12, 0x3d, 0x77, 0xff, 0x7b, 0xbc, 0x64, 0x2a, 0x76, 0x3d, 0x8d, 0xfd, 0xad, 0xba, 0x75, 0x26, 0x11, 0xbd, 0xb4, 0x7f, 0x49, 0x3d, 0x2c, 0xc2, 0x89, 0x3d, 0x5a, 0x9f, 0x73, 0xbd, 0x42, 0x4e, 0xbc, 0xbb, 0xb9, 0x49, 0xc4, 0x3d, 0x5a, 0x67, 0xae, 0xbc, 0xf3, 0x70, 0xbc, 0x3c, 0x1e, 0x9d, 0xed, 0x3d, 0x5c, 0xf3, 0x2a, 0xbd, 0xe8, 0x4a, 0x35, 0xbc, 0x9a, 0xb7, 0xa1, 0x3d, 0xed, 0x09, 0xd2, 0xbd, 0x2f, 0xbb, 0x87, 0xbc, 0xc9, 0x20, 0xdd, 0x3d, 0x79, 0x92, 0xa3, 0x3c, 0x08, 0xd2, 0x7c, 0xba, 0x60, 0xda, 0x64, 0x3d, 0x95, 0x11, 0x84, 0xba, 0xe4, 0x70, 0x85, 0x3b, 0x53, 0x4b, 0x88, 0x3d, 0x33, 0xf6, 0xa6, 0xbd, 0x20, 0x33, 0x80, 0xbc, 0x8c, 0x80, 0x90, 0x3d, 0x81, 0xaf, 0x85, 0xbd, 0x53, 0xb8, 0x9c, 0x3c, 0x7a, 0xf6, 0x63, 0x3d, 0xdd, 0xaa, 0xad, 0x3c, 0x4d, 0x17, 0xaf, 0xbd, 0x91, 0x7f, 0x5b, 0x3c, 0x3e, 0x71, 0x53, 0xbd, 0xa7, 0xe2, 0x4d, 0x3c, 0x8f, 0x06, 0x27, 0xbc, 0xf4, 0x24, 0x85, 0xbc, 0x50, 0x5e, 0x71, 0x3c, 0x92, 0x89, 0x4c, 0x3d, 0x1f, 0xc4, 0x9d, 0x3c, 0x14, 0x78, 0x73, 0x3d, 0x71, 0x65, 0xb4, 0x3d, 0xbc, 0x28, 0x83, 0x3c, 0xc7, 0x0a, 0x44, 0x3d, 0x9a, 0xed, 0xbf, 0x3d, 0x4e, 0x80, 0x92, 0xbc, 0x18, 0xa1, 0xf8, 0x3c, 0x6c, 0x65, 0x1d, 0x3d, 0x94, 0xdf, 0xba, 0xbd, 0xf6, 0x10, 0xd6, 0x3c, 0x02, 0x3c, 0x9d, 0x3d, 0xef, 0x05, 0x73, 0xbd, 0x6b, 0x24, 0x69, 0x3d, 0xdc, 0x3d, 0x8a, 0x3d, 0xf5, 0x05, 0x67, 0x3c, 0x44, 0x08, 0x94, 0xbc, 0x86, 0xf4, 0xcd, 0x3b, 0xa2, 0xaa, 0x4c, 0xbd, 0xf3, 0x48, 0x0d, 0xbd, 0x7e, 0xf1, 0x8b, 0x3d, 0x38, 0xe4, 0x93, 0xbc, 0xdc, 0xbd, 0xdf, 0xb9, 0xdd, 0x47, 0x97, 0x3d, 0x82, 0xd8, 0xd4, 0xbd, 0x07, 0x87, 0xd3, 0x3c, 0xa4, 0xbe, 0x9b, 0x3d, 0x76, 0xd5, 0xd3, 0xbd, 0x9e, 0xd3, 0x86, 0xbd, 0xb5, 0xae, 0xc0, 0xba, 0x13, 0x7c, 0xc9, 0xbd, 0x82, 0xcf, 0x07, 0xbd, 0xc4, 0x14, 0x9b, 0x3b, 0x05, 0x5b, 0x92, 0xbd, 0x93, 0x31, 0xba, 0xbd, 0x6a, 0x30, 0xc0, 0xbd, 0x41, 0x0d, 0x71, 0x3d, 0x9c, 0x7c, 0x87, 0xbd, 0x75, 0x3e, 0x42, 0xbd, 0xad, 0xd7, 0xf5, 0xbc, 0x6d, 0xe0, 0xfd, 0xbc, 0x7c, 0x1d, 0x04, 0x3d, 0x6c, 0x57, 0x85, 0x3c, 0x5e, 0xc1, 0xfe, 0x3b, 0xba, 0x85, 0x1b, 0xbc, 0x62, 0x2c, 0x2c, 0xbd, 0x31, 0x09, 0xf3, 0xba, 0x96, 0x8b, 0xd1, 0xbb, 0x55, 0x2f, 0x1a, 0xbd, 0x8d, 0xaf, 0x72, 0xbd, 0x77, 0x25, 0x21, 0x3c, 0x74, 0x81, 0xe0, 0x3c, 0x81, 0x60, 0x5b, 0xbd, 0xb5, 0xb8, 0x72, 0xbb, 0xfa, 0x05, 0xc5, 0xbc, 0x65, 0x77, 0x11, 0xbd, 0x2a, 0x26, 0x73, 0x3d, 0x20, 0xf8, 0x97, 0xbc, 0x7c, 0x23, 0xa0, 0xbc, 0x9d, 0xef, 0x69, 0x3d, 0xfc, 0x24, 0x5c, 0xbd, 0x8e, 0x27, 0x30, 0x3c, 0xf0, 0x74, 0x25, 0xbc, 0xfb, 0xcf, 0x66, 0x3d, 0x93, 0xac, 0xb1, 0xbc, 0x9d, 0x57, 0x9a, 0xbc, 0xfb, 0x97, 0xf7, 0xbc, 0x10, 0xac, 0xc2, 0xbd, 0xa7, 0x37, 0x94, 0xbd, 0x7e, 0xd7, 0x82, 0x3c, 0x50, 0xef, 0xe4, 0x3b, 0xfb, 0xcb, 0x32, 0x3c, 0x69, 0xc7, 0x11, 0xbd, 0x83, 0x24, 0xd6, 0xbd, 0xdd, 0x20, 0xbe, 0x3b, 0xbc, 0xd1, 0x85, 0x3d, 0xce, 0x8a, 0xc6, 0xbd, 0xfc, 0x87, 0x56, 0xbd, 0x0f, 0x03, 0x8e, 0xbc, 0xcc, 0xe8, 0xdb, 0xbb, 0xff, 0xca, 0x14, 0xbc, 0xeb, 0xf6, 0x13, 0xbc, 0x4f, 0xcd, 0xc5, 0xbd, 0xd7, 0xda, 0x9b, 0xbc, 0x2c, 0x87, 0x84, 0xbb, 0x28, 0xd9, 0xc1, 0xbd, 0xed, 0x87, 0x9b, 0x3c, 0x90, 0xb1, 0x11, 0xbd, 0x76, 0x74, 0xeb, 0xbc, 0xd3, 0xdb, 0x51, 0xbb, 0x3c, 0xc0, 0x16, 0xbd, 0x4e, 0x9d, 0xb5, 0xbc, 0xaa, 0x58, 0x49, 0x3c, 0xa0, 0xf0, 0x55, 0xbd, 0xa2, 0x20, 0xa8, 0xbd, 0x70, 0x2c, 0x39, 0xbd, 0x24, 0x20, 0x9b, 0x3a, 0x3b, 0x79, 0x23, 0xbd, 0x08, 0xfe, 0x4a, 0x3c, 0xaf, 0x2c, 0x1b, 0x3d, 0x96, 0x56, 0xbe, 0xbc, 0x88, 0xb6, 0xbd, 0xba, 0x28, 0x56, 0x2d, 0x3d, 0x02, 0xf1, 0x91, 0x3c, 0x99, 0xe9, 0x84, 0xbd, 0x5d, 0x0c, 0x74, 0x3c, 0x3b, 0x54, 0xde, 0xbc, 0x43, 0x3e, 0x97, 0xbd, 0x08, 0xb8, 0x5d, 0xbd, 0xa4, 0xc8, 0x84, 0xbd, 0xae, 0x4b, 0x2f, 0xbd, 0x0d, 0x70, 0x89, 0xbd, 0x4b, 0xe2, 0x1b, 0xbc, 0x38, 0xf9, 0xc2, 0x3b, 0x11, 0x28, 0xfe, 0x3b, 0xd8, 0x60, 0x99, 0xbd, 0xbb, 0x18, 0x62, 0x3c, 0x4e, 0x5b, 0x22, 0x3d, 0x22, 0x42, 0x96, 0xbd, 0x43, 0x3a, 0xb6, 0xbd, 0x42, 0x7d, 0xdf, 0xbc, 0x11, 0x0c, 0x8c, 0xbd, 0x35, 0x34, 0x49, 0xbd, 0x12, 0x26, 0xb7, 0xbc, 0x14, 0x03, 0x4f, 0xbd, 0xa1, 0xde, 0x83, 0xbd, 0xee, 0x65, 0x19, 0xbd, 0x7d, 0x95, 0xdf, 0xbc, 0x96, 0x10, 0x4c, 0xbd, 0x6d, 0xd2, 0x8d, 0xbb, 0x62, 0xd7, 0xc4, 0xbd, 0x12, 0x0f, 0xc5, 0x3b, 0x99, 0x22, 0x46, 0x3c, 0xee, 0x46, 0xa5, 0xbd, 0xfa, 0xed, 0xa0, 0xbc, 0x60, 0xcb, 0x3f, 0x3b, 0x3f, 0x80, 0xfe, 0xbb, 0x53, 0xf8, 0x83, 0xbd, 0xb0, 0xe4, 0x37, 0x3d, 0x77, 0xc7, 0x16, 0xbc, 0x93, 0x7b, 0xbc, 0xbd, 0x2e, 0x49, 0x6f, 0xbd, 0xb3, 0xfe, 0x83, 0xbd, 0xca, 0x50, 0x52, 0xbd, 0xae, 0x2c, 0xa7, 0x3c, 0x9d, 0x08, 0xf2, 0xbc, 0xd0, 0xde, 0x02, 0xbd, 0xd0, 0x39, 0x2f, 0xbd, 0xc8, 0xbe, 0xcb, 0xbb, 0xc5, 0x29, 0x2f, 0xbd, 0xa3, 0x17, 0x1d, 0x3d, 0x72, 0x5c, 0xd8, 0x3b, 0x3d, 0x3e, 0x84, 0xbd, 0x4d, 0x3b, 0xe7, 0xbc, 0xc1, 0x20, 0xa7, 0x3c, 0x9f, 0x49, 0xa7, 0xbd, 0x6a, 0xf2, 0x51, 0xbd, 0xe3, 0x36, 0x6a, 0x3c, 0xa2, 0xc6, 0x4f, 0xbd, 0x4d, 0xfc, 0x50, 0x3c, 0x6c, 0x3d, 0xb3, 0xbd, 0xbf, 0xf7, 0x62, 0x3c, 0xe3, 0x10, 0x51, 0x3c, 0x6e, 0x54, 0x04, 0xbd, 0x2e, 0xb1, 0x63, 0xbd, 0x00, 0x85, 0xe3, 0xbc, 0xc2, 0x7b, 0xea, 0xbb, 0x51, 0x5b, 0x3e, 0xbc, 0xd3, 0xe1, 0x72, 0x3d, 0xcb, 0x7b, 0x86, 0xbd, 0x88, 0x13, 0xb6, 0xbd, 0x8d, 0x06, 0xd7, 0xbc, 0x6d, 0xf2, 0x1f, 0xbc, 0xdd, 0xea, 0x21, 0xbd, 0x1a, 0x48, 0x92, 0x3c, 0x7c, 0xf5, 0xa7, 0xbd, 0x15, 0x61, 0xad, 0x3b, 0xac, 0x68, 0x10, 0x3d, 0x26, 0x1d, 0x81, 0xbd, 0xec, 0xc0, 0xc2, 0xbb, 0xb1, 0x0a, 0x1f, 0xbb, 0x6c, 0xa3, 0x8b, 0xbd, 0xdb, 0x2b, 0xc2, 0xbc, 0x46, 0x6d, 0x8e, 0x3d, 0xc1, 0x04, 0x68, 0xbd, 0x26, 0xeb, 0x35, 0xbd, 0xc7, 0x3e, 0x4a, 0xbd, 0x7a, 0xaa, 0xa0, 0xbd, 0x9b, 0x92, 0x0b, 0xbd, 0x7a, 0x3f, 0x62, 0xbd, 0x26, 0x21, 0x68, 0xbd, 0xcd, 0x70, 0x5b, 0xbd, 0x73, 0x06, 0x0d, 0xbd, 0x01, 0x15, 0xb2, 0xbd, 0x99, 0xb9, 0x76, 0xbd, 0xbf, 0xe5, 0xbd, 0x3c, 0x50, 0x58, 0xd9, 0x3c, 0x1d, 0x24, 0x7e, 0xbd, 0x84, 0x79, 0xa4, 0xbd, 0x6c, 0xe6, 0x23, 0x3c, 0x4b, 0x5d, 0xda, 0xb9, 0x69, 0x05, 0xe9, 0xbc, 0xab, 0x3c, 0xbd, 0x3b, 0x5a, 0x13, 0x3a, 0x3c, 0x9a, 0x6a, 0xeb, 0xbb, 0x7c, 0x46, 0x99, 0x3c, 0xe6, 0x30, 0x32, 0xbc, 0x07, 0x89, 0x41, 0x3c, 0x98, 0x9a, 0x4c, 0xbd, 0xf4, 0xe7, 0x4e, 0xbd, 0xb2, 0x50, 0xa3, 0xbd, 0x31, 0xe9, 0xee, 0xbc, 0x6b, 0x95, 0x60, 0xbc, 0x9c, 0xa0, 0x87, 0xbd, 0x43, 0x5d, 0xc2, 0xbd, 0x40, 0xd2, 0xc5, 0x3c, 0x33, 0x84, 0x27, 0xbd, 0x77, 0xd1, 0x0b, 0x3d, 0x29, 0xc9, 0x9c, 0xbd, 0xa2, 0x8c, 0xe9, 0xbc, 0x00, 0xff, 0xa2, 0xbc, 0xe0, 0xb6, 0x5f, 0xbb, 0x20, 0x30, 0x7c, 0xbd, 0xd5, 0xef, 0x2f, 0xbd, 0x93, 0x37, 0x87, 0x3d, 0x6e, 0xd0, 0xa3, 0x3c, 0x13, 0x9f, 0x30, 0xbd, 0xbd, 0xfa, 0xc9, 0xbc, 0xb1, 0x6c, 0x02, 0xbd, 0xa0, 0xb6, 0x9b, 0xbd, 0x36, 0xd0, 0x7a, 0x3c, 0x5f, 0x72, 0x9c, 0xbd, 0x85, 0xef, 0xaa, 0x3b, 0x83, 0xb1, 0x12, 0x3d, 0xc4, 0x9c, 0x08, 0x3c, 0x8a, 0xc1, 0x15, 0x3d, 0x74, 0x06, 0x61, 0xba, 0x53, 0xec, 0xb3, 0x3b, 0xc9, 0xd0, 0x18, 0x3d, 0xf1, 0xbc, 0x73, 0x3d, 0xba, 0xc7, 0x3a, 0xbc, 0x18, 0xcb, 0xb7, 0x3b, 0x2a, 0xeb, 0x66, 0x3d, 0x95, 0xb7, 0x8e, 0x3b, 0xa3, 0xd6, 0x0f, 0x3d, 0x1d, 0xca, 0x49, 0xbd, 0x23, 0xde, 0xfb, 0xbc, 0x7a, 0x35, 0x78, 0xbd, 0x2e, 0x48, 0x36, 0x3b, 0x9d, 0x79, 0xb4, 0xbc, 0x74, 0x07, 0x0f, 0xbd, 0xc4, 0xf2, 0x3d, 0x3d, 0x91, 0x0b, 0xae, 0xbd, 0xf5, 0x34, 0x01, 0x3d, 0x3f, 0xd1, 0x31, 0x3d, 0x19, 0xbe, 0xee, 0xbc, 0x09, 0xe1, 0xa9, 0x3c, 0x3b, 0xfc, 0x47, 0xbc, 0xf4, 0x33, 0x23, 0xbd, 0xb2, 0x38, 0x38, 0xbd, 0x49, 0x92, 0x40, 0x3d, 0x7d, 0xf0, 0x00, 0xbb, 0xa0, 0xc4, 0x9b, 0x3d, 0x77, 0xde, 0x33, 0xbd, 0xae, 0x63, 0x79, 0xbd, 0x21, 0x21, 0xf0, 0x3c, 0xe0, 0x6f, 0x65, 0xbd, 0x2e, 0xb3, 0x36, 0xbd, 0x67, 0xbb, 0x22, 0x3d, 0xa9, 0x48, 0x69, 0x3c, 0x21, 0xcb, 0x51, 0xbd, 0xe2, 0xc8, 0x19, 0xbd, 0xfa, 0xe3, 0x77, 0xbc, 0x8e, 0x13, 0xa0, 0x3b, 0x5e, 0x56, 0x3f, 0xbc, 0x63, 0x0f, 0xec, 0x3c, 0xc1, 0xaa, 0xa2, 0xbd, 0x2b, 0x49, 0x2d, 0x3d, 0x6a, 0xa3, 0x12, 0xbd, 0x82, 0xe1, 0xac, 0xbc, 0x2a, 0xe6, 0x7e, 0xbc, 0x9c, 0xad, 0xa3, 0x3c, 0x0d, 0x5b, 0xd5, 0xbc, 0x36, 0x3c, 0x45, 0x3d, 0x0a, 0xb7, 0x1d, 0xbb, 0xe1, 0x24, 0x1a, 0xbd, 0xe0, 0x53, 0x5a, 0x3c, 0xfc, 0x2e, 0xf3, 0xbc, 0x49, 0xc3, 0x04, 0xbc, 0xb1, 0x5a, 0x73, 0xbd, 0x7b, 0xe3, 0xb3, 0xbb, 0x72, 0x59, 0x96, 0xbd, 0xda, 0x2c, 0xf2, 0xbc, 0x14, 0x07, 0x1d, 0x3d, 0x65, 0xcc, 0x94, 0x3c, 0x42, 0x29, 0x1d, 0x3d, 0x00, 0x46, 0xb9, 0x3b, 0x56, 0xd7, 0x95, 0xbc, 0x33, 0x8e, 0x24, 0x3d, 0x5d, 0xf2, 0x17, 0x3d, 0xa9, 0x89, 0x39, 0xbc, 0x53, 0xea, 0x8c, 0xbc, 0x87, 0xbe, 0xb2, 0x3c, 0xce, 0x17, 0xb0, 0x3a, 0xd4, 0xd9, 0x14, 0xbd, 0xf6, 0x39, 0x45, 0x3c, 0x7a, 0xf1, 0x1d, 0x3c, 0x87, 0x54, 0xea, 0x3c, 0x2d, 0x08, 0xfe, 0xbc, 0xd8, 0x12, 0x8a, 0xbd, 0xe8, 0x48, 0x3d, 0x3d, 0xdf, 0x47, 0x41, 0x3d, 0x90, 0xf3, 0x7a, 0xbd, 0xdd, 0x5f, 0x97, 0xbc, 0x96, 0xbf, 0x48, 0x3d, 0xcc, 0x01, 0x42, 0x3c, 0x75, 0x47, 0x94, 0xbd, 0xbf, 0x51, 0x11, 0xbd, 0x12, 0xb6, 0xe3, 0x3c, 0x9d, 0x69, 0x8c, 0xbd, 0x3c, 0x31, 0x00, 0xbd, 0x08, 0x0d, 0x9e, 0xbd, 0xe7, 0x2f, 0xa0, 0xbc, 0xf0, 0xf7, 0x74, 0xbd, 0x88, 0x18, 0x2c, 0xbd, 0x0b, 0xa2, 0x19, 0x3d, 0x91, 0xb9, 0x02, 0x3d, 0x23, 0x7d, 0x75, 0xbc, 0x0b, 0xe2, 0x3f, 0xbd, 0xae, 0x2c, 0x3d, 0x3d, 0x01, 0x09, 0xb3, 0xbc, 0x4c, 0xc4, 0xa6, 0xbc, 0xcb, 0x2b, 0x3a, 0xbc, 0x9b, 0x65, 0xb3, 0x3b, 0x9e, 0x6d, 0x1d, 0x3d, 0x8b, 0x97, 0x7f, 0xbd, 0x84, 0xd9, 0x05, 0x3d, 0xeb, 0x85, 0xde, 0x3c, 0xb4, 0x68, 0x46, 0xbd, 0x5c, 0x85, 0xa2, 0x3d, 0x19, 0x63, 0x8d, 0x3d, 0x61, 0xc2, 0x02, 0x3c, 0x22, 0x51, 0xd6, 0x3d, 0xe2, 0xd7, 0x85, 0x3b, 0xc5, 0x8e, 0x9c, 0x3b, 0x04, 0xc8, 0x75, 0x3b, 0xa1, 0xc9, 0xdd, 0x3c, 0x9b, 0x10, 0xc4, 0x3c, 0xb5, 0xd3, 0x5b, 0xbc, 0x4c, 0x4b, 0x4f, 0x3d, 0x18, 0x85, 0x6a, 0xbd, 0xb2, 0xbf, 0xc1, 0x3d, 0x32, 0xa5, 0x46, 0x3d, 0x2c, 0xa0, 0x3e, 0xbd, 0xd7, 0xf0, 0x30, 0x3d, 0xab, 0x0a, 0x16, 0xbb, 0x8d, 0xd4, 0x5f, 0xbd, 0x70, 0xa8, 0xf1, 0x3d, 0x46, 0xb3, 0x13, 0x3c, 0xa8, 0xee, 0xf7, 0x3c, 0x7e, 0x02, 0x0f, 0x3d, 0x1e, 0x79, 0x81, 0xbd, 0xe7, 0x3a, 0x26, 0xbd, 0x17, 0xe0, 0xa6, 0x3d, 0xfb, 0x41, 0x2c, 0xbd, 0x41, 0x90, 0xd6, 0xbc, 0xc3, 0xfe, 0x55, 0x3d, 0xae, 0x4f, 0xb4, 0xbc, 0x14, 0x63, 0x1c, 0xbc, 0x82, 0xb8, 0x82, 0x3d, 0x7b, 0x5d, 0x39, 0x3d, 0x39, 0x5e, 0x89, 0xbc, 0x14, 0xa9, 0x08, 0x3e, 0x95, 0xe3, 0x58, 0xbd, 0xc6, 0x47, 0x51, 0x3d, 0xf3, 0xe5, 0x05, 0x3d, 0x88, 0x16, 0x53, 0x3d, 0x66, 0xa1, 0xdb, 0x3d, 0xd7, 0x7e, 0xee, 0x3c, 0xe1, 0xe2, 0x22, 0x3d, 0x55, 0x7e, 0x44, 0x3d, 0xa1, 0xee, 0xe8, 0x3d, 0xcc, 0x57, 0x45, 0xbd, 0x42, 0x25, 0x46, 0xbc, 0xd0, 0xc5, 0x04, 0x3e, 0x48, 0x35, 0xbd, 0xbc, 0x3b, 0xf3, 0xd1, 0x3b, 0x9a, 0x24, 0x04, 0x3e, 0x48, 0x04, 0x50, 0xbd, 0x15, 0x11, 0x1a, 0x3d, 0x80, 0xa3, 0x9c, 0x3c, 0xcb, 0x34, 0xa2, 0xbb, 0x7e, 0x65, 0x51, 0x3d, 0xc5, 0x79, 0xee, 0x3d, 0xd9, 0x18, 0x30, 0xbc, 0x72, 0xbd, 0xcc, 0x3c, 0x6a, 0x18, 0x04, 0x3d, 0x76, 0x1b, 0x37, 0x3d, 0xee, 0x03, 0x86, 0xbd, 0x3d, 0xba, 0xa7, 0x3d, 0x3d, 0xd5, 0xc9, 0x3c, 0x1c, 0xd2, 0xee, 0xbc, 0xd5, 0xed, 0xc5, 0x3d, 0x31, 0x39, 0x61, 0xbd, 0x95, 0xc6, 0xdd, 0x3b, 0xcc, 0x51, 0x8a, 0x3d, 0xfe, 0x67, 0x9b, 0x3a, 0xd0, 0x2c, 0xcd, 0x3c, 0x53, 0xac, 0xa7, 0x3d, 0x18, 0x9d, 0x23, 0x3d, 0xd0, 0xd3, 0x85, 0xbd, 0x4d, 0xef, 0x42, 0x3d, 0x4b, 0x35, 0x43, 0xbd, 0xf6, 0x3b, 0x73, 0xbd, 0x66, 0x9c, 0xc6, 0x3d, 0x5c, 0x14, 0x71, 0xbd, 0xd2, 0x1d, 0xf2, 0x3c, 0xbc, 0x28, 0x38, 0x3d, 0x0e, 0x96, 0x65, 0x3c, 0xb9, 0xac, 0x85, 0xbd, 0xce, 0x41, 0x86, 0xba, 0x4a, 0xc6, 0xd9, 0xbc, 0x37, 0x39, 0xfa, 0xbc, 0x91, 0x98, 0x7a, 0x3d, 0xa6, 0xdd, 0x04, 0x3d, 0x06, 0x1b, 0x51, 0x3d, 0x1a, 0xf5, 0x09, 0xbb, 0x28, 0x4f, 0x91, 0x3c, 0xea, 0x76, 0x11, 0x3c, 0x36, 0xa6, 0xc5, 0x3d, 0x9d, 0x22, 0x00, 0xbd, 0x26, 0x80, 0xa9, 0xbc, 0xe7, 0x51, 0x70, 0x3c, 0x53, 0xd8, 0x30, 0xbd, 0xff, 0xcd, 0xe6, 0xbc, 0x4a, 0x4f, 0xb0, 0x3d, 0x52, 0x6e, 0x32, 0xbd, 0x4f, 0x2c, 0xd7, 0xba, 0x70, 0x8c, 0x84, 0x3d, 0x94, 0x2e, 0x1d, 0x3d, 0xe9, 0xee, 0xc0, 0xbc, 0x9a, 0x99, 0x9b, 0x3c, 0x5f, 0x2d, 0xab, 0xbc, 0x49, 0xba, 0x1b, 0x3d, 0x23, 0xdf, 0xd4, 0x3c, 0x54, 0x60, 0x27, 0xbd, 0x03, 0xce, 0x50, 0xbd, 0x9f, 0x9f, 0x76, 0x3d, 0x23, 0x83, 0xa0, 0xbc, 0x12, 0x14, 0xfc, 0x3c, 0x8e, 0x32, 0x90, 0x3d, 0x26, 0x1c, 0xc1, 0x3c, 0x09, 0x9c, 0x1e, 0xbd, 0x4d, 0x7d, 0x42, 0x3d, 0xad, 0x8b, 0xa9, 0xbd, 0x15, 0x0b, 0x2e, 0x3d, 0xf5, 0x61, 0x3d, 0x3d, 0x36, 0x42, 0xf1, 0xbc, 0x8f, 0x90, 0x23, 0x3d, 0xe4, 0x73, 0x85, 0x3d, 0xe5, 0x7d, 0xc4, 0xbc, 0x60, 0x28, 0x49, 0x3d, 0x99, 0x14, 0xbb, 0x3d, 0x1f, 0x91, 0x82, 0xbd, 0xe5, 0x6c, 0x4e, 0xbd, 0xdf, 0xef, 0xdb, 0x3d, 0xea, 0x7d, 0x99, 0xbd, 0x97, 0xed, 0xe9, 0xbc, 0xab, 0x3d, 0xd8, 0x3c, 0xa1, 0x29, 0x49, 0xbd, 0x42, 0x52, 0x36, 0x3d, 0xdc, 0x9e, 0xf1, 0x3c, 0xe0, 0x87, 0x4d, 0xbd, 0x4b, 0x38, 0x03, 0xbd, 0x99, 0x25, 0xf1, 0x3c, 0x3c, 0x51, 0x8a, 0x3b, 0x78, 0xb6, 0x73, 0x3c, 0xa1, 0xb5, 0xf8, 0x3c, 0x3f, 0xaa, 0x47, 0x3c, 0x8a, 0xbb, 0xe8, 0x3c, 0xfa, 0x7d, 0xd8, 0x3d, 0xb9, 0xc6, 0xa0, 0xbb, 0xfb, 0xbd, 0x60, 0xbd, 0xb1, 0xf6, 0xfb, 0x3d, 0x51, 0x4f, 0x46, 0x3c, 0xaa, 0x4b, 0x5a, 0x3b, 0x06, 0xc6, 0xd2, 0x3c, 0x5a, 0xdf, 0x00, 0x3d, 0x03, 0xd6, 0x9d, 0x3c, 0x5d, 0x02, 0xe7, 0x3c, 0x09, 0x35, 0x9c, 0x3c, 0xe3, 0x0e, 0xb3, 0x3c, 0xcb, 0x39, 0x97, 0x3d, 0xd9, 0x72, 0xb2, 0x3c, 0x43, 0x98, 0x28, 0xbd, 0x5b, 0x91, 0x62, 0x3d, 0x86, 0xc8, 0x0b, 0xbb, 0xd7, 0x8c, 0x79, 0xbc, 0xb9, 0x2a, 0x23, 0x3d, 0xcc, 0xbd, 0xb2, 0x3d, 0xaf, 0xcf, 0x90, 0xbc, 0x61, 0xa0, 0x83, 0x3d, 0xcf, 0x40, 0x8b, 0x3d, 0x71, 0x1d, 0xeb, 0xbc, 0x70, 0x18, 0xe8, 0xb9, 0xd9, 0xc0, 0x0b, 0x3d, 0x87, 0x7e, 0x19, 0xbd, 0xff, 0x87, 0x13, 0xbd, 0xbe, 0x13, 0x37, 0x3d, 0xdf, 0x84, 0xb4, 0xbc, 0x85, 0x1a, 0x2c, 0xbd, 0xb8, 0x49, 0xf4, 0xbb, 0xb7, 0xa0, 0xec, 0x3c, 0xcb, 0xf6, 0x71, 0xbd, 0x43, 0x9a, 0x90, 0x3c, 0x8e, 0xa1, 0xe9, 0x3c, 0x8b, 0x24, 0x0a, 0xbd, 0x0f, 0x04, 0xe8, 0xbb, 0x0c, 0xf6, 0x68, 0xbd, 0x48, 0x3f, 0x69, 0xbd, 0x6e, 0xf7, 0x5f, 0x3d, 0x83, 0x39, 0x85, 0xbc, 0x0f, 0xf5, 0x4b, 0xbc, 0x1b, 0x49, 0x89, 0x3d, 0x09, 0xa0, 0xb4, 0x3a, 0x15, 0x1f, 0xb7, 0xbb, 0x2b, 0xbf, 0x68, 0x3d, 0xdc, 0x1f, 0xb6, 0x3b, 0x1b, 0xa2, 0xe3, 0xba, 0xde, 0x05, 0x0c, 0xbd, 0x3d, 0xab, 0x90, 0xbc, 0x0a, 0x66, 0x55, 0xbd, 0x98, 0x93, 0x69, 0x3d, 0x93, 0x55, 0x07, 0x3d, 0xb1, 0x6b, 0x81, 0xbd, 0x3c, 0x19, 0x8b, 0x3d, 0x79, 0xfa, 0x15, 0xbd, 0xd6, 0x5d, 0x81, 0xbc, 0xce, 0x09, 0x0a, 0xbc, 0x8b, 0xf6, 0x65, 0x3d, 0xeb, 0xc6, 0xe5, 0xbc, 0xc7, 0x58, 0xa1, 0x3d, 0x49, 0x5d, 0x75, 0x3d, 0x08, 0x90, 0xb5, 0xbd, 0x07, 0x1d, 0xa5, 0x3c, 0x66, 0x1a, 0xa0, 0xbc, 0x13, 0x48, 0x0e, 0xbd, 0xe2, 0xee, 0x12, 0x3d, 0xa6, 0x3b, 0x1b, 0x3d, 0x20, 0x18, 0xa2, 0xbd, 0x4f, 0xc6, 0x14, 0xbb, 0xb4, 0x69, 0x17, 0xbd, 0xe9, 0x59, 0x99, 0x3c, 0x4e, 0x9b, 0x0e, 0xbd, 0x9c, 0x21, 0x9d, 0x3a, 0xd0, 0x7d, 0x28, 0x3c, 0xf8, 0xfc, 0xee, 0x3c, 0xd7, 0x70, 0xa3, 0x3c, 0x3a, 0xfb, 0x7c, 0xbd, 0x90, 0x48, 0x15, 0xbb, 0x61, 0x0f, 0xda, 0xbc, 0xe7, 0x22, 0xa0, 0x3c, 0x56, 0x6b, 0x59, 0xbb, 0xc8, 0x76, 0x8f, 0x3d, 0x23, 0x72, 0xd6, 0xbb, 0xce, 0xaa, 0x19, 0xbd, 0xc8, 0x24, 0xde, 0xbb, 0x88, 0xe1, 0x80, 0x3d, 0x67, 0x24, 0x44, 0x3d, 0x0f, 0x81, 0x81, 0x3c, 0x4f, 0xb0, 0xab, 0xbc, 0x0e, 0x5e, 0x58, 0x3d, 0x30, 0xf9, 0xc2, 0xbc, 0x8e, 0x6b, 0x79, 0x3d, 0xba, 0x29, 0x01, 0x3e, 0x02, 0x3a, 0x93, 0xbc, 0xa9, 0x88, 0x22, 0xbd, 0x9b, 0xd6, 0x9c, 0x3d, 0x64, 0xa4, 0xbc, 0xbc, 0x25, 0x83, 0x8f, 0x3d, 0xd4, 0x1e, 0xdd, 0x3d, 0xc5, 0x19, 0x40, 0xbc, 0x76, 0x1b, 0xad, 0x3d, 0x02, 0x6c, 0xd1, 0x3d, 0x6f, 0x69, 0xaf, 0x3b, 0xd8, 0x4d, 0x12, 0x3d, 0xb8, 0xb4, 0x74, 0x3d, 0x7e, 0x95, 0x9e, 0x3c, 0x30, 0x27, 0xdc, 0xbc, 0x3d, 0x30, 0x9c, 0x3d, 0x7a, 0x25, 0x54, 0x3d, 0x80, 0x3e, 0xfd, 0xbb, 0xb4, 0xe9, 0xf2, 0xbb, 0xba, 0x3a, 0x6e, 0x3d, 0x28, 0xb3, 0xc2, 0x3b, 0x99, 0xd2, 0x71, 0x3d, 0x15, 0x02, 0x09, 0x3d, 0xdf, 0x43, 0xec, 0x3b, 0xdd, 0x5f, 0x6f, 0xbc, 0x54, 0xfa, 0xc3, 0xbc, 0xe3, 0xa5, 0xaa, 0x3d, 0x58, 0xa0, 0x04, 0x3d, 0xf4, 0x50, 0x11, 0xbd, 0xe8, 0x56, 0x46, 0x3d, 0x55, 0x44, 0x98, 0xbc, 0xdf, 0xa1, 0xc8, 0xbc, 0x52, 0xd5, 0x82, 0x3d, 0xc1, 0xda, 0xb3, 0x3d, 0x17, 0xdf, 0x2d, 0x3c, 0x49, 0x3d, 0x58, 0xbc, 0x64, 0xb7, 0x00, 0x3d, 0xa0, 0x55, 0xc1, 0x3c, 0x11, 0xbc, 0x76, 0xbc, 0x1a, 0x5b, 0x01, 0xbc, 0x53, 0x82, 0x06, 0xbd, 0x8b, 0xb9, 0xef, 0xbc, 0xc3, 0x71, 0xf3, 0xba, 0xba, 0x52, 0x95, 0xbd, 0x00, 0xd7, 0x93, 0x3c, 0x9a, 0x46, 0x4a, 0x3c, 0x78, 0xe1, 0x80, 0x3c, 0x09, 0x0d, 0x1e, 0xbc, 0x31, 0x18, 0xac, 0xbc, 0xe8, 0x1e, 0x02, 0xbd, 0x07, 0x90, 0x7c, 0x3d, 0x9e, 0xa7, 0x34, 0xbd, 0xfc, 0x90, 0x54, 0xbb, 0x73, 0x3b, 0xfc, 0xbb, 0x05, 0xa1, 0x63, 0x3d, 0x4d, 0x81, 0x80, 0xbc, 0xa6, 0x3a, 0x24, 0x3c, 0xb5, 0x55, 0x04, 0xbd, 0x70, 0x7d, 0x10, 0x3d, 0x32, 0x98, 0x47, 0xbd, 0xaf, 0x92, 0x29, 0xbd, 0x0a, 0xe5, 0x30, 0xbd, 0x1d, 0xf0, 0x93, 0xbd, 0x8b, 0x87, 0x59, 0xbb, 0x4e, 0x8c, 0x3f, 0x3c, 0x0d, 0xc5, 0x6d, 0xbd, 0x2a, 0x5f, 0x19, 0x3d, 0xe8, 0x23, 0x18, 0x3c, 0x48, 0xb4, 0xb7, 0xbd, 0xd6, 0x03, 0x09, 0xbd, 0x95, 0x6c, 0x4c, 0xbb, 0x71, 0x32, 0x8d, 0xbc, 0x07, 0xb9, 0x44, 0xbd, 0x59, 0xb6, 0x87, 0x3d, 0x8c, 0x13, 0x96, 0xbd, 0xa5, 0x30, 0x42, 0x3d, 0xa5, 0x44, 0xe9, 0x3c, 0xe3, 0x24, 0x51, 0xbd, 0xec, 0x6a, 0x84, 0x3b, 0x47, 0x3b, 0x8f, 0x3d, 0xeb, 0xec, 0x81, 0x3b, 0x47, 0x4b, 0x1b, 0x3d, 0xc7, 0x8b, 0x89, 0xbc, 0x44, 0x78, 0xcc, 0xbd, 0xbc, 0xea, 0xd4, 0x3c, 0x86, 0x01, 0x97, 0xbc, 0xed, 0x70, 0xef, 0xbc, 0x58, 0x2b, 0x8e, 0xbc, 0xbd, 0x34, 0x3f, 0x3d, 0xc2, 0xd3, 0xd6, 0x3b, 0xb7, 0x9d, 0xab, 0xbd, 0x36, 0x20, 0x17, 0x3d, 0xee, 0xc1, 0x82, 0x3c, 0xc3, 0x9d, 0x45, 0xbd, 0xda, 0x8b, 0x3d, 0xbd, 0x7d, 0x1e, 0x4b, 0xbd, 0x32, 0x15, 0x41, 0xbd, 0xce, 0x0f, 0x50, 0x3d, 0xda, 0x5b, 0x39, 0xbd, 0xbe, 0x00, 0x35, 0xbd, 0x43, 0xed, 0x99, 0x3d, 0x29, 0xc8, 0x4d, 0xbc, 0x69, 0x61, 0x78, 0xbd, 0x72, 0xef, 0x0d, 0x3d, 0x9f, 0x20, 0xd1, 0xbc, 0x07, 0xec, 0x87, 0xbd, 0x5b, 0x90, 0x81, 0x3c, 0xce, 0xb4, 0x1f, 0xbd, 0x0d, 0xdc, 0x4e, 0x3d, 0x34, 0xb8, 0x24, 0xbc, 0x27, 0x91, 0xe2, 0xbd, 0x9b, 0x1b, 0x8f, 0x3c, 0xcc, 0x28, 0x58, 0x3d, 0xbb, 0x1a, 0xbf, 0xbc, 0xd8, 0xa2, 0x3c, 0xbd, 0xf5, 0x4a, 0x06, 0xbb, 0x08, 0x6f, 0x9f, 0xbd, 0x49, 0x14, 0x65, 0xbd, 0x65, 0xc2, 0x04, 0x3d, 0x3f, 0x15, 0xa2, 0xbd, 0x35, 0x04, 0x71, 0x3d, 0x3d, 0x02, 0x03, 0xbd, 0x3b, 0x22, 0xdf, 0xbd, 0x51, 0x29, 0x19, 0xbc, 0xe9, 0x6f, 0xf8, 0xbc, 0x8c, 0xe2, 0xd4, 0xbd, 0xeb, 0x11, 0x87, 0x3c, 0xd3, 0x8c, 0x88, 0x3c, 0x1f, 0xc5, 0x9a, 0xbd, 0xe4, 0xc5, 0x84, 0x3d, 0x60, 0xc6, 0x4b, 0xbd, 0x65, 0x05, 0xe5, 0xbd, 0x18, 0xec, 0x17, 0x3d, 0x59, 0x6a, 0x81, 0x3c, 0x79, 0xc8, 0xca, 0xbc, 0xb1, 0x74, 0xb7, 0x3d, 0x7c, 0xe9, 0xad, 0xbc, 0xd7, 0x8f, 0xa7, 0xbd, 0x11, 0xf9, 0x83, 0x3b, 0xa5, 0x1b, 0x07, 0x3d, 0xb4, 0x7e, 0xbe, 0xbd, 0x55, 0xc9, 0x18, 0x3d, 0x98, 0xf7, 0x8d, 0x3d, 0xbc, 0xa5, 0x11, 0xbd, 0xcb, 0x55, 0x53, 0x3c, 0xed, 0xd3, 0xbe, 0xba, 0x0b, 0xf2, 0x10, 0x3d, 0xe7, 0x09, 0x72, 0x3c, 0xfe, 0x4a, 0xc0, 0x3d, 0x61, 0xd5, 0x38, 0xbd, 0x35, 0x4b, 0x82, 0x3d, 0xa8, 0x10, 0x94, 0x3d, 0x12, 0xb7, 0x0c, 0x3c, 0xff, 0xed, 0x14, 0xbc, 0x17, 0x63, 0xb3, 0x3d, 0x93, 0x86, 0x13, 0xbd, 0xfb, 0x7a, 0xc6, 0x3b, 0x60, 0x52, 0x90, 0x3d, 0x70, 0xda, 0x33, 0xbd, 0x35, 0x8b, 0x89, 0x3c, 0xd5, 0xa9, 0x91, 0xbc, 0x20, 0x1c, 0x29, 0xbd, 0xc9, 0x84, 0x9d, 0xbd, 0x6b, 0xd0, 0xa2, 0x3d, 0xe8, 0x1d, 0x80, 0x3c, 0x9a, 0xfc, 0x8a, 0xbd, 0x09, 0x25, 0xa6, 0x3d, 0x55, 0xdf, 0x5e, 0xbd, 0xc4, 0xbe, 0x04, 0xbd, 0xc7, 0x3d, 0xb7, 0x3d, 0xb9, 0x04, 0xbe, 0xbd, 0xee, 0x79, 0x86, 0xbc, 0x10, 0x3e, 0x2a, 0xbb, 0xdb, 0x7b, 0x88, 0xbd, 0x20, 0xad, 0x27, 0xbd, 0xf2, 0x14, 0x00, 0x3c, 0x69, 0xc8, 0x2f, 0xbd, 0x2c, 0x9a, 0xca, 0xbb, 0xd3, 0x50, 0x8d, 0x3d, 0xd4, 0x0a, 0x78, 0xbd, 0x34, 0x6e, 0x03, 0x3c, 0xd3, 0xd5, 0x8b, 0x3d, 0x6a, 0x7c, 0xd5, 0x3c, 0xeb, 0x92, 0x9a, 0xbd, 0xfa, 0xb8, 0xd3, 0xbc, 0xfd, 0x5c, 0xe7, 0x3a, 0x53, 0x62, 0x45, 0xbd, 0x11, 0xa6, 0x0c, 0xbb, 0xea, 0x90, 0x39, 0xbd, 0x56, 0x41, 0x0e, 0xbd, 0xf6, 0x32, 0xab, 0x3d, 0xc4, 0x6a, 0xda, 0xbd, 0x3d, 0x00, 0x73, 0xbd, 0x30, 0x44, 0x69, 0x3d, 0x2f, 0x28, 0xfb, 0xbd, 0x0f, 0x82, 0x51, 0x3b, 0x9b, 0xd1, 0x6e, 0xbb, 0xda, 0xf8, 0xeb, 0xbc, 0x92, 0x54, 0x10, 0xbd, 0xf7, 0xca, 0x0f, 0x3d, 0x89, 0x97, 0xcd, 0xbd, 0x33, 0x52, 0x2c, 0x3c, 0xbb, 0xee, 0xd0, 0x3a, 0x3d, 0x02, 0xa6, 0xbd, 0xbf, 0x80, 0xc6, 0xbc, 0xb1, 0x44, 0x0b, 0x3d, 0x46, 0xfb, 0x1e, 0xbd, 0x5c, 0x60, 0x5d, 0x3a, 0xa5, 0x22, 0x7b, 0x3d, 0xe7, 0x0c, 0x8d, 0xbc, 0x05, 0x85, 0xcc, 0xbc, 0xde, 0x0b, 0x46, 0x3c, 0xc0, 0x4c, 0x72, 0xbc, 0x40, 0x13, 0x5b, 0x39, 0x1d, 0xd0, 0x7a, 0x3c, 0x14, 0x57, 0x19, 0x3d, 0xaa, 0x39, 0x89, 0x3d, 0x01, 0xf8, 0xad, 0x3d, 0x8c, 0x7c, 0x6b, 0xbd, 0x0e, 0x9d, 0xf1, 0xbb, 0xab, 0xa0, 0x20, 0x3c, 0xe1, 0x50, 0x8d, 0xbb, 0x7b, 0x90, 0x8b, 0x3d, 0xfb, 0xac, 0x98, 0x3c, 0x07, 0x59, 0x2b, 0x3d, 0x45, 0x5b, 0x8f, 0x3d, 0xa2, 0x9b, 0xd0, 0x3b, 0xd6, 0x6f, 0x10, 0xbd, 0x49, 0x97, 0x76, 0x3c, 0x1c, 0xa1, 0x49, 0x3d, 0x76, 0x98, 0xc5, 0xbb, 0x17, 0x2e, 0x9c, 0xba, 0x0c, 0x0d, 0x76, 0x3c, 0x24, 0xb5, 0x49, 0xbd, 0x52, 0x44, 0xb1, 0x3c, 0x26, 0xce, 0xd7, 0x3d, 0xba, 0x6e, 0xa2, 0xbd, 0x90, 0x72, 0x09, 0x3c, 0xa5, 0xa2, 0xa6, 0x3d, 0x27, 0x8d, 0xc0, 0xbc, 0xed, 0x53, 0x06, 0xbd, 0xab, 0x7a, 0x08, 0x3e, 0xa3, 0xc2, 0x03, 0x3c, 0xb2, 0x54, 0x82, 0x3d, 0x9e, 0x6c, 0xa6, 0x3d, 0xc4, 0x07, 0x25, 0x3d, 0xed, 0x71, 0xb9, 0x3d, 0x3a, 0xef, 0x93, 0x3d, 0xf0, 0xff, 0x95, 0xbc, 0x01, 0x9a, 0xac, 0x3b, 0x13, 0x6c, 0xc6, 0x3d, 0xa7, 0x4d, 0x52, 0xbc, 0x30, 0x21, 0x86, 0xbb, 0x67, 0xa5, 0xc8, 0x3d, 0x6c, 0x38, 0xac, 0x3c, 0xac, 0x63, 0x38, 0x3d, 0x30, 0x49, 0xdd, 0x3c, 0x4e, 0x17, 0x41, 0x3d, 0xaa, 0xf0, 0x0a, 0x3d, 0x19, 0x8c, 0xce, 0x3d, 0xe5, 0x00, 0x08, 0xbb, 0xbd, 0xc3, 0x00, 0x3d, 0x93, 0x23, 0xc3, 0x3d, 0xf1, 0x5c, 0x37, 0xbd, 0x83, 0x2a, 0x8c, 0x3d, 0xf1, 0x44, 0xd0, 0x3d, 0x72, 0x2d, 0x4e, 0x3d, 0x03, 0x39, 0x2a, 0x3d, 0xaf, 0x2e, 0x9b, 0x3d, 0x89, 0x10, 0x5e, 0x3d, 0xed, 0x2f, 0xdf, 0x3b, 0x05, 0x3e, 0xe3, 0x3d, 0x40, 0x32, 0x23, 0xbd, 0xda, 0x98, 0xad, 0x3a, 0xfc, 0xa1, 0x94, 0x3d, 0x0a, 0x07, 0xd4, 0xbc, 0x1b, 0x12, 0xfa, 0x3c, 0x60, 0x06, 0xa0, 0x3d, 0x21, 0xaa, 0xbe, 0xbc, 0x32, 0xca, 0x92, 0x3d, 0xe3, 0xce, 0x9d, 0x3d, 0x7b, 0x3d, 0x04, 0x3c, 0x38, 0x80, 0xd4, 0x3b, 0x4a, 0xdd, 0x9f, 0x3d, 0xe4, 0xff, 0x0d, 0xbc, 0x2b, 0xf9, 0x6c, 0xbd, 0x9b, 0xd3, 0xe0, 0x3d, 0x52, 0x34, 0x23, 0x3c, 0xb8, 0x43, 0xc5, 0x3c, 0xca, 0xdf, 0x80, 0xbb, 0xe7, 0x2f, 0x11, 0x3d, 0xd4, 0xee, 0x51, 0xbb, 0xc2, 0x57, 0xb0, 0x3d, 0xc0, 0x76, 0x4e, 0xbc, 0x2e, 0xf7, 0x5b, 0x3c, 0x4a, 0x81, 0xd2, 0x3d, 0x60, 0x86, 0x78, 0x3d, 0xd9, 0x60, 0x88, 0x3d, 0x3a, 0x48, 0x56, 0x3d, 0x84, 0x0f, 0x9a, 0x3d, 0x29, 0xa8, 0x6d, 0xbb, 0x3e, 0x15, 0xa1, 0x3d, 0x3f, 0xda, 0x18, 0xbc, 0x70, 0xdd, 0xc3, 0x3c, 0x26, 0x73, 0x9c, 0x3d, 0xd3, 0x4b, 0x9c, 0x3d, 0x53, 0x44, 0x67, 0x3d, 0x69, 0x43, 0x9d, 0x3d, 0x8d, 0x1b, 0x96, 0x3a, 0x15, 0xda, 0xde, 0xbb, 0x0b, 0xde, 0x11, 0x3d, 0x77, 0x91, 0xaa, 0x3d, 0xf6, 0xec, 0xb7, 0x3d, 0xc3, 0x29, 0x2f, 0x3d, 0xbe, 0xda, 0x08, 0xbd, 0x02, 0x6c, 0x9b, 0x3d, 0xe1, 0x6e, 0xba, 0x3b, 0xc3, 0xa8, 0xa1, 0xbc, 0x88, 0x9c, 0x9a, 0x3c, 0x81, 0x81, 0x8a, 0x3d, 0x46, 0xbf, 0x10, 0x3c, 0xcb, 0x47, 0x1f, 0xbd, 0xaa, 0x5c, 0xc6, 0x3c, 0xb7, 0xdd, 0xc6, 0xbc, 0xa6, 0x63, 0x04, 0xbd, 0x10, 0x9e, 0x32, 0x3c, 0xfa, 0xea, 0x6f, 0x3c, 0x38, 0x58, 0x30, 0x3d, 0x4e, 0x35, 0xb6, 0x3d, 0x0a, 0x30, 0x9b, 0xbc, 0xd6, 0xb9, 0xab, 0x3c, 0x23, 0xe2, 0xa3, 0x3d, 0xb0, 0x49, 0xcc, 0x3c, 0xa7, 0x64, 0x13, 0xbd, 0x39, 0xe1, 0xca, 0x3c, 0xcf, 0x41, 0x1e, 0xbd, 0x28, 0xed, 0x90, 0xbc, 0x14, 0x64, 0xdd, 0x3c, 0x94, 0x4f, 0xc7, 0x3c, 0x38, 0xa6, 0x95, 0xbc, 0x58, 0x1a, 0x93, 0x3d, 0xb6, 0x46, 0x88, 0x3c, 0x0b, 0x71, 0x57, 0x3d, 0x71, 0xaa, 0x6c, 0x3d, 0xd5, 0x59, 0xcc, 0x3c, 0x2b, 0xa7, 0xa5, 0xbc, 0xfb, 0x01, 0xb1, 0x3d, 0x27, 0x23, 0x84, 0xbd, 0xe2, 0x7a, 0xef, 0xbc, 0xed, 0xda, 0x13, 0x3d, 0x7b, 0xe8, 0x2c, 0x3d, 0x49, 0xca, 0x50, 0xbd, 0xfc, 0x4e, 0xbe, 0x3d, 0x77, 0xc9, 0x35, 0xbd, 0xac, 0x2e, 0x32, 0x3d, 0xf8, 0x38, 0xae, 0x3d, 0xac, 0xd3, 0x35, 0x3b, 0x6a, 0xd7, 0x5c, 0xbd, 0x6e, 0xf5, 0x5a, 0x3d, 0x62, 0xd8, 0x6a, 0xbd, 0xb6, 0xf6, 0x41, 0xbc, 0x53, 0x34, 0x76, 0x3d, 0x6b, 0xb1, 0x2c, 0xbd, 0xfe, 0x29, 0xfd, 0xbc, 0x9f, 0x42, 0x89, 0x3d, 0x27, 0x24, 0x09, 0xbd, 0x93, 0x14, 0x30, 0x3c, 0x7e, 0xe1, 0x99, 0x3d, 0x38, 0x23, 0x5f, 0xbd, 0x87, 0x34, 0x10, 0x3a, 0x73, 0x73, 0xbb, 0x3c, 0x03, 0x6c, 0x85, 0xbd, 0x96, 0x56, 0x9e, 0x3a, 0x9b, 0xa8, 0x33, 0x3d, 0x80, 0x5b, 0x34, 0xbd, 0x72, 0x79, 0x5e, 0xbd, 0x32, 0xf3, 0xbe, 0x3d, 0x77, 0x75, 0x81, 0xbd, 0xd4, 0xf0, 0x09, 0xbd, 0x5e, 0x94, 0x86, 0x3d, 0xc5, 0xd3, 0x11, 0xbd, 0x53, 0x3b, 0x7c, 0xbc, 0xb3, 0xd2, 0xc8, 0x3d, 0xeb, 0xf7, 0x88, 0xbd, 0x4f, 0x32, 0x6b, 0xbd, 0x03, 0xef, 0x00, 0x3c, 0xc1, 0x76, 0x7f, 0xbd, 0x23, 0x53, 0x3c, 0xbc, 0xa4, 0xfc, 0xc8, 0x3d, 0xbf, 0x51, 0xc2, 0xbc, 0x3e, 0xe3, 0xe1, 0xbb, 0xf2, 0x53, 0xed, 0x3c, 0x21, 0x90, 0x04, 0x3c, 0xbb, 0xac, 0x1e, 0xbd, 0x31, 0x99, 0xf4, 0x3a, 0x91, 0xff, 0x96, 0xbd, 0x4a, 0xb7, 0xb9, 0xbd, 0x07, 0x34, 0x92, 0x3d, 0xec, 0xd6, 0x98, 0xbd, 0x4f, 0xe1, 0xba, 0xbd, 0x6c, 0x34, 0xba, 0x3d, 0xdb, 0x81, 0xc0, 0xbc, 0xf1, 0xb0, 0x5e, 0xbd, 0x4b, 0x6a, 0x9f, 0x3b, 0x4b, 0x74, 0x6a, 0xbd, 0x79, 0xe1, 0x9e, 0xbc, 0x66, 0x2a, 0xbb, 0x3d, 0x60, 0x5d, 0x9f, 0xbd, 0xec, 0x6c, 0x23, 0xbd, 0xe0, 0x8b, 0x0d, 0x3d, 0x58, 0x58, 0xff, 0x3c, 0xe1, 0x77, 0x0d, 0xbd, 0x3c, 0xf6, 0xaf, 0x3d, 0x47, 0x68, 0x9b, 0x3c, 0xec, 0x3e, 0x68, 0xbd, 0xe0, 0xb7, 0x84, 0x3c, 0x63, 0xc7, 0x80, 0x3b, 0xf1, 0x3e, 0xb5, 0xbc, 0xd6, 0x4e, 0xe3, 0x3c, 0x13, 0x63, 0x93, 0x3b, 0x1f, 0x90, 0x1f, 0xbc, 0x1d, 0xd0, 0xe4, 0x3d, 0x22, 0x34, 0xdc, 0x3d, 0x05, 0xcc, 0x99, 0xbd, 0x96, 0xaf, 0x3e, 0x3b, 0xf5, 0xc6, 0xa2, 0x3d, 0x0c, 0x94, 0xdf, 0x3c, 0xe2, 0x9c, 0xb0, 0x3c, 0x17, 0x93, 0x8f, 0x3d, 0x39, 0xd1, 0x8e, 0xbc, 0xb2, 0xc7, 0xb8, 0x3d, 0x8d, 0x4a, 0xd1, 0x3c, 0xa8, 0x2b, 0x77, 0x3c, 0xe5, 0x9c, 0xaa, 0x3d, 0x28, 0xba, 0x45, 0x3d, 0x3c, 0xa7, 0xd6, 0x3c, 0xd8, 0xf2, 0x86, 0x3d, 0x51, 0xb9, 0x09, 0x3d, 0x07, 0xa0, 0x66, 0xbc, 0x46, 0x9d, 0x9d, 0x3c, 0xba, 0x22, 0xdf, 0xbb, 0x14, 0x91, 0x68, 0xbd, 0x77, 0xef, 0xf8, 0x3c, 0x1b, 0xf7, 0x3e, 0x3c, 0x84, 0x46, 0xb0, 0x3c, 0x34, 0xaa, 0xd5, 0x3c, 0xcb, 0xa9, 0x81, 0x3c, 0x45, 0xc6, 0x13, 0xbd, 0x49, 0xd1, 0x89, 0x3d, 0xe6, 0x34, 0xa0, 0xbb, 0x3f, 0xaa, 0x35, 0x3c, 0xf7, 0x2c, 0x9e, 0x3d, 0xb7, 0x26, 0x85, 0xbc, 0x7f, 0xe6, 0xe9, 0x3c, 0xca, 0xf8, 0xaa, 0x3d, 0x1a, 0x74, 0x01, 0x3d, 0x5d, 0x54, 0x99, 0xbd, 0xd5, 0xbf, 0xcd, 0x3d, 0x1f, 0x82, 0x44, 0xbd, 0xcc, 0xfd, 0x67, 0xbd, 0x6d, 0x82, 0x9e, 0x3d, 0x7e, 0xe5, 0xb3, 0x3c, 0x7d, 0x08, 0x0d, 0xbc, 0x11, 0xdd, 0x8d, 0x3d, 0x92, 0x40, 0x6f, 0x3d, 0xa0, 0x89, 0xe3, 0x3b, 0x31, 0xc0, 0xb4, 0x3d, 0x2c, 0x40, 0x48, 0xbd, 0x10, 0x7b, 0x94, 0xbd, 0xfd, 0x7e, 0x59, 0x3d, 0x4b, 0x4b, 0x37, 0xbd, 0x01, 0xb4, 0x52, 0x3b, 0x0f, 0x77, 0xaa, 0x3d, 0x92, 0x07, 0xa0, 0x3c, 0xff, 0x44, 0xec, 0xbd, 0x85, 0x3d, 0x7a, 0x3d, 0x74, 0x99, 0x08, 0x3d, 0xb0, 0x6a, 0x04, 0xbc, 0xe7, 0x55, 0x62, 0x3d, 0x17, 0xf6, 0x72, 0x3c, 0x19, 0x59, 0x57, 0xbd, 0xb2, 0xf9, 0xd6, 0x3d, 0x47, 0x60, 0x1f, 0x3c, 0x76, 0x2b, 0x78, 0xbd, 0x57, 0x97, 0x42, 0x3b, 0x62, 0xd2, 0x84, 0x3d, 0xd5, 0x38, 0x63, 0xbd, 0x10, 0x62, 0xbe, 0x3d, 0x23, 0x07, 0xb0, 0xbd, 0x4e, 0xee, 0xda, 0xbc, 0x89, 0xb4, 0x85, 0x3d, 0xa5, 0xd1, 0x55, 0xbd, 0x59, 0x37, 0x2a, 0xbd, 0xa7, 0x15, 0xce, 0x3d, 0xad, 0x02, 0x7f, 0xbd, 0x76, 0x85, 0x64, 0xbb, 0x10, 0x5b, 0x11, 0x3d, 0xe5, 0xf0, 0xbd, 0xbd, 0x87, 0xb7, 0xe5, 0xbd, 0x51, 0x0d, 0xa3, 0x3d, 0xce, 0x2f, 0x9b, 0x3c, 0xc4, 0x1a, 0xb4, 0xbd, 0x89, 0x03, 0x90, 0x3d, 0xad, 0x24, 0xb0, 0xbd, 0x1e, 0x0d, 0x3f, 0xbd, 0xd4, 0x96, 0x93, 0x3a, 0x13, 0x0e, 0x07, 0xbd, 0xbc, 0x9f, 0x1a, 0x3d, 0xd8, 0x4f, 0x9b, 0x3d, 0xb0, 0x01, 0x13, 0xbd, 0x1e, 0x87, 0xa7, 0x3d, 0x0b, 0x8e, 0x8c, 0x3d, 0x3b, 0xe1, 0x8d, 0xbd, 0x1b, 0x02, 0x57, 0xbc, 0x86, 0x02, 0xac, 0x3d, 0xbc, 0x57, 0xab, 0x3b, 0x11, 0x29, 0xb3, 0xbc, 0x04, 0xfe, 0x4c, 0x3d, 0x93, 0x87, 0xfc, 0xbc, 0x07, 0x6a, 0xe9, 0xbc, 0x44, 0x80, 0xc8, 0x3d, 0x23, 0xda, 0xc0, 0x3a, 0x3b, 0xea, 0x16, 0xbd, 0x3a, 0x25, 0xc5, 0x3d, 0xe9, 0x91, 0x63, 0x3c, 0x18, 0xed, 0x5f, 0xbd, 0x00, 0x13, 0xdb, 0x3c, 0x79, 0xc6, 0x89, 0x3d, 0xf9, 0x2d, 0x1d, 0xbd, 0xa9, 0x5a, 0x6e, 0x3d, 0x13, 0x48, 0x24, 0xbd, 0x8e, 0x8e, 0x0b, 0xbd, 0x49, 0xcc, 0xc6, 0x3b, 0xde, 0x2f, 0xb2, 0x3b, 0xc4, 0x4c, 0x44, 0xbd, 0x31, 0xac, 0x90, 0x3d, 0x49, 0x92, 0x1d, 0xbb, 0xbd, 0x9b, 0x4e, 0xbc, 0xcd, 0xfd, 0xe7, 0x3d, 0x41, 0x36, 0xca, 0x3b, 0xcb, 0x1e, 0x07, 0xbd, 0x5b, 0xb7, 0x96, 0x3d, 0x31, 0x81, 0xab, 0xbc, 0x68, 0x37, 0xb3, 0xbd, 0x02, 0xb5, 0x8e, 0x3c, 0xc9, 0x5f, 0x28, 0xbd, 0x4e, 0xb1, 0x98, 0xbd, 0x01, 0x99, 0x93, 0x3d, 0xc1, 0x15, 0x6b, 0x3c, 0xff, 0x42, 0x88, 0xbd, 0x47, 0xaa, 0xb7, 0x3d, 0xc6, 0xb8, 0x63, 0x3d, 0xcf, 0xba, 0xd3, 0xbc, 0xdf, 0xb0, 0x1a, 0x3d, 0x56, 0x6b, 0xb0, 0x3d, 0xad, 0x06, 0x5e, 0xbd, 0x8d, 0x03, 0xeb, 0x3d, 0x81, 0x53, 0xb5, 0x3d, 0xda, 0x1e, 0xce, 0xbb, 0x31, 0x9a, 0xf0, 0x3d, 0x06, 0xa1, 0x45, 0x3c, 0xdc, 0x5f, 0x26, 0xbd, 0xab, 0xd0, 0x8b, 0x3d, 0xcf, 0x05, 0x52, 0xbd, 0x90, 0x6c, 0x25, 0xbb, 0x0a, 0xba, 0x96, 0x3d, 0xf1, 0x75, 0x3f, 0x3c, 0x4b, 0x2d, 0xb8, 0xbc, 0x7c, 0xdb, 0x8c, 0x3d, 0x22, 0x9f, 0xd8, 0x3c, 0x7f, 0x0e, 0x89, 0xbd, 0x71, 0xea, 0x65, 0x3d, 0x7b, 0x3c, 0x43, 0xbd, 0x9c, 0xe4, 0x9e, 0xbd, 0xbc, 0xa2, 0x0f, 0x3e, 0x49, 0x85, 0x60, 0x3c, 0xaf, 0xc1, 0xce, 0xbd, 0x6d, 0xa7, 0x68, 0x3d, 0x36, 0x82, 0x3f, 0x3d, 0x94, 0x08, 0xa8, 0xbd, 0xde, 0x44, 0xd7, 0x3d, 0x89, 0xeb, 0xb9, 0xbc, 0x7d, 0xa7, 0xb8, 0xbd, 0x6f, 0x02, 0xf4, 0x3c, 0x5b, 0x4b, 0x45, 0xbc, 0xee, 0x54, 0x6e, 0xbc, 0xbe, 0x74, 0x0b, 0x3d, 0x7a, 0x0a, 0x00, 0xbd, 0x40, 0x29, 0x80, 0xbd, 0x26, 0xc3, 0x7d, 0x3d, 0xa2, 0xf5, 0x4b, 0x3d, 0x22, 0xe6, 0x8d, 0xbd, 0x54, 0x55, 0x07, 0x3e, 0x13, 0xb0, 0x70, 0xba, 0xb6, 0x49, 0x96, 0xbd, 0x32, 0xd1, 0x81, 0x3d, 0x0d, 0x2b, 0x4c, 0xbb, 0x5e, 0xbc, 0x92, 0xbd, 0xa2, 0xed, 0xbc, 0x3d, 0x57, 0x3e, 0xb0, 0xbc, 0xe4, 0xac, 0x6a, 0xbd, 0x4e, 0x1a, 0x74, 0x3d, 0x7f, 0x45, 0xd7, 0x3b, 0xe6, 0xe4, 0x75, 0xbd, 0xea, 0xa7, 0xac, 0x3d, 0x47, 0xc3, 0xf0, 0xbb, 0x2e, 0xbb, 0xb7, 0xbd, 0x93, 0x17, 0x69, 0x3d, 0x99, 0x64, 0xb8, 0x3c, 0xda, 0xc1, 0xd6, 0xbd, 0xad, 0x4f, 0x91, 0x3d, 0xf0, 0xa4, 0x28, 0x3d, 0x06, 0x74, 0x6f, 0xbc, 0x77, 0x3c, 0x15, 0x3d, 0xc2, 0x3a, 0x3c, 0x3d, 0xd1, 0x32, 0x89, 0xbc, 0x89, 0x29, 0x80, 0x3d, 0x2b, 0x59, 0x9d, 0x3d, 0x3f, 0x13, 0x9b, 0xbd, 0xcd, 0x1d, 0x45, 0x3d, 0x2c, 0x5b, 0xa1, 0x3c, 0xfc, 0xd1, 0x90, 0xbc, 0x1f, 0xfe, 0x35, 0x3d, 0x3d, 0x0c, 0x11, 0x3a, 0x7c, 0x4c, 0x37, 0xbd, 0x01, 0x76, 0x7e, 0x3d, 0x14, 0xf8, 0x50, 0x3d, 0xf4, 0x5d, 0x77, 0x3c, 0xbf, 0xc0, 0xf2, 0x3b, 0xba, 0xa6, 0x53, 0xbc, 0xb6, 0x10, 0xd4, 0xbd, 0xb1, 0xa8, 0x54, 0x3d, 0xc0, 0x30, 0x03, 0xbd, 0x5d, 0xe3, 0x92, 0xbc, 0x40, 0x76, 0x81, 0x3d, 0xd7, 0x4e, 0x59, 0xbc, 0x06, 0x3f, 0x40, 0xbd, 0x1d, 0x2d, 0xc7, 0x3d, 0x74, 0xe0, 0x55, 0x3d, 0x6a, 0x98, 0x93, 0xbd, 0xa5, 0x97, 0x4d, 0x3a, 0x54, 0xd4, 0x0e, 0xbd, 0xee, 0x18, 0x5b, 0xbd, 0x41, 0xb2, 0x11, 0xba, 0x17, 0xd4, 0x69, 0xbb, 0xe6, 0x69, 0xb1, 0xbc, 0xc5, 0xbc, 0x97, 0xbc, 0x76, 0xd9, 0xc7, 0x3c, 0x02, 0xff, 0xa7, 0x3b, 0xb8, 0x09, 0xb7, 0x3d, 0xa5, 0x8b, 0x04, 0xbd, 0x07, 0x5d, 0xaf, 0x3a, 0xa6, 0x33, 0x75, 0x3d, 0x6b, 0x5e, 0x61, 0xbd, 0x43, 0x63, 0x05, 0x3c, 0x4b, 0x4c, 0x1d, 0x3c, 0x29, 0x63, 0xb9, 0x3b, 0xfc, 0x00, 0xcd, 0x3b, 0x6a, 0x14, 0x6d, 0xbc, 0xb6, 0xe0, 0x38, 0x3d, 0x76, 0xf1, 0xff, 0xff, 0x04, 0x00, 0x00, 0x00, 0x98, 0x0d, 0x00, 0x00, 0xf3, 0x81, 0xf0, 0xbd, 0xd5, 0xbd, 0x31, 0xbe, 0xe0, 0x27, 0x28, 0xbe, 0xb9, 0x00, 0x84, 0x3d, 0x88, 0x9f, 0x4d, 0x3e, 0x33, 0xe9, 0x30, 0x3b, 0x39, 0x4d, 0xa7, 0xbd, 0xaf, 0x55, 0x7a, 0xbd, 0x78, 0x57, 0xdc, 0xbd, 0x62, 0x58, 0x40, 0xbe, 0x6c, 0x8d, 0xac, 0xbd, 0x1d, 0x17, 0x9c, 0xbc, 0x5d, 0x42, 0x31, 0xbd, 0x6f, 0x68, 0x92, 0xbd, 0xae, 0xbb, 0x1c, 0x3e, 0xcb, 0xdc, 0xfe, 0x3c, 0x4a, 0xbc, 0x5b, 0x3d, 0x5f, 0x2a, 0xa7, 0xbd, 0x83, 0x3a, 0x59, 0xbc, 0xfa, 0x9b, 0x81, 0x3d, 0x62, 0xba, 0x33, 0xbe, 0x50, 0xb8, 0x48, 0xbd, 0x45, 0x16, 0xa2, 0xbd, 0xdb, 0x6e, 0x5a, 0x3d, 0x91, 0x9d, 0x1b, 0x3d, 0x06, 0xb5, 0x6c, 0x3c, 0xdc, 0x66, 0xbe, 0x3c, 0x25, 0x95, 0x24, 0xbe, 0x9f, 0x02, 0x8f, 0x3d, 0xef, 0xae, 0xb2, 0xbd, 0xdc, 0x1c, 0xe5, 0xbd, 0x25, 0xd5, 0x04, 0xbe, 0xca, 0x32, 0x55, 0xbe, 0x78, 0x9e, 0xc7, 0x3d, 0xd7, 0xc7, 0xea, 0x3d, 0x63, 0xe6, 0x01, 0xbe, 0x62, 0x6c, 0x81, 0xbd, 0x28, 0x35, 0xac, 0x3d, 0xb0, 0xcd, 0xe2, 0xbc, 0xf0, 0x8c, 0x33, 0xbe, 0xfc, 0x33, 0x19, 0xbe, 0x66, 0xfb, 0xea, 0xbd, 0xd0, 0xee, 0xba, 0x3c, 0xa5, 0xe7, 0xdd, 0xbd, 0x69, 0xdb, 0xba, 0x3d, 0x94, 0x60, 0x9d, 0xbd, 0x23, 0x05, 0x24, 0xbe, 0x02, 0x9d, 0xf0, 0x3b, 0x8f, 0xca, 0x61, 0x3d, 0x09, 0x78, 0x9c, 0x3d, 0x29, 0x58, 0x9f, 0x3b, 0xcd, 0x3c, 0xcc, 0x3d, 0x4d, 0xcd, 0x90, 0xbd, 0x51, 0x06, 0x91, 0x3d, 0xe0, 0xb8, 0x13, 0x3e, 0x04, 0xdc, 0xd7, 0x3d, 0x0b, 0x0f, 0x83, 0xbb, 0x65, 0xc8, 0x23, 0x3d, 0xd0, 0xf7, 0xda, 0xbd, 0xd1, 0x5b, 0x35, 0xbe, 0xc9, 0x4d, 0xa8, 0xbb, 0x5d, 0x4b, 0x4c, 0xbd, 0x90, 0x54, 0x7c, 0x3d, 0xe2, 0x0d, 0x8a, 0xbc, 0x78, 0x76, 0x09, 0xbc, 0x33, 0x23, 0x39, 0xbc, 0x81, 0x3f, 0xd9, 0x3d, 0x37, 0xd3, 0xf9, 0xbd, 0xdb, 0x97, 0x41, 0xbe, 0x82, 0xad, 0x53, 0xbe, 0x50, 0x36, 0x10, 0xbe, 0x67, 0xb6, 0xc7, 0xbc, 0x7b, 0xd0, 0xd2, 0xbd, 0x5d, 0x52, 0x32, 0x3c, 0x12, 0xa5, 0x22, 0x3e, 0x22, 0x01, 0xac, 0x3d, 0x04, 0x51, 0xa9, 0x3d, 0xa9, 0x28, 0x23, 0xbc, 0xe2, 0xd4, 0x75, 0xbd, 0xfc, 0x43, 0x23, 0xbe, 0xdb, 0x2d, 0x58, 0xbd, 0x9c, 0xd0, 0xb9, 0x3d, 0xa4, 0x2d, 0xcb, 0xbd, 0xe4, 0x64, 0x58, 0x3d, 0xc8, 0xe9, 0xe0, 0x3d, 0xfe, 0x24, 0xea, 0xbd, 0x9e, 0xf5, 0x92, 0xbd, 0x99, 0xb9, 0x05, 0xbe, 0x0a, 0xe4, 0x41, 0xbe, 0xf7, 0xaa, 0x47, 0xbe, 0xa7, 0x5e, 0xf8, 0xbb, 0xd3, 0xc2, 0x22, 0x3d, 0x65, 0xd8, 0xc8, 0xbd, 0x85, 0x7c, 0xbb, 0xbd, 0x2e, 0x2f, 0x66, 0x3d, 0xe7, 0xc1, 0x24, 0xbe, 0xac, 0x13, 0x24, 0x3e, 0x4b, 0x2b, 0x6e, 0xbd, 0x36, 0x68, 0x6e, 0x3c, 0xc3, 0xc7, 0x21, 0x3c, 0xc8, 0xa4, 0x00, 0xbc, 0xe5, 0xf1, 0x61, 0xbd, 0x58, 0xf9, 0x84, 0xbd, 0x49, 0x66, 0x58, 0xbd, 0xf7, 0xb3, 0x01, 0xbd, 0x52, 0x93, 0x45, 0x3d, 0x31, 0x84, 0xed, 0x3d, 0x2b, 0x4f, 0xb7, 0xbd, 0x30, 0x72, 0x07, 0x3e, 0xe0, 0x48, 0xf8, 0xbd, 0xb3, 0x17, 0x98, 0xbd, 0xfd, 0xb7, 0x2a, 0xbd, 0x2e, 0x2a, 0xb8, 0x3d, 0x64, 0x44, 0x7e, 0x3d, 0xdc, 0xfb, 0xd4, 0x3d, 0xb8, 0x98, 0xdf, 0xbd, 0x80, 0xbf, 0xe1, 0x3d, 0xcb, 0x0f, 0x9d, 0xbd, 0x60, 0x60, 0x1b, 0x3b, 0x54, 0x4b, 0x20, 0xbd, 0xdd, 0x13, 0x00, 0xbd, 0x33, 0xe7, 0x4c, 0x3e, 0x7c, 0xef, 0xef, 0x3d, 0x5a, 0xcd, 0xd8, 0x3c, 0x4e, 0x03, 0x65, 0xbc, 0xb3, 0x53, 0xce, 0x3d, 0xab, 0x42, 0x1e, 0xbd, 0x51, 0x3b, 0x20, 0x3e, 0xe6, 0x16, 0x59, 0xbd, 0x8d, 0xe9, 0x71, 0x3d, 0xfb, 0x5d, 0x22, 0xbd, 0x74, 0x06, 0x49, 0x3e, 0x34, 0xaf, 0x30, 0xbc, 0xa8, 0xfb, 0x17, 0x3e, 0x94, 0x8b, 0x95, 0xbd, 0x23, 0x54, 0x5b, 0x3c, 0x17, 0x64, 0x1c, 0x3e, 0xeb, 0x28, 0x21, 0x3e, 0x32, 0xbe, 0xd9, 0xbd, 0x2c, 0x8e, 0xe1, 0xbd, 0x9c, 0x82, 0x34, 0xbe, 0xad, 0x02, 0x95, 0x3d, 0xaf, 0x76, 0x7e, 0x3d, 0xd5, 0x7a, 0x41, 0xbd, 0x2c, 0x1c, 0xba, 0x3b, 0xd9, 0x58, 0xf9, 0x3d, 0x3d, 0x5f, 0x42, 0x3e, 0x81, 0x4d, 0x1b, 0xbd, 0xe5, 0xd8, 0x44, 0x3d, 0xf8, 0x1d, 0x31, 0x3d, 0x43, 0x9f, 0x86, 0xbd, 0xb2, 0x5d, 0xa1, 0x3d, 0xee, 0x40, 0xd0, 0xbc, 0x1e, 0xab, 0xcb, 0x39, 0x84, 0xb0, 0x56, 0xbd, 0xd6, 0x4f, 0xc8, 0xbd, 0x7a, 0xf5, 0x03, 0xbe, 0xf3, 0x76, 0x58, 0xbd, 0x47, 0xaf, 0x42, 0x3d, 0x2b, 0xd7, 0xf4, 0x3d, 0x60, 0x38, 0x33, 0x3d, 0x86, 0x8d, 0xd1, 0xbc, 0xab, 0xa2, 0x88, 0x3b, 0x86, 0x16, 0xc6, 0xbd, 0xbf, 0xaa, 0x50, 0xbd, 0x84, 0xbc, 0xf9, 0x3d, 0x88, 0xec, 0xc4, 0xb9, 0x74, 0xca, 0x10, 0x3e, 0xa9, 0x37, 0x89, 0x3d, 0x87, 0xb9, 0x02, 0x3d, 0x51, 0x5c, 0x89, 0x3d, 0xcd, 0x6b, 0x1c, 0xbd, 0x6d, 0xe8, 0xc3, 0x3c, 0x1c, 0x1f, 0x93, 0xbc, 0x81, 0xeb, 0x32, 0x3e, 0x72, 0x5b, 0x27, 0xbe, 0x0d, 0x68, 0x08, 0x3e, 0x8e, 0x5a, 0x03, 0xbd, 0xd0, 0x18, 0xfb, 0xbc, 0xcc, 0x40, 0x1f, 0x3e, 0xf0, 0xb2, 0x0d, 0x3d, 0x1b, 0xf7, 0xf3, 0xbd, 0x56, 0x0a, 0x44, 0x3e, 0x98, 0x76, 0x6b, 0x3c, 0xe7, 0x59, 0x03, 0x3e, 0x4a, 0xcd, 0xe0, 0xbd, 0x54, 0x40, 0xfa, 0x3d, 0x05, 0xc4, 0x57, 0x3d, 0xe8, 0x09, 0x92, 0xbd, 0x0c, 0xe1, 0x9b, 0x3d, 0xbf, 0x24, 0x5f, 0xbd, 0x65, 0xee, 0x84, 0x3d, 0x84, 0x3b, 0x08, 0x3d, 0x35, 0xa9, 0x20, 0x3e, 0x4e, 0x6d, 0x21, 0x3e, 0xb3, 0xdf, 0xc0, 0xbd, 0xfe, 0xe0, 0x5f, 0x3d, 0x5a, 0x51, 0x65, 0xbc, 0x3b, 0xd5, 0x10, 0x3e, 0x70, 0xc3, 0x4c, 0x3e, 0xd9, 0x59, 0xe6, 0x3d, 0x02, 0x83, 0x4a, 0x3d, 0x78, 0x04, 0x85, 0xbd, 0x31, 0x30, 0x06, 0x3e, 0xfe, 0x33, 0x51, 0x3e, 0xea, 0x16, 0x20, 0x3d, 0x72, 0x12, 0x3e, 0xbc, 0x5c, 0x21, 0x16, 0xbe, 0x61, 0x7d, 0x08, 0xbe, 0x54, 0x99, 0xcd, 0xbd, 0x86, 0x2d, 0x2c, 0xbe, 0x24, 0xac, 0x05, 0x3e, 0x4b, 0xe4, 0x17, 0xbd, 0x4f, 0xa7, 0x31, 0x3b, 0x80, 0xb4, 0x29, 0xbd, 0xf5, 0xe0, 0xcb, 0x3d, 0xbf, 0xa6, 0x19, 0x3e, 0x27, 0x09, 0x06, 0xbd, 0x7c, 0xe4, 0x67, 0xbb, 0xb7, 0xc9, 0x7f, 0xbd, 0x5f, 0x7f, 0x2a, 0xbd, 0xe1, 0x50, 0xf5, 0x3d, 0x49, 0x45, 0xb7, 0xbd, 0x31, 0xaf, 0xe9, 0xbc, 0x5d, 0x96, 0x84, 0xbd, 0xd6, 0x4b, 0xd6, 0xbd, 0xf5, 0xc4, 0x36, 0xbd, 0x20, 0xcc, 0xc4, 0x3b, 0xcc, 0x4f, 0xc3, 0x3d, 0xdb, 0xb0, 0x0f, 0x3e, 0x7e, 0x2b, 0xea, 0xbd, 0x8a, 0x94, 0xb7, 0xbd, 0xcd, 0x8a, 0xa3, 0xbd, 0xe7, 0x63, 0xca, 0x3d, 0x48, 0x6a, 0x42, 0x3e, 0x7c, 0xc3, 0x2d, 0xbe, 0xec, 0x9c, 0x77, 0xbd, 0xf4, 0xd2, 0xe3, 0xbd, 0xa6, 0x56, 0x91, 0xbd, 0x1b, 0x14, 0xe4, 0xbd, 0x83, 0x92, 0x1e, 0x3c, 0x42, 0xf7, 0x5b, 0xbd, 0x90, 0xc5, 0xd4, 0xbd, 0xfa, 0x71, 0xbd, 0xbc, 0x1c, 0x85, 0xe8, 0x3d, 0x04, 0x08, 0x78, 0x3d, 0x19, 0xfe, 0x9d, 0xbd, 0x27, 0x28, 0x54, 0x3d, 0xb0, 0xbb, 0x3a, 0x3d, 0xf6, 0xea, 0xc3, 0xbd, 0x02, 0x8a, 0xe2, 0xbd, 0x77, 0x77, 0x05, 0x3e, 0x19, 0x8a, 0x48, 0xbd, 0x6e, 0x4f, 0xf5, 0xbc, 0x68, 0xc8, 0x4c, 0x3e, 0x3b, 0xd1, 0xa3, 0x3d, 0x54, 0x84, 0xdb, 0x3d, 0x56, 0x7d, 0xb3, 0xbd, 0x19, 0xcc, 0xdc, 0x3d, 0xe2, 0x41, 0xf4, 0x3d, 0xfa, 0x5b, 0x60, 0xbc, 0xfb, 0x73, 0x2e, 0xbc, 0x8a, 0x16, 0x92, 0xbc, 0xac, 0x0e, 0x84, 0x3d, 0x02, 0x8f, 0x3f, 0x3e, 0x14, 0xf4, 0x30, 0xbe, 0xf9, 0x08, 0x58, 0x3c, 0xab, 0x5c, 0x12, 0xbe, 0x4f, 0x97, 0xea, 0x3d, 0x6e, 0xbf, 0x51, 0x3c, 0x3a, 0x0f, 0x15, 0xbe, 0xcb, 0x98, 0xd7, 0x3d, 0xcb, 0x5e, 0x86, 0x3d, 0xc6, 0xb5, 0xa1, 0x3d, 0x89, 0x49, 0x5d, 0x3c, 0x77, 0xec, 0x87, 0x3d, 0xcd, 0x04, 0x3e, 0x3e, 0x26, 0x38, 0x43, 0xbe, 0x07, 0x16, 0x15, 0x3e, 0x18, 0xa6, 0xe7, 0xbd, 0x7b, 0x48, 0x9b, 0xbd, 0xa8, 0xc5, 0xbe, 0xbc, 0x42, 0x87, 0x31, 0xbd, 0x97, 0x45, 0x12, 0x3d, 0xb2, 0xc7, 0x6f, 0x3c, 0x74, 0x26, 0x14, 0xbe, 0x1c, 0xbc, 0x0f, 0x3d, 0x25, 0x9e, 0x16, 0xbe, 0x1c, 0x3a, 0x5e, 0x3d, 0x83, 0xde, 0x2e, 0x3d, 0x7e, 0x16, 0x5a, 0x3d, 0xcc, 0x0e, 0xab, 0xbd, 0x1d, 0x77, 0x2d, 0x3e, 0x46, 0xa6, 0x50, 0xbd, 0x3a, 0xbd, 0xf2, 0xbd, 0xba, 0x25, 0xc0, 0x3d, 0xcb, 0x5e, 0x2e, 0xbe, 0x90, 0x09, 0xc2, 0xbc, 0x14, 0x6e, 0x6f, 0x3c, 0x19, 0x4a, 0x20, 0x3d, 0x4d, 0xfe, 0x4b, 0xbd, 0x92, 0x32, 0xd9, 0xbc, 0x54, 0xcf, 0xe0, 0x3d, 0x9f, 0x6e, 0x0a, 0xbd, 0xc7, 0x40, 0x16, 0xbe, 0xd1, 0x5e, 0x10, 0xbd, 0xe8, 0x8f, 0xcd, 0xbc, 0xa0, 0xa5, 0xe8, 0xbc, 0x79, 0xf6, 0xb8, 0x3a, 0x10, 0x3b, 0xcf, 0x3c, 0x47, 0x2d, 0x2d, 0x3e, 0x96, 0xd0, 0x11, 0xbd, 0xb6, 0xfa, 0xa4, 0xbd, 0x9b, 0x1e, 0x6a, 0x3d, 0x99, 0x3e, 0x51, 0x3d, 0x02, 0xb9, 0xdf, 0xbd, 0x4f, 0x2c, 0x6c, 0xbd, 0x98, 0xe5, 0xca, 0x3c, 0xec, 0x1b, 0x0a, 0x3d, 0xc0, 0xa3, 0xb4, 0x3d, 0xff, 0x2c, 0xdf, 0x3d, 0x5b, 0xe3, 0xae, 0x3d, 0x73, 0x26, 0x3a, 0xbd, 0xcb, 0xfd, 0x74, 0x3d, 0xb3, 0xb3, 0xd7, 0x3c, 0x26, 0x37, 0xaa, 0xbd, 0x1a, 0xa1, 0xc2, 0xbd, 0x0a, 0xa1, 0x36, 0xbe, 0x58, 0x88, 0x5f, 0x3d, 0x27, 0xd6, 0x01, 0x3e, 0x04, 0xfa, 0x8e, 0xbd, 0x5b, 0x15, 0x4d, 0x3d, 0x08, 0xb3, 0x23, 0x3e, 0x46, 0x9b, 0xdd, 0x3d, 0x35, 0x01, 0xe7, 0xbd, 0xc8, 0x6e, 0x86, 0xbd, 0x5c, 0x5a, 0xdd, 0xbb, 0xfc, 0x4c, 0x37, 0xbc, 0x33, 0xe5, 0xce, 0xb9, 0x00, 0x98, 0xd3, 0xbd, 0x6f, 0x3e, 0xbb, 0x3d, 0x3e, 0xf4, 0x19, 0xbe, 0x6e, 0x6b, 0xc2, 0x3d, 0xf6, 0xcd, 0x07, 0xbd, 0xa4, 0x31, 0xfd, 0xbc, 0x3b, 0xe3, 0xcf, 0x3c, 0xc6, 0xf2, 0xf6, 0xbd, 0x78, 0x55, 0x18, 0x3e, 0x49, 0x82, 0xa2, 0x3c, 0x57, 0x64, 0xc0, 0xbd, 0xa3, 0xef, 0x9a, 0x3d, 0xee, 0x91, 0x87, 0xbd, 0x79, 0xdd, 0x35, 0xbd, 0x95, 0xf6, 0xd9, 0x3d, 0xed, 0x6f, 0x0f, 0xbd, 0xe9, 0x3d, 0x9c, 0x3c, 0xaa, 0xf2, 0xe8, 0xbd, 0x64, 0x32, 0x59, 0x39, 0x05, 0xde, 0xd9, 0xbd, 0x94, 0x8d, 0x62, 0xbd, 0x04, 0xe2, 0x1f, 0x3e, 0x77, 0xcb, 0xee, 0xbb, 0x98, 0x0f, 0x36, 0x3e, 0xf7, 0xc2, 0xe9, 0xbc, 0xce, 0x2f, 0x73, 0x3c, 0xba, 0x1c, 0xbe, 0x3d, 0x89, 0xd0, 0x9c, 0x3d, 0xcb, 0x44, 0x26, 0xbe, 0xd7, 0xeb, 0x28, 0xbe, 0x5f, 0xfe, 0x1c, 0xbd, 0x53, 0x67, 0x45, 0x3e, 0x36, 0x42, 0x53, 0xbd, 0x22, 0xf3, 0x21, 0x3e, 0x06, 0xca, 0x74, 0xbc, 0x95, 0x9e, 0x75, 0xbd, 0x3a, 0xce, 0x00, 0xbd, 0xc1, 0x23, 0xd1, 0xbd, 0x00, 0x66, 0x15, 0x3e, 0xf6, 0xad, 0xe3, 0x3d, 0xfc, 0x58, 0xa7, 0xbd, 0xe7, 0x01, 0x27, 0xbc, 0xad, 0x7f, 0x40, 0xbc, 0x37, 0xb8, 0x68, 0xbd, 0xaa, 0xab, 0xd6, 0x3d, 0xad, 0x71, 0xbc, 0xbd, 0xa4, 0x63, 0x2f, 0x3e, 0x80, 0x5b, 0x95, 0xbd, 0xd2, 0x5b, 0x55, 0x3d, 0xf8, 0xcd, 0x58, 0xbc, 0xe3, 0xc4, 0x16, 0x3e, 0x58, 0xf4, 0x89, 0xbd, 0x50, 0x91, 0xaf, 0xbd, 0x63, 0x8d, 0x31, 0x3e, 0x42, 0xbc, 0x0b, 0xbe, 0x61, 0x4e, 0x67, 0x3d, 0x78, 0xfe, 0x3f, 0xbd, 0x0e, 0x8a, 0x00, 0xbe, 0xe4, 0xc6, 0x5e, 0xbd, 0x77, 0x1a, 0x01, 0xbe, 0x20, 0x72, 0xec, 0x3d, 0xff, 0x34, 0x86, 0x3c, 0x63, 0x91, 0xdc, 0xbd, 0x7d, 0x9a, 0x1c, 0x3d, 0x0c, 0xcb, 0xa3, 0x3d, 0xcb, 0x56, 0x94, 0x3d, 0xf8, 0xb6, 0x8f, 0x3d, 0x30, 0x3e, 0xb5, 0xbd, 0x35, 0xda, 0xee, 0x3d, 0x30, 0xbb, 0x87, 0x3d, 0xe2, 0xd3, 0x20, 0x3e, 0xa3, 0x59, 0x39, 0x3e, 0xfc, 0xe5, 0x4e, 0xbd, 0xab, 0x0e, 0x43, 0x3d, 0x26, 0x5d, 0xfa, 0xbd, 0xf1, 0x49, 0x8d, 0x3d, 0x1b, 0x09, 0x34, 0x3c, 0x74, 0x07, 0x4b, 0xbd, 0x01, 0xdd, 0x7f, 0x3d, 0x42, 0xf3, 0xcc, 0xbc, 0x43, 0x24, 0x15, 0x3e, 0x93, 0xe2, 0x9c, 0xbd, 0x1e, 0x45, 0x17, 0x3e, 0x6f, 0xdf, 0xfb, 0xbc, 0xdb, 0xd3, 0x76, 0x3d, 0x71, 0x62, 0x6f, 0x3c, 0xd7, 0x90, 0xcb, 0x3d, 0x85, 0x57, 0x0c, 0xbd, 0x7c, 0x6f, 0x5d, 0x3d, 0xe7, 0x66, 0xb7, 0x3d, 0x2d, 0xa9, 0x8e, 0xbb, 0xd6, 0xfe, 0xfb, 0x3d, 0x81, 0x37, 0x28, 0xbe, 0xf0, 0x22, 0x8e, 0xbd, 0x50, 0x10, 0xd5, 0xbd, 0x54, 0xe5, 0x83, 0x3d, 0xf7, 0xe9, 0xee, 0xbd, 0x44, 0x80, 0x96, 0xbc, 0x01, 0x78, 0xa2, 0x3d, 0x8d, 0xb9, 0x23, 0x3e, 0x12, 0xa8, 0xff, 0x3d, 0xa7, 0xdf, 0xca, 0x3c, 0x98, 0xdb, 0x9d, 0x3d, 0x08, 0x17, 0x1b, 0xbe, 0x49, 0x0f, 0x1e, 0xbe, 0xc0, 0x00, 0x53, 0xbe, 0xf6, 0xb1, 0xcd, 0xbd, 0x63, 0x5b, 0x1d, 0xbe, 0x79, 0x15, 0x12, 0x3e, 0x1b, 0xac, 0x2e, 0x3d, 0xb3, 0xbf, 0x23, 0xbd, 0x67, 0x92, 0x85, 0x3c, 0x77, 0x11, 0x82, 0xbd, 0xfa, 0xb0, 0x99, 0x3d, 0xa1, 0x35, 0x3e, 0xbe, 0xef, 0x65, 0x14, 0xbe, 0x78, 0x83, 0xb1, 0x3b, 0x83, 0xa6, 0x2f, 0x3c, 0x62, 0x65, 0xc5, 0x3d, 0x80, 0xcd, 0xb6, 0xbd, 0xbe, 0xcf, 0x35, 0xbe, 0x40, 0x73, 0xd0, 0xbc, 0x38, 0xf5, 0xa2, 0xbd, 0x61, 0x0f, 0x38, 0x3d, 0xeb, 0x2d, 0x03, 0xbe, 0x16, 0x5b, 0x53, 0xbe, 0x1c, 0x62, 0xf7, 0xbb, 0x18, 0xdf, 0x85, 0xbd, 0x49, 0xb6, 0x8a, 0xbd, 0x72, 0xbb, 0x89, 0x3d, 0x45, 0x29, 0x84, 0x3d, 0x00, 0x12, 0x8d, 0x3a, 0x0a, 0x76, 0x04, 0xbe, 0x17, 0x95, 0x06, 0xbd, 0x74, 0x8a, 0xb4, 0x3d, 0x60, 0xd1, 0x96, 0xbb, 0xd9, 0x68, 0xba, 0x3d, 0xc8, 0x08, 0xa3, 0x3c, 0x9a, 0x5b, 0x10, 0x3e, 0xa2, 0xe8, 0x92, 0x3d, 0x0f, 0xe4, 0x13, 0xbe, 0x48, 0xee, 0x40, 0x3d, 0x1a, 0xd8, 0xfd, 0xbc, 0x49, 0x80, 0xe7, 0x3d, 0x66, 0x82, 0xce, 0xbd, 0xe0, 0x4f, 0x6f, 0xbc, 0x7b, 0x3e, 0xf0, 0x3d, 0x47, 0xd1, 0xbf, 0xbd, 0x7b, 0x39, 0xd4, 0x3d, 0x7b, 0xee, 0xf1, 0xbd, 0xa6, 0xac, 0x21, 0xbd, 0x8a, 0x9a, 0xe9, 0x3c, 0xc0, 0xeb, 0xbd, 0x3d, 0x88, 0x0d, 0xb6, 0xbd, 0x94, 0x9f, 0xc6, 0xbd, 0x77, 0x2d, 0x57, 0xbe, 0x97, 0x49, 0x51, 0x3e, 0x04, 0x54, 0x08, 0x3e, 0x81, 0x3a, 0xc1, 0x3d, 0x6f, 0xa4, 0x32, 0x3e, 0x58, 0x8c, 0x72, 0xba, 0xeb, 0x25, 0x45, 0x3d, 0xab, 0x3f, 0xd2, 0xbc, 0xd3, 0xb5, 0x0f, 0x3b, 0xa4, 0xe3, 0x15, 0x3d, 0xe6, 0xbe, 0xf1, 0x3d, 0x82, 0x43, 0xb3, 0x3d, 0x71, 0xfe, 0x52, 0x3d, 0x69, 0xb0, 0x17, 0x3e, 0x75, 0x22, 0x62, 0x3d, 0x4b, 0x83, 0x24, 0x3e, 0xb0, 0xbe, 0x79, 0xbd, 0xf0, 0xf5, 0xfb, 0xbd, 0x98, 0x80, 0xce, 0xbc, 0xf0, 0xd1, 0xc7, 0x3d, 0x85, 0xaa, 0x10, 0xbe, 0x92, 0x2e, 0x7e, 0xbd, 0x06, 0x4c, 0x1e, 0xbe, 0xda, 0xc8, 0x88, 0xbb, 0x25, 0x5c, 0x3b, 0x3c, 0x3b, 0x71, 0x52, 0x3d, 0x3d, 0x29, 0xf5, 0x3d, 0xd3, 0x89, 0xef, 0x3d, 0x89, 0xa9, 0x92, 0xbd, 0x71, 0x4a, 0xd4, 0x3b, 0x71, 0x23, 0x15, 0xbe, 0x6a, 0x93, 0xa5, 0xbd, 0xc7, 0xb1, 0x21, 0xbd, 0x1e, 0x78, 0x27, 0xbd, 0x85, 0xe8, 0x9b, 0x3c, 0x9a, 0x03, 0xd8, 0xbc, 0x1c, 0xa3, 0x1c, 0x3e, 0x11, 0x2c, 0xb5, 0xbd, 0x3f, 0xd7, 0xbb, 0x3d, 0x37, 0x5c, 0x8a, 0xbd, 0xd3, 0xcf, 0x92, 0x3c, 0xc5, 0x55, 0xd0, 0x3d, 0x17, 0x1e, 0x23, 0xbe, 0x1e, 0xff, 0x88, 0xbc, 0xeb, 0x1f, 0x7d, 0xbd, 0x13, 0xca, 0xef, 0x3d, 0x29, 0xcc, 0xd9, 0x3c, 0x7c, 0x37, 0x5b, 0xbd, 0x98, 0x5a, 0x05, 0x3e, 0xd6, 0xfa, 0x13, 0xbe, 0xda, 0x78, 0x00, 0xbe, 0x69, 0x3e, 0x89, 0x3d, 0x93, 0x16, 0xe6, 0x3b, 0x0d, 0x53, 0xb2, 0xbd, 0x00, 0x03, 0x4c, 0xbd, 0xf3, 0xe1, 0xf9, 0x3b, 0xaa, 0x62, 0x99, 0xbd, 0xe4, 0x8e, 0x28, 0x3d, 0x1f, 0x58, 0x14, 0x3e, 0x25, 0x4a, 0x12, 0xbe, 0x8b, 0xff, 0x01, 0xbe, 0x00, 0x2d, 0xd0, 0x3d, 0x3a, 0xb3, 0xc6, 0xbd, 0xc8, 0x57, 0xa8, 0xbd, 0x47, 0x03, 0x09, 0xbc, 0x82, 0xe6, 0x0f, 0x3e, 0x3c, 0x3d, 0x19, 0xbd, 0x05, 0x5f, 0x15, 0xbe, 0xc2, 0x67, 0x97, 0x3c, 0x2a, 0x9a, 0xb3, 0x3d, 0x3e, 0x98, 0xc6, 0x3d, 0x62, 0x4e, 0xb3, 0x3a, 0x10, 0xf0, 0x16, 0xbe, 0xeb, 0xc0, 0xbe, 0x3d, 0x96, 0x93, 0x0b, 0xbe, 0xe7, 0xa6, 0x37, 0xbd, 0x43, 0x11, 0x09, 0x3e, 0x80, 0x5d, 0x3e, 0x3d, 0xd9, 0xb2, 0x7a, 0xbd, 0x25, 0x91, 0x15, 0xbe, 0xff, 0x19, 0x6f, 0x3c, 0x56, 0xd1, 0xb7, 0xbd, 0xb1, 0x7b, 0x38, 0xbe, 0x29, 0xf3, 0x22, 0x3e, 0x36, 0x59, 0xa1, 0xbd, 0x00, 0x4b, 0xca, 0x3d, 0x7b, 0x93, 0x63, 0xbc, 0x0a, 0xb1, 0x06, 0x3e, 0x1c, 0x28, 0xd5, 0xbc, 0x77, 0xa7, 0x16, 0x3e, 0x6d, 0xd1, 0x22, 0xbe, 0xaf, 0x46, 0xee, 0xbd, 0xa4, 0x0b, 0x82, 0x3d, 0xb5, 0x00, 0x65, 0x3b, 0xe7, 0x9b, 0x2b, 0xbc, 0x7a, 0x0c, 0xec, 0xbc, 0x26, 0x1d, 0xd5, 0x3c, 0x1b, 0xa4, 0xe4, 0x3d, 0xae, 0x08, 0x91, 0xbd, 0xb9, 0x2d, 0x7d, 0xbd, 0x93, 0x0c, 0xd4, 0xbd, 0xb5, 0xe1, 0x9c, 0xb8, 0xae, 0xf1, 0x29, 0xbd, 0xf0, 0x69, 0xa0, 0x3d, 0x08, 0xfa, 0xcd, 0x3d, 0x85, 0xb5, 0x9d, 0x3b, 0x83, 0x50, 0x11, 0xbe, 0x21, 0xc5, 0x32, 0x3e, 0xb9, 0xbf, 0xf5, 0xbd, 0x08, 0x45, 0x99, 0x3c, 0x72, 0x1e, 0x0e, 0xbe, 0x3a, 0x69, 0x05, 0xbe, 0x1f, 0x9c, 0x90, 0x3d, 0xd6, 0x86, 0xf5, 0x3d, 0x08, 0x8c, 0x95, 0xbc, 0x51, 0x2a, 0x2b, 0x3e, 0x5e, 0xdb, 0x64, 0xbd, 0x60, 0x7a, 0xb4, 0x3c, 0x92, 0xc8, 0x1d, 0xbe, 0xf9, 0xd5, 0xa2, 0x3d, 0x14, 0x0c, 0x16, 0x3d, 0xa2, 0x14, 0x30, 0xbd, 0xb6, 0xff, 0xf3, 0x3d, 0x69, 0xeb, 0x1e, 0x3e, 0xb3, 0x2e, 0x99, 0xbd, 0xe1, 0x8f, 0x6a, 0x3c, 0x4c, 0xab, 0x1e, 0xbe, 0x75, 0x1a, 0x9b, 0xbc, 0xe0, 0xaa, 0x09, 0x3d, 0xcc, 0x88, 0xc5, 0x3d, 0x9a, 0xd7, 0xdc, 0xbd, 0x3c, 0x0c, 0xea, 0x3c, 0x75, 0x7d, 0x02, 0x3e, 0x93, 0x92, 0xdb, 0x3d, 0x49, 0xa0, 0x26, 0x3e, 0xb8, 0x8e, 0xa2, 0xbc, 0x3f, 0x96, 0x05, 0xbe, 0x03, 0x44, 0xcb, 0xbd, 0x87, 0x38, 0x2d, 0xbc, 0x64, 0x16, 0xbe, 0x3d, 0x5a, 0x62, 0x06, 0xbe, 0x9a, 0x5c, 0xe2, 0xbd, 0xad, 0x5c, 0xad, 0x3c, 0x67, 0x68, 0x32, 0x3e, 0x0f, 0x7c, 0xea, 0x3d, 0xdd, 0x57, 0xa2, 0xbd, 0x8e, 0xd2, 0xf2, 0xbd, 0x9f, 0xc1, 0x20, 0xbd, 0xc0, 0x4d, 0xdb, 0xbd, 0x55, 0x49, 0x09, 0xbd, 0xc3, 0x96, 0x4b, 0xbe, 0x66, 0x7e, 0x0b, 0xbd, 0x20, 0xc6, 0xd0, 0x3d, 0xc4, 0xb5, 0x2d, 0x3e, 0x40, 0xaa, 0x6f, 0x3d, 0x31, 0x3a, 0xad, 0x3d, 0xd0, 0xc0, 0x49, 0xbc, 0x5d, 0xc5, 0x30, 0x3e, 0x60, 0x86, 0x26, 0xbe, 0xd7, 0x84, 0xe2, 0xbd, 0xb2, 0xae, 0x3e, 0x3d, 0x16, 0xa9, 0x5e, 0xbb, 0x11, 0xd2, 0x12, 0x3e, 0xe1, 0x62, 0x52, 0xbd, 0xba, 0x6f, 0x3b, 0x3e, 0xd3, 0x83, 0x58, 0xbc, 0x45, 0x35, 0x1c, 0xbd, 0x37, 0x48, 0x52, 0xbd, 0x62, 0xac, 0x25, 0xbd, 0x74, 0x9f, 0x17, 0xbd, 0xc0, 0xf8, 0x6e, 0xbd, 0xd6, 0xad, 0xe1, 0xbd, 0xde, 0xf7, 0x2f, 0xbd, 0x2e, 0x47, 0x85, 0xbd, 0xfc, 0x17, 0x34, 0x3e, 0xc8, 0x7f, 0x4c, 0x3c, 0x06, 0xed, 0x1c, 0xbd, 0x2b, 0x48, 0xbb, 0x3d, 0xf2, 0x67, 0xeb, 0x3c, 0x6d, 0xab, 0x02, 0xbe, 0xa0, 0x79, 0xdc, 0xbd, 0x32, 0x73, 0x18, 0x3c, 0x13, 0xbc, 0x0c, 0x3e, 0x50, 0xa5, 0x0d, 0xbd, 0xc3, 0x99, 0x1d, 0xba, 0x25, 0x60, 0x34, 0xbd, 0xba, 0x31, 0x2d, 0xbe, 0xfb, 0xf2, 0x60, 0x3c, 0x14, 0x42, 0xc7, 0xbd, 0x09, 0x3e, 0xd9, 0x3c, 0x1e, 0xbc, 0x52, 0xbe, 0x66, 0x97, 0xef, 0x3d, 0xb6, 0x0a, 0xe5, 0xbc, 0x12, 0x46, 0xba, 0xbc, 0x0e, 0x90, 0xb4, 0x3c, 0xb5, 0xd4, 0x18, 0x3e, 0xc7, 0x3e, 0xb4, 0x3d, 0xf6, 0xf5, 0x1a, 0xbe, 0x25, 0x0c, 0x1d, 0xbe, 0xd0, 0x2b, 0x0b, 0xbe, 0x44, 0xfc, 0xcf, 0x3b, 0x5e, 0xa9, 0xcf, 0x3d, 0x44, 0x5e, 0x89, 0x3d, 0xb3, 0x9e, 0xa5, 0xbc, 0xe3, 0x23, 0x86, 0xbd, 0x83, 0xf0, 0x98, 0x3d, 0x14, 0xcb, 0x9b, 0xbd, 0x05, 0xa8, 0x0c, 0xbd, 0xa1, 0x01, 0x20, 0x3d, 0xe4, 0xa3, 0x41, 0xbe, 0x47, 0xc3, 0xb6, 0xbb, 0x92, 0x9b, 0x7f, 0xbb, 0x50, 0xf9, 0x2b, 0xbe, 0xbb, 0xa4, 0x8a, 0x3a, 0xcb, 0xb1, 0xe9, 0x3d, 0x17, 0x5c, 0xec, 0xbd, 0x02, 0x9c, 0xef, 0xbd, 0x17, 0x6f, 0x21, 0x3d, 0x23, 0xbd, 0x2a, 0xbe, 0xad, 0xc6, 0xc0, 0x3c, 0x49, 0xf5, 0xa6, 0xbc, 0xd3, 0x60, 0xda, 0xbd, 0x9a, 0x9d, 0x8f, 0x3d, 0x01, 0xb5, 0xac, 0x3d, 0x1d, 0x1a, 0x03, 0xbe, 0xa9, 0x12, 0x2e, 0xbe, 0x57, 0xc0, 0xcc, 0x3d, 0x2e, 0x14, 0xca, 0xbd, 0x85, 0xe9, 0x00, 0x3d, 0x46, 0xcf, 0xfe, 0x3d, 0x6f, 0xd9, 0x69, 0x3d, 0x3d, 0xcc, 0xae, 0xba, 0xaa, 0x30, 0xd0, 0xbd, 0xf7, 0x5c, 0x8b, 0x3d, 0x8e, 0x46, 0x30, 0xbe, 0xcc, 0xea, 0xb9, 0xbd, 0xd1, 0xec, 0x2e, 0xbe, 0xe0, 0x2e, 0xeb, 0xbd, 0xe2, 0xcb, 0x07, 0xbe, 0x9c, 0x0f, 0x23, 0x3e, 0x86, 0x71, 0xe1, 0x3d, 0x8f, 0xe2, 0x9d, 0x3d, 0xa6, 0xd9, 0x9a, 0x3b, 0x71, 0x12, 0x2d, 0xbd, 0x91, 0xbe, 0xd5, 0x3b, 0x1f, 0xa3, 0x41, 0xbe, 0xb9, 0xb5, 0x60, 0xbd, 0xa9, 0xdd, 0xe7, 0x3d, 0xbc, 0x57, 0xc3, 0x3c, 0x0a, 0xcf, 0xb4, 0xbd, 0x6a, 0xf7, 0x1d, 0xbd, 0x25, 0xf2, 0xbc, 0x3d, 0x55, 0x81, 0x9f, 0x3d, 0xb0, 0x99, 0xee, 0xbd, 0x4f, 0x7c, 0x75, 0xbd, 0x74, 0x7d, 0x3d, 0xbc, 0xb1, 0xd1, 0xe1, 0xbd, 0x79, 0x55, 0xe1, 0xbc, 0xaa, 0xb5, 0x38, 0xbe, 0x43, 0x1f, 0x23, 0xbe, 0x44, 0x99, 0xfa, 0xbd, 0xe9, 0x6a, 0x9a, 0x3d, 0xa1, 0x76, 0x20, 0xbe, 0xd3, 0xec, 0x28, 0xbd, 0x5f, 0x56, 0xe8, 0x3c, 0xbf, 0x81, 0x14, 0x3c, 0x90, 0x37, 0x0e, 0xbd, 0x5c, 0x8f, 0xd6, 0x3b, 0x6f, 0x6e, 0x99, 0x3d, 0xb3, 0xcf, 0xb8, 0x3d, 0x8c, 0xbf, 0x8a, 0x3d, 0xb4, 0xa5, 0xd6, 0x3d, 0x86, 0x6d, 0x57, 0x3d, 0x8a, 0xf9, 0x32, 0x39, 0xcf, 0x87, 0xc9, 0xbd, 0xdd, 0xfc, 0xb9, 0xbc, 0xb2, 0x4f, 0x03, 0xbe, 0x8f, 0x30, 0xa8, 0x3d, 0xdb, 0xd7, 0x74, 0xbc, 0x81, 0xa3, 0xb7, 0xbc, 0x19, 0x40, 0xf7, 0x3b, 0xdf, 0x2c, 0x68, 0xbd, 0x2b, 0xd2, 0xc4, 0xbd, 0x11, 0x2d, 0xac, 0x3d, 0xa7, 0x0c, 0x12, 0xbe, 0x52, 0x47, 0xfc, 0xbd, 0xbe, 0xfe, 0xe7, 0xbd, 0x67, 0x7c, 0xb6, 0xbd, 0x33, 0x48, 0xa6, 0x3c, 0xd7, 0xf3, 0xf0, 0xbc, 0xb6, 0xd3, 0xe3, 0xbd, 0xac, 0x0b, 0x18, 0xbe, 0x7e, 0xd1, 0x00, 0xbd, 0x32, 0x73, 0x39, 0xbe, 0x1f, 0xf5, 0x66, 0x3c, 0xfc, 0xb5, 0xbe, 0xbd, 0x9f, 0x73, 0x29, 0xbe, 0xe3, 0xb2, 0x0e, 0xbe, 0xb0, 0xd5, 0xe3, 0xbd, 0x70, 0xfc, 0xf8, 0xbd, 0xab, 0x51, 0x2b, 0xbe, 0xfd, 0x2e, 0xb4, 0x3c, 0x63, 0x91, 0xb3, 0x3d, 0x19, 0x41, 0xcb, 0xbd, 0x16, 0xbb, 0x04, 0xbe, 0x4d, 0xf5, 0x08, 0xbd, 0x47, 0xe8, 0x1f, 0xbe, 0x06, 0xed, 0xc9, 0xbd, 0xc9, 0x22, 0xd1, 0xbd, 0xf3, 0x9e, 0x32, 0xbe, 0xa6, 0xd6, 0x07, 0xbd, 0x16, 0x87, 0x0b, 0x3e, 0x44, 0x52, 0x32, 0x3d, 0x7a, 0xc9, 0x25, 0xbe, 0xab, 0xa2, 0x04, 0x3d, 0x1f, 0x18, 0x0a, 0xbe, 0xc6, 0x06, 0xcd, 0xbc, 0x8d, 0x16, 0x9c, 0xbc, 0x90, 0x0c, 0x29, 0xbe, 0x29, 0xf6, 0x22, 0xbe, 0x58, 0x31, 0x58, 0xbd, 0xd5, 0x1e, 0x80, 0xbd, 0x00, 0xc9, 0xab, 0xbd, 0x2c, 0x83, 0x0b, 0xbe, 0x14, 0x6c, 0x04, 0x3c, 0x7d, 0xd8, 0x79, 0x3d, 0x9b, 0xb6, 0x8c, 0x3d, 0xa4, 0x7e, 0x1b, 0x3c, 0x7c, 0x8a, 0x1d, 0x3d, 0xe3, 0xe0, 0xa1, 0x3d, 0x71, 0xea, 0xda, 0xbd, 0x57, 0x9c, 0x2b, 0xbb, 0x7d, 0x05, 0xeb, 0xbb, 0x00, 0x5e, 0xc9, 0x3c, 0x96, 0x12, 0x20, 0xbc, 0xdd, 0x2e, 0x6e, 0xbc, 0xbf, 0x56, 0x27, 0xbe, 0x14, 0xcc, 0x1e, 0xbd, 0xa1, 0xda, 0xa6, 0xbd, 0x2a, 0x5f, 0xd3, 0x3b, 0xea, 0x06, 0x1b, 0xbe, 0x85, 0xf6, 0x8c, 0x3d, 0x48, 0xf3, 0xca, 0x3c, 0xad, 0x3d, 0xc2, 0x3d, 0x7c, 0xa5, 0xea, 0xbd, 0xd3, 0x75, 0x9a, 0xbd, 0x8b, 0x05, 0x20, 0x3d, 0x79, 0xad, 0x21, 0xbe, 0xcc, 0x43, 0x25, 0xbe, 0x3f, 0x41, 0x8d, 0xbd, 0x8d, 0xfb, 0x2a, 0x3d, 0x00, 0x55, 0x9f, 0x3d, 0xa2, 0x29, 0x0b, 0x3d, 0x2b, 0xe8, 0x96, 0xbd, 0x8b, 0xa8, 0x37, 0x3d, 0x55, 0x3c, 0x1c, 0x3d, 0xc6, 0xa7, 0x1f, 0xbe, 0xa8, 0x2b, 0x01, 0x3e, 0x7d, 0xbc, 0x2b, 0xbe, 0x44, 0xe8, 0xf9, 0x3c, 0x40, 0xd4, 0x14, 0xbe, 0x69, 0x1e, 0x17, 0xbd, 0x48, 0xa3, 0xe3, 0x3c, 0x2f, 0x1d, 0xe9, 0xbc, 0xfc, 0x5d, 0xd3, 0x3c, 0x6f, 0xee, 0x22, 0xbe, 0x19, 0x19, 0x92, 0xbd, 0x21, 0xf9, 0x88, 0xbd, 0x0a, 0xec, 0xc9, 0xbd, 0xa5, 0xc1, 0x44, 0xbc, 0xd8, 0x3c, 0x4d, 0xbd, 0x81, 0x8d, 0x00, 0xbe, 0x13, 0x1a, 0x47, 0xbd, 0x52, 0xea, 0x45, 0x3c, 0x8b, 0x22, 0x63, 0x3d, 0xcd, 0xd1, 0x90, 0x3d, 0x1a, 0xff, 0xff, 0xff, 0x04, 0x00, 0x00, 0x00, 0x08, 0x00, 0x00, 0x00, 0xff, 0xff, 0xff, 0xff, 0x22, 0x01, 0x00, 0x00, 0x2e, 0xff, 0xff, 0xff, 0x04, 0x00, 0x00, 0x00, 0x28, 0x00, 0x00, 0x00, 0xf5, 0x4a, 0x1c, 0xbd, 0x1c, 0xaf, 0x9f, 0x3d, 0x66, 0x88, 0xa3, 0xbc, 0xa3, 0x5c, 0xac, 0x3d, 0x46, 0xc3, 0xc3, 0x3d, 0xd9, 0x0c, 0xda, 0xbc, 0xce, 0xc0, 0x97, 0x3d, 0xd3, 0xeb, 0x73, 0xbd, 0xb9, 0x2c, 0x38, 0x3d, 0xdd, 0xaf, 0x8f, 0xbc, 0x62, 0xff, 0xff, 0xff, 0x04, 0x00, 0x00, 0x00, 0x0c, 0x00, 0x00, 0x00, 0xf1, 0x1a, 0x75, 0x3d, 0xca, 0x8b, 0x5f, 0xbd, 0xc8, 0x67, 0x1b, 0xbd, 0x84, 0xfa, 0xff, 0xff, 0x88, 0xfa, 0xff, 0xff, 0x0f, 0x00, 0x00, 0x00, 0x4d, 0x4c, 0x49, 0x52, 0x20, 0x43, 0x6f, 0x6e, 0x76, 0x65, 0x72, 0x74, 0x65, 0x64, 0x2e, 0x00, 0x01, 0x00, 0x00, 0x00, 0x14, 0x00, 0x00, 0x00, 0x00, 0x00, 0x0e, 0x00, 0x18, 0x00, 0x14, 0x00, 0x10, 0x00, 0x0c, 0x00, 0x08, 0x00, 0x04, 0x00, 0x0e, 0x00, 0x00, 0x00, 0x14, 0x00, 0x00, 0x00, 0x1c, 0x00, 0x00, 0x00, 0x34, 0x01, 0x00, 0x00, 0x38, 0x01, 0x00, 0x00, 0x3c, 0x01, 0x00, 0x00, 0x04, 0x00, 0x00, 0x00, 0x6d, 0x61, 0x69, 0x6e, 0x00, 0x00, 0x00, 0x00, 0x04, 0x00, 0x00, 0x00, 0xcc, 0x00, 0x00, 0x00, 0x94, 0x00, 0x00, 0x00, 0x50, 0x00, 0x00, 0x00, 0x04, 0x00, 0x00, 0x00, 0xc6, 0xff, 0xff, 0xff, 0x1c, 0x00, 0x00, 0x00, 0x00, 0x00, 0x00, 0x09, 0x1c, 0x00, 0x00, 0x00, 0x20, 0x00, 0x00, 0x00, 0x03, 0x00, 0x00, 0x00, 0x00, 0x00, 0x06, 0x00, 0x08, 0x00, 0x04, 0x00, 0x06, 0x00, 0x00, 0x00, 0x00, 0x00, 0x80, 0x3f, 0x01, 0x00, 0x00, 0x00, 0x09, 0x00, 0x00, 0x00, 0x01, 0x00, 0x00, 0x00, 0x08, 0x00, 0x00, 0x00, 0x00, 0x00, 0x0e, 0x00, 0x18, 0x00, 0x14, 0x00, 0x10, 0x00, 0x0c, 0x00, 0x0b, 0x00, 0x04, 0x00, 0x0e, 0x00, 0x00, 0x00, 0x14, 0x00, 0x00, 0x00, 0x00, 0x00, 0x00, 0x08, 0x10, 0x00, 0x00, 0x00, 0x14, 0x00, 0x00, 0x00, 0x02, 0x00, 0x00, 0x00, 0x50, 0xfb, 0xff, 0xff, 0x01, 0x00, 0x00, 0x00, 0x08, 0x00, 0x00, 0x00, 0x03, 0x00, 0x00, 0x00, 0x07, 0x00, 0x00, 0x00, 0x04, 0x00, 0x00, 0x00, 0x01, 0x00, 0x00, 0x00, 0x00, 0x00, 0x0a, 0x00, 0x10, 0x00, 0x0c, 0x00, 0x08, 0x00, 0x04, 0x00, 0x0a, 0x00, 0x00, 0x00, 0x0c, 0x00, 0x00, 0x00, 0x10, 0x00, 0x00, 0x00, 0x01, 0x00, 0x00, 0x00, 0x01, 0x00, 0x00, 0x00, 0x07, 0x00, 0x00, 0x00, 0x02, 0x00, 0x00, 0x00, 0x06, 0x00, 0x00, 0x00, 0x03, 0x00, 0x00, 0x00, 0x00, 0x00, 0x0e, 0x00, 0x14, 0x00, 0x00, 0x00, 0x10, 0x00, 0x0c, 0x00, 0x0b, 0x00, 0x04, 0x00, 0x0e, 0x00, 0x00, 0x00, 0x1c, 0x00, 0x00, 0x00, 0x00, 0x00, 0x00, 0x01, 0x28, 0x00, 0x00, 0x00, 0x2c, 0x00, 0x00, 0x00, 0x0c, 0x00, 0x14, 0x00, 0x13, 0x00, 0x0c, 0x00, 0x08, 0x00, 0x07, 0x00, 0x0c, 0x00, 0x00, 0x00, 0x00, 0x00, 0x00, 0x01, 0x1e, 0x00, 0x00, 0x00, 0x1e, 0x00, 0x00, 0x00, 0x00, 0x00, 0x00, 0x01, 0x01, 0x00, 0x00, 0x00, 0x06, 0x00, 0x00, 0x00, 0x03, 0x00, 0x00, 0x00, 0x00, 0x00, 0x00, 0x00, 0x05, 0x00, 0x00, 0x00, 0x02, 0x00, 0x00, 0x00, 0x01, 0x00, 0x00, 0x00, 0x09, 0x00, 0x00, 0x00, 0x01, 0x00, 0x00, 0x00, 0x00, 0x00, 0x00, 0x00, 0x0a, 0x00, 0x00, 0x00, 0xc8, 0x03, 0x00, 0x00, 0x60, 0x03, 0x00, 0x00, 0xf8, 0x02, 0x00, 0x00, 0xac, 0x02, 0x00, 0x00, 0x54, 0x02, 0x00, 0x00, 0x00, 0x02, 0x00, 0x00, 0x30, 0x01, 0x00, 0x00, 0xd4, 0x00, 0x00, 0x00, 0x5c, 0x00, 0x00, 0x00, 0x04, 0x00, 0x00, 0x00, 0x74, 0xfc, 0xff, 0xff, 0x14, 0x00, 0x00, 0x00, 0x1c, 0x00, 0x00, 0x00, 0x1c, 0x00, 0x00, 0x00, 0x0a, 0x00, 0x00, 0x00, 0x34, 0x00, 0x00, 0x00, 0x02, 0x00, 0x00, 0x00, 0xff, 0xff, 0xff, 0xff, 0x03, 0x00, 0x00, 0x00, 0x58, 0xfc, 0xff, 0xff, 0x19, 0x00, 0x00, 0x00, 0x53, 0x74, 0x61, 0x74, 0x65, 0x66, 0x75, 0x6c, 0x50, 0x61, 0x72, 0x74, 0x69, 0x74, 0x69, 0x6f, 0x6e, 0x65, 0x64, 0x43, 0x61, 0x6c, 0x6c, 0x3a, 0x30, 0x00, 0x00, 0x00, 0x02, 0x00, 0x00, 0x00, 0x01, 0x00, 0x00, 0x00, 0x03, 0x00, 0x00, 0x00, 0xc8, 0xfc, 0xff, 0xff, 0x14, 0x00, 0x00, 0x00, 0x1c, 0x00, 0x00, 0x00, 0x1c, 0x00, 0x00, 0x00, 0x09, 0x00, 0x00, 0x00, 0x54, 0x00, 0x00, 0x00, 0x02, 0x00, 0x00, 0x00, 0xff, 0xff, 0xff, 0xff, 0x03, 0x00, 0x00, 0x00, 0xac, 0xfc, 0xff, 0xff, 0x38, 0x00, 0x00, 0x00, 0x73, 0x65, 0x71, 0x75, 0x65, 0x6e, 0x74, 0x69, 0x61, 0x6c, 0x5f, 0x32, 0x2f, 0x64, 0x65, 0x6e, 0x73, 0x65, 0x5f, 0x32, 0x2f, 0x4d, 0x61, 0x74, 0x4d, 0x75, 0x6c, 0x3b, 0x73, 0x65, 0x71, 0x75, 0x65, 0x6e, 0x74, 0x69, 0x61, 0x6c, 0x5f, 0x32, 0x2f, 0x64, 0x65, 0x6e, 0x73, 0x65, 0x5f, 0x32, 0x2f, 0x42, 0x69, 0x61, 0x73, 0x41, 0x64, 0x64, 0x00, 0x00, 0x00, 0x00, 0x02, 0x00, 0x00, 0x00, 0x01, 0x00, 0x00, 0x00, 0x03, 0x00, 0x00, 0x00, 0x3c, 0xfd, 0xff, 0xff, 0x14, 0x00, 0x00, 0x00, 0x1c, 0x00, 0x00, 0x00, 0x1c, 0x00, 0x00, 0x00, 0x08, 0x00, 0x00, 0x00, 0x38, 0x00, 0x00, 0x00, 0x02, 0x00, 0x00, 0x00, 0xff, 0xff, 0xff, 0xff, 0x22, 0x01, 0x00, 0x00, 0x20, 0xfd, 0xff, 0xff, 0x1e, 0x00, 0x00, 0x00, 0x73, 0x65, 0x71, 0x75, 0x65, 0x6e, 0x74, 0x69, 0x61, 0x6c, 0x5f, 0x32, 0x2f, 0x66, 0x6c, 0x61, 0x74, 0x74, 0x65, 0x6e, 0x5f, 0x32, 0x2f, 0x52, 0x65, 0x73, 0x68, 0x61, 0x70, 0x65, 0x00, 0x00, 0x02, 0x00, 0x00, 0x00, 0x01, 0x00, 0x00, 0x00, 0x22, 0x01, 0x00, 0x00, 0x94, 0xfd, 0xff, 0xff, 0x14, 0x00, 0x00, 0x00, 0x24, 0x00, 0x00, 0x00, 0x24, 0x00, 0x00, 0x00, 0x07, 0x00, 0x00, 0x00, 0xa4, 0x00, 0x00, 0x00, 0x04, 0x00, 0x00, 0x00, 0xff, 0xff, 0xff, 0xff, 0x1d, 0x00, 0x00, 0x00, 0x01, 0x00, 0x00, 0x00, 0x0a, 0x00, 0x00, 0x00, 0x80, 0xfd, 0xff, 0xff, 0x82, 0x00, 0x00, 0x00, 0x73, 0x65, 0x71, 0x75, 0x65, 0x6e, 0x74, 0x69, 0x61, 0x6c, 0x5f, 0x32, 0x2f, 0x63, 0x6f, 0x6e, 0x76, 0x32, 0x64, 0x5f, 0x32, 0x2f, 0x52, 0x65, 0x6c, 0x75, 0x3b, 0x73, 0x65, 0x71, 0x75, 0x65, 0x6e, 0x74, 0x69, 0x61, 0x6c, 0x5f, 0x32, 0x2f, 0x63, 0x6f, 0x6e, 0x76, 0x32, 0x64, 0x5f, 0x32, 0x2f, 0x42, 0x69, 0x61, 0x73, 0x41, 0x64, 0x64, 0x3b, 0x73, 0x65, 0x71, 0x75, 0x65, 0x6e, 0x74, 0x69, 0x61, 0x6c, 0x5f, 0x32, 0x2f, 0x63, 0x6f, 0x6e, 0x76, 0x32, 0x64, 0x5f, 0x32, 0x2f, 0x43, 0x6f, 0x6e, 0x76, 0x32, 0x44, 0x3b, 0x73, 0x65, 0x71, 0x75, 0x65, 0x6e, 0x74, 0x69, 0x61, 0x6c, 0x5f, 0x32, 0x2f, 0x63, 0x6f, 0x6e, 0x76, 0x32, 0x64, 0x5f, 0x32, 0x2f, 0x42, 0x69, 0x61, 0x73, 0x41, 0x64, 0x64, 0x2f, 0x52, 0x65, 0x61, 0x64, 0x56, 0x61, 0x72, 0x69, 0x61, 0x62, 0x6c, 0x65, 0x4f, 0x70, 0x00, 0x00, 0x04, 0x00, 0x00, 0x00, 0x01, 0x00, 0x00, 0x00, 0x1d, 0x00, 0x00, 0x00, 0x01, 0x00, 0x00, 0x00, 0x0a, 0x00, 0x00, 0x00, 0xbe, 0xfe, 0xff, 0xff, 0x10, 0x00, 0x00, 0x00, 0x10, 0x00, 0x00, 0x00, 0x06, 0x00, 0x00, 0x00, 0x2c, 0x00, 0x00, 0x00, 0x34, 0xfe, 0xff, 0xff, 0x1c, 0x00, 0x00, 0x00, 0x73, 0x65, 0x71, 0x75, 0x65, 0x6e, 0x74, 0x69, 0x61, 0x6c, 0x5f, 0x32, 0x2f, 0x63, 0x6f, 0x6e, 0x76, 0x32, 0x64, 0x5f, 0x32, 0x2f, 0x43, 0x6f, 0x6e, 0x76, 0x32, 0x44, 0x00, 0x00, 0x00, 0x00, 0x04, 0x00, 0x00, 0x00, 0x0a, 0x00, 0x00, 0x00, 0x32, 0x00, 0x00, 0x00, 0x03, 0x00, 0x00, 0x00, 0x01, 0x00, 0x00, 0x00, 0x0e, 0xff, 0xff, 0xff, 0x10, 0x00, 0x00, 0x00, 0x10, 0x00, 0x00, 0x00, 0x05, 0x00, 0x00, 0x00, 0x28, 0x00, 0x00, 0x00, 0x84, 0xfe, 0xff, 0xff, 0x1b, 0x00, 0x00, 0x00, 0x73, 0x65, 0x71, 0x75, 0x65, 0x6e, 0x74, 0x69, 0x61, 0x6c, 0x5f, 0x32, 0x2f, 0x64, 0x65, 0x6e, 0x73, 0x65, 0x5f, 0x32, 0x2f, 0x4d, 0x61, 0x74, 0x4d, 0x75, 0x6c, 0x00, 0x02, 0x00, 0x00, 0x00, 0x03, 0x00, 0x00, 0x00, 0x22, 0x01, 0x00, 0x00, 0x00, 0x00, 0x0e, 0x00, 0x18, 0x00, 0x14, 0x00, 0x13, 0x00, 0x0c, 0x00, 0x08, 0x00, 0x04, 0x00, 0x0e, 0x00, 0x00, 0x00, 0x14, 0x00, 0x00, 0x00, 0x14, 0x00, 0x00, 0x00, 0x04, 0x00, 0x00, 0x00, 0x00, 0x00, 0x00, 0x02, 0x2c, 0x00, 0x00, 0x00, 0xdc, 0xfe, 0xff, 0xff, 0x1c, 0x00, 0x00, 0x00, 0x73, 0x65, 0x71, 0x75, 0x65, 0x6e, 0x74, 0x69, 0x61, 0x6c, 0x5f, 0x32, 0x2f, 0x66, 0x6c, 0x61, 0x74, 0x74, 0x65, 0x6e, 0x5f, 0x32, 0x2f, 0x43, 0x6f, 0x6e, 0x73, 0x74, 0x00, 0x00, 0x00, 0x00, 0x01, 0x00, 0x00, 0x00, 0x02, 0x00, 0x00, 0x00, 0xaa, 0xff, 0xff, 0xff, 0x10, 0x00, 0x00, 0x00, 0x10, 0x00, 0x00, 0x00, 0x03, 0x00, 0x00, 0x00, 0x3c, 0x00, 0x00, 0x00, 0x20, 0xff, 0xff, 0xff, 0x2c, 0x00, 0x00, 0x00, 0x73, 0x65, 0x71, 0x75, 0x65, 0x6e, 0x74, 0x69, 0x61, 0x6c, 0x5f, 0x32, 0x2f, 0x63, 0x6f, 0x6e, 0x76, 0x32, 0x64, 0x5f, 0x32, 0x2f, 0x42, 0x69, 0x61, 0x73, 0x41, 0x64, 0x64, 0x2f, 0x52, 0x65, 0x61, 0x64, 0x56, 0x61, 0x72, 0x69, 0x61, 0x62, 0x6c, 0x65, 0x4f, 0x70, 0x00, 0x00, 0x00, 0x00, 0x01, 0x00, 0x00, 0x00, 0x0a, 0x00, 0x00, 0x00, 0x00, 0x00, 0x0e, 0x00, 0x14, 0x00, 0x10, 0x00, 0x00, 0x00, 0x0c, 0x00, 0x08, 0x00, 0x04, 0x00, 0x0e, 0x00, 0x00, 0x00, 0x10, 0x00, 0x00, 0x00, 0x10, 0x00, 0x00, 0x00, 0x02, 0x00, 0x00, 0x00, 0x38, 0x00, 0x00, 0x00, 0x84, 0xff, 0xff, 0xff, 0x2b, 0x00, 0x00, 0x00, 0x73, 0x65, 0x71, 0x75, 0x65, 0x6e, 0x74, 0x69, 0x61, 0x6c, 0x5f, 0x32, 0x2f, 0x64, 0x65, 0x6e, 0x73, 0x65, 0x5f, 0x32, 0x2f, 0x42, 0x69, 0x61, 0x73, 0x41, 0x64, 0x64, 0x2f, 0x52, 0x65, 0x61, 0x64, 0x56, 0x61, 0x72, 0x69, 0x61, 0x62, 0x6c, 0x65, 0x4f, 0x70, 0x00, 0x01, 0x00, 0x00, 0x00, 0x03, 0x00, 0x00, 0x00, 0x14, 0x00, 0x18, 0x00, 0x14, 0x00, 0x00, 0x00, 0x10, 0x00, 0x0c, 0x00, 0x08, 0x00, 0x00, 0x00, 0x00, 0x00, 0x04, 0x00, 0x14, 0x00, 0x00, 0x00, 0x14, 0x00, 0x00, 0x00, 0x28, 0x00, 0x00, 0x00, 0x28, 0x00, 0x00, 0x00, 0x01, 0x00, 0x00, 0x00, 0x48, 0x00, 0x00, 0x00, 0x04, 0x00, 0x00, 0x00, 0xff, 0xff, 0xff, 0xff, 0x84, 0x03, 0x00, 0x00, 0x06, 0x00, 0x00, 0x00, 0x01, 0x00, 0x00, 0x00, 0x04, 0x00, 0x04, 0x00, 0x04, 0x00, 0x00, 0x00, 0x20, 0x00, 0x00, 0x00, 0x73, 0x65, 0x72, 0x76, 0x69, 0x6e, 0x67, 0x5f, 0x64, 0x65, 0x66, 0x61, 0x75, 0x6c, 0x74, 0x5f, 0x63, 0x6f, 0x6e, 0x76, 0x32, 0x64, 0x5f, 0x32, 0x5f, 0x69, 0x6e, 0x70, 0x75, 0x74, 0x3a, 0x30, 0x00, 0x00, 0x00, 0x00, 0x04, 0x00, 0x00, 0x00, 0x01, 0x00, 0x00, 0x00, 0x84, 0x03, 0x00, 0x00, 0x06, 0x00, 0x00, 0x00, 0x01, 0x00, 0x00, 0x00, 0x04, 0x00, 0x00, 0x00, 0x40, 0x00, 0x00, 0x00, 0x24, 0x00, 0x00, 0x00, 0x14, 0x00, 0x00, 0x00, 0x04, 0x00, 0x00, 0x00, 0xdc, 0xff, 0xff, 0xff, 0x19, 0x00, 0x00, 0x00, 0x00, 0x00, 0x00, 0x19, 0xe8, 0xff, 0xff, 0xff, 0x09, 0x00, 0x00, 0x00, 0x00, 0x00, 0x00, 0x09, 0xf4, 0xff, 0xff, 0xff, 0x16, 0x00, 0x00, 0x00, 0x00, 0x00, 0x00, 0x16, 0x0c, 0x00, 0x0c, 0x00, 0x0b, 0x00, 0x00, 0x00, 0x00, 0x00, 0x04, 0x00, 0x0c, 0x00, 0x00, 0x00, 0x03, 0x00, 0x00, 0x00, 0x00, 0x00, 0x00, 0x03};
const int model_data_len = 11612;