
#ifdef __has_attribute
#define HAVE_ATTRIBUTE(x) __has_attribute(x)
#else
#define HAVE_ATTRIBUTE(x) 0
#endif
#if HAVE_ATTRIBUTE(aligned) || (defined(__GNUC__) && !defined(__clang__))
#define DATA_ALIGN_ATTRIBUTE __attribute__((aligned(4)))
#else
#define DATA_ALIGN_ATTRIBUTE
#endif

const unsigned char model_data[] DATA_ALIGN_ATTRIBUTE = {0x1c, 0x00, 0x00, 0x00, 0x54, 0x46, 0x4c, 0x33, 0x14, 0x00, 0x20, 0x00, 0x1c, 0x00, 0x18, 0x00, 0x14, 0x00, 0x10, 0x00, 0x0c, 0x00, 0x00, 0x00, 0x08, 0x00, 0x04, 0x00, 0x14, 0x00, 0x00, 0x00, 0x1c, 0x00, 0x00, 0x00, 0x88, 0x00, 0x00, 0x00, 0xe0, 0x00, 0x00, 0x00, 0xd8, 0x10, 0x00, 0x00, 0xe8, 0x10, 0x00, 0x00, 0x54, 0x16, 0x00, 0x00, 0x03, 0x00, 0x00, 0x00, 0x01, 0x00, 0x00, 0x00, 0x04, 0x00, 0x00, 0x00, 0x5e, 0xee, 0xff, 0xff, 0x0c, 0x00, 0x00, 0x00, 0x1c, 0x00, 0x00, 0x00, 0x38, 0x00, 0x00, 0x00, 0x0f, 0x00, 0x00, 0x00, 0x73, 0x65, 0x72, 0x76, 0x69, 0x6e, 0x67, 0x5f, 0x64, 0x65, 0x66, 0x61, 0x75, 0x6c, 0x74, 0x00, 0x01, 0x00, 0x00, 0x00, 0x04, 0x00, 0x00, 0x00, 0x94, 0xff, 0xff, 0xff, 0x09, 0x00, 0x00, 0x00, 0x04, 0x00, 0x00, 0x00, 0x05, 0x00, 0x00, 0x00, 0x64, 0x65, 0x6e, 0x73, 0x65, 0x00, 0x00, 0x00, 0x01, 0x00, 0x00, 0x00, 0x04, 0x00, 0x00, 0x00, 0x0e, 0xef, 0xff, 0xff, 0x04, 0x00, 0x00, 0x00, 0x0c, 0x00, 0x00, 0x00, 0x63, 0x6f, 0x6e, 0x76, 0x32, 0x64, 0x5f, 0x69, 0x6e, 0x70, 0x75, 0x74, 0x00, 0x00, 0x00, 0x00, 0x02, 0x00, 0x00, 0x00, 0x34, 0x00, 0x00, 0x00, 0x04, 0x00, 0x00, 0x00, 0xdc, 0xff, 0xff, 0xff, 0x0c, 0x00, 0x00, 0x00, 0x04, 0x00, 0x00, 0x00, 0x13, 0x00, 0x00, 0x00, 0x43, 0x4f, 0x4e, 0x56, 0x45, 0x52, 0x53, 0x49, 0x4f, 0x4e, 0x5f, 0x4d, 0x45, 0x54, 0x41, 0x44, 0x41, 0x54, 0x41, 0x00, 0x08, 0x00, 0x0c, 0x00, 0x08, 0x00, 0x04, 0x00, 0x08, 0x00, 0x00, 0x00, 0x0b, 0x00, 0x00, 0x00, 0x04, 0x00, 0x00, 0x00, 0x13, 0x00, 0x00, 0x00, 0x6d, 0x69, 0x6e, 0x5f, 0x72, 0x75, 0x6e, 0x74, 0x69, 0x6d, 0x65, 0x5f, 0x76, 0x65, 0x72, 0x73, 0x69, 0x6f, 0x6e, 0x00, 0x0d, 0x00, 0x00, 0x00, 0xf4, 0x0f, 0x00, 0x00, 0xec, 0x0f, 0x00, 0x00, 0xd0, 0x0f, 0x00, 0x00, 0xa4, 0x0f, 0x00, 0x00, 0x8c, 0x0f, 0x00, 0x00, 0x48, 0x07, 0x00, 0x00, 0xa8, 0x00, 0x00, 0x00, 0xa0, 0x00, 0x00, 0x00, 0x98, 0x00, 0x00, 0x00, 0x90, 0x00, 0x00, 0x00, 0x88, 0x00, 0x00, 0x00, 0x68, 0x00, 0x00, 0x00, 0x04, 0x00, 0x00, 0x00, 0xbe, 0xef, 0xff, 0xff, 0x04, 0x00, 0x00, 0x00, 0x54, 0x00, 0x00, 0x00, 0x0c, 0x00, 0x00, 0x00, 0x08, 0x00, 0x0e, 0x00, 0x08, 0x00, 0x04, 0x00, 0x08, 0x00, 0x00, 0x00, 0x10, 0x00, 0x00, 0x00, 0x24, 0x00, 0x00, 0x00, 0x00, 0x00, 0x06, 0x00, 0x08, 0x00, 0x04, 0x00, 0x06, 0x00, 0x00, 0x00, 0x04, 0x00, 0x00, 0x00, 0x00, 0x00, 0x00, 0x00, 0x00, 0x00, 0x0a, 0x00, 0x10, 0x00, 0x0c, 0x00, 0x08, 0x00, 0x04, 0x00, 0x0a, 0x00, 0x00, 0x00, 0x02, 0x00, 0x00, 0x00, 0x02, 0x00, 0x00, 0x00, 0x04, 0x00, 0x00, 0x00, 0x05, 0x00, 0x00, 0x00, 0x32, 0x2e, 0x39, 0x2e, 0x31, 0x00, 0x00, 0x00, 0x1e, 0xf0, 0xff, 0xff, 0x04, 0x00, 0x00, 0x00, 0x10, 0x00, 0x00, 0x00, 0x31, 0x2e, 0x35, 0x2e, 0x30, 0x00, 0x00, 0x00, 0x00, 0x00, 0x00, 0x00, 0x00, 0x00, 0x00, 0x00, 0x74, 0xeb, 0xff, 0xff, 0x78, 0xeb, 0xff, 0xff, 0x7c, 0xeb, 0xff, 0xff, 0x80, 0xeb, 0xff, 0xff, 0x4a, 0xf0, 0xff, 0xff, 0x04, 0x00, 0x00, 0x00, 0x90, 0x06, 0x00, 0x00, 0xb9, 0x39, 0xab, 0xbc, 0x8b, 0xef, 0xb1, 0xbd, 0xe2, 0x2a, 0x1a, 0x3e, 0x38, 0xcc, 0x9e, 0x3b, 0xc1, 0xcf, 0x98, 0x3c, 0xa3, 0xab, 0xf9, 0xbd, 0x62, 0xd7, 0x35, 0x3c, 0x51, 0x8a, 0xbc, 0x3c, 0x76, 0xdd, 0x84, 0x3c, 0x62, 0x6e, 0x23, 0x3d, 0x07, 0xfd, 0x66, 0x3d, 0xa2, 0x82, 0xff, 0xbd, 0xee, 0xa6, 0x57, 0x3d, 0xc4, 0x72, 0x92, 0xbd, 0xc4, 0xda, 0x3f, 0x3c, 0xa7, 0x01, 0x37, 0xbd, 0x35, 0x69, 0xf7, 0xbd, 0x69, 0x08, 0x91, 0xbc, 0x12, 0x43, 0x7f, 0x3d, 0x90, 0x47, 0x58, 0x3d, 0x04, 0x71, 0x3c, 0xbd, 0x15, 0x5f, 0x51, 0xbd, 0x6e, 0x52, 0xd5, 0xbd, 0x57, 0xaf, 0xec, 0xbd, 0x69, 0x96, 0x0a, 0xbe, 0x33, 0x5e, 0xa9, 0x3b, 0x17, 0x8e, 0x5b, 0x3c, 0x29, 0x54, 0x94, 0x3c, 0x09, 0x18, 0x61, 0x3d, 0x39, 0x8b, 0x08, 0xbe, 0xc5, 0xaf, 0xd5, 0x3d, 0x70, 0x11, 0xfb, 0x3d, 0x3a, 0xb4, 0x9f, 0xbd, 0x7d, 0xf4, 0x1f, 0x3e, 0x69, 0xaa, 0x1b, 0xbe, 0xb8, 0xf3, 0x38, 0xbe, 0x8d, 0xec, 0xcd, 0xbb, 0xcd, 0x82, 0x98, 0x3d, 0x83, 0x10, 0xe5, 0x3d, 0x8a, 0x06, 0x22, 0x3e, 0x4f, 0x6c, 0xb5, 0x3c, 0x25, 0x33, 0x2f, 0xbe, 0x20, 0x8b, 0xb5, 0x3b, 0xcb, 0x9e, 0x07, 0x3e, 0xf0, 0x68, 0xe4, 0x3d, 0xc9, 0x80, 0x5c, 0x3d, 0xa8, 0xdd, 0x37, 0x3d, 0x76, 0xdc, 0x31, 0xbc, 0xf3, 0x39, 0x83, 0xbd, 0x21, 0x9f, 0xab, 0xbc, 0xf3, 0x81, 0xdd, 0xbc, 0x6a, 0xbc, 0xfc, 0x3d, 0x02, 0x4d, 0x1b, 0xbe, 0x3a, 0x0f, 0x6c, 0xbd, 0x7f, 0x0c, 0x89, 0xbd, 0x55, 0x09, 0x6a, 0xbd, 0x42, 0x5d, 0x7e, 0x3d, 0x55, 0x78, 0xdf, 0x3c, 0xa3, 0x83, 0xb7, 0xbd, 0xe7, 0x9e, 0xa4, 0xbd, 0x6f, 0xc2, 0x82, 0xbd, 0x72, 0x33, 0x1c, 0x3e, 0x68, 0xed, 0x0c, 0xbe, 0x4f, 0x32, 0xce, 0xbd, 0x81, 0xb0, 0x26, 0xbe, 0x43, 0x2e, 0x63, 0xbd, 0x79, 0xfb, 0xa6, 0x3c, 0x3b, 0x8c, 0x8a, 0xbd, 0x35, 0x94, 0x57, 0xbe, 0x67, 0x05, 0xab, 0x3d, 0xbb, 0xf0, 0x73, 0x3d, 0xbd, 0xf9, 0xdf, 0xbc, 0x48, 0xd9, 0x08, 0x3e, 0x1a, 0x1e, 0x73, 0x3d, 0xf1, 0x3a, 0xa3, 0x3d, 0x3c, 0x9f, 0x2d, 0x3e, 0x07, 0xe3, 0xa9, 0xbc, 0x73, 0xd8, 0x3d, 0xbd, 0xa1, 0x74, 0xee, 0xbb, 0x26, 0x17, 0xc5, 0x3d, 0xde, 0x3d, 0x12, 0x3e, 0x89, 0x6c, 0xbd, 0xbb, 0x4e, 0xab, 0xdf, 0xbd, 0xc4, 0x22, 0xc5, 0xba, 0xf2, 0xa2, 0xfe, 0x3d, 0xe8, 0x6d, 0x96, 0x3d, 0x45, 0x37, 0xc2, 0xbd, 0x97, 0x5e, 0x73, 0x3d, 0x4f, 0xa7, 0xf1, 0x3c, 0x1f, 0x03, 0xde, 0x3d, 0xe8, 0x8d, 0xca, 0xbd, 0x8f, 0x43, 0x4f, 0x3e, 0x2b, 0xe4, 0xc3, 0xbd, 0x60, 0xae, 0x60, 0xbc, 0xe6, 0x2d, 0x1b, 0xbd, 0x30, 0xa7, 0x93, 0xbc, 0x2f, 0x36, 0x3c, 0xbd, 0x35, 0x61, 0xb6, 0x3d, 0x59, 0x07, 0xd3, 0xbc, 0xa4, 0xf8, 0x96, 0x3d, 0x99, 0x0b, 0x34, 0x3d, 0x2c, 0xf5, 0x8f, 0x3c, 0x66, 0x24, 0x2e, 0x3d, 0x35, 0xcd, 0xd0, 0x3d, 0x89, 0x41, 0x90, 0x3d, 0x59, 0xb8, 0x17, 0x3e, 0x16, 0xd1, 0x6f, 0x3b, 0xf6, 0x55, 0xaa, 0x3d, 0x87, 0x8e, 0x1b, 0x3d, 0xc7, 0xa1, 0x27, 0x3e, 0x51, 0xca, 0x27, 0xbd, 0x10, 0x69, 0x07, 0x3e, 0x85, 0x56, 0xe3, 0x3c, 0x8e, 0xd7, 0xe4, 0x3c, 0x4f, 0x06, 0xe1, 0x3d, 0xa9, 0x1d, 0x4c, 0x3e, 0x9e, 0xee, 0x12, 0xbe, 0x63, 0x40, 0x6e, 0x3d, 0x3d, 0xc8, 0xa1, 0xbd, 0x9c, 0x20, 0xf4, 0x3d, 0x0d, 0xb5, 0x03, 0xbd, 0xaa, 0xcf, 0xb5, 0x3d, 0x0a, 0x1d, 0x9a, 0xbb, 0x99, 0x54, 0xd2, 0xbd, 0x9d, 0x1d, 0xe8, 0xbd, 0x83, 0xf3, 0x4e, 0x3d, 0x4c, 0xa8, 0xff, 0x3d, 0x08, 0xf7, 0xb5, 0xbd, 0x2d, 0x8f, 0xf4, 0xbc, 0x4c, 0x44, 0xf2, 0xbd, 0xf7, 0x81, 0xce, 0xbd, 0xdb, 0x20, 0x61, 0xbd, 0xf7, 0xc1, 0x4b, 0x3d, 0x0f, 0xc4, 0xde, 0x3c, 0xe4, 0xad, 0x0d, 0xbe, 0x57, 0x16, 0x16, 0xbe, 0xb1, 0xda, 0x11, 0xbe, 0x4c, 0x87, 0x03, 0x3e, 0x45, 0x1f, 0xa4, 0x3d, 0x8f, 0xcb, 0x8d, 0x3d, 0xd5, 0x47, 0xf1, 0xbd, 0x48, 0x33, 0x50, 0xbd, 0x83, 0xfc, 0xe9, 0xbd, 0x17, 0xad, 0xbc, 0xbc, 0xb6, 0xf5, 0x0e, 0x3c, 0xc7, 0xe2, 0x9e, 0xbc, 0x19, 0x81, 0xfc, 0x3d, 0xd2, 0x35, 0x82, 0x3d, 0x6e, 0x78, 0xcb, 0xbd, 0x5a, 0x3d, 0x25, 0x3d, 0x4a, 0x4a, 0x04, 0x3e, 0x46, 0xeb, 0x2a, 0x3d, 0x7b, 0xaf, 0x8c, 0x3d, 0x2d, 0xca, 0x18, 0x3e, 0xf9, 0xb5, 0x2d, 0x3d, 0xbf, 0x46, 0x33, 0x3d, 0xa9, 0x8a, 0xe1, 0x3d, 0x74, 0x85, 0x07, 0xbd, 0x79, 0x97, 0x5e, 0xbd, 0x8f, 0x95, 0xae, 0xbb, 0xa7, 0xaa, 0xb5, 0x3d, 0x44, 0x7a, 0x38, 0x3d, 0x99, 0x6f, 0x14, 0xbc, 0xa6, 0x1e, 0xd6, 0x3c, 0xd4, 0x30, 0x24, 0xbd, 0xc1, 0x33, 0x6d, 0x3c, 0x18, 0xe3, 0x26, 0x3d, 0x87, 0xbb, 0x5a, 0xbc, 0x50, 0x2f, 0x39, 0xbc, 0xb2, 0xab, 0x20, 0xbd, 0x76, 0x82, 0xbb, 0xbd, 0x9d, 0xe8, 0xba, 0xbd, 0x51, 0xdc, 0x98, 0x3c, 0xa3, 0x29, 0x01, 0x3e, 0x9c, 0x6b, 0x72, 0x3c, 0x42, 0xb6, 0xb2, 0x3d, 0x63, 0x20, 0x2a, 0xbd, 0xe1, 0x79, 0x12, 0xbe, 0x9e, 0x05, 0x36, 0x3c, 0x13, 0x5d, 0x60, 0xbd, 0xd3, 0xd9, 0xaf, 0xbd, 0x37, 0x90, 0xfc, 0x3b, 0xb0, 0x1d, 0xdf, 0xbd, 0xdd, 0x2a, 0x3d, 0xbe, 0xfc, 0x7b, 0x71, 0x3d, 0x23, 0x4a, 0x96, 0xbd, 0x3b, 0xeb, 0x64, 0x3a, 0xb1, 0xe9, 0xbf, 0xbb, 0x28, 0x01, 0xd9, 0xbd, 0xef, 0x75, 0x52, 0x3d, 0x57, 0xfd, 0x10, 0x3d, 0x11, 0x8c, 0xa5, 0x3d, 0x1a, 0x6b, 0xea, 0xbc, 0x2c, 0x2c, 0x22, 0xbe, 0xc4, 0xb4, 0x61, 0xbd, 0x97, 0x7e, 0xa5, 0xbd, 0x3d, 0x60, 0xdb, 0x3d, 0x80, 0x3d, 0xfc, 0xbd, 0x48, 0xe9, 0x19, 0xbe, 0x95, 0x2c, 0x96, 0xbd, 0x41, 0x06, 0x72, 0x3d, 0xaa, 0xdb, 0x7a, 0xbd, 0x00, 0x92, 0xb0, 0xbd, 0x50, 0x22, 0x3a, 0xbb, 0xf4, 0x7e, 0x32, 0xbc, 0xca, 0x7e, 0x9e, 0xbd, 0x32, 0x9a, 0x9c, 0x3b, 0x2a, 0x74, 0x02, 0x3c, 0xa1, 0x0e, 0x33, 0xbd, 0x51, 0x64, 0xb3, 0xbd, 0xe4, 0x63, 0x95, 0xbd, 0x87, 0xca, 0xec, 0x3c, 0x04, 0xa7, 0x24, 0xbd, 0xee, 0xb5, 0xd3, 0xbd, 0xfc, 0xff, 0x40, 0xbd, 0x29, 0xc7, 0x9f, 0xbc, 0xfb, 0xdb, 0x31, 0xbe, 0x41, 0xa0, 0x23, 0xbe, 0x7d, 0x60, 0x74, 0x3d, 0xf2, 0xac, 0x8e, 0xbd, 0x2a, 0xc8, 0x0d, 0x3d, 0xd9, 0xca, 0x02, 0x3d, 0x45, 0x73, 0xfb, 0xbd, 0xe8, 0x85, 0xfa, 0xbd, 0x67, 0x60, 0x20, 0xbe, 0x31, 0xee, 0x07, 0x3e, 0xce, 0xe4, 0x02, 0x3e, 0x4d, 0xd8, 0xb1, 0x3d, 0xda, 0xa0, 0xad, 0xbc, 0x04, 0xb8, 0x1b, 0xbe, 0x18, 0x0e, 0xc1, 0xbc, 0xec, 0x92, 0x0e, 0x3e, 0x1f, 0x38, 0xac, 0x3c, 0xd7, 0xac, 0x0a, 0x3e, 0xc1, 0xed, 0x95, 0xbd, 0x93, 0xfc, 0x18, 0xbe, 0x6c, 0x49, 0x07, 0x3e, 0x5b, 0x54, 0x05, 0x3e, 0xc6, 0x64, 0x09, 0x3e, 0xd1, 0x08, 0xc6, 0x3d, 0x4a, 0xfd, 0x05, 0x3d, 0x8e, 0x5f, 0xed, 0xbd, 0x9f, 0xb2, 0x85, 0x3d, 0x07, 0x94, 0x73, 0xbd, 0x98, 0x5c, 0x82, 0x3d, 0x59, 0xb6, 0xb5, 0x3d, 0x31, 0x27, 0x8b, 0x3d, 0xb5, 0xc5, 0xcd, 0x3d, 0x9b, 0xc5, 0x4d, 0x3c, 0x2e, 0x56, 0x0f, 0xbd, 0x75, 0x5f, 0xb8, 0x3d, 0x58, 0xa1, 0x89, 0xbd, 0x49, 0xc0, 0xa3, 0x3d, 0x17, 0xf4, 0xe3, 0xbc, 0xa8, 0x69, 0xe4, 0xbd, 0xd8, 0xf7, 0x35, 0x3d, 0x24, 0x4d, 0xbb, 0x3d, 0x20, 0x9c, 0x90, 0x3d, 0x0f, 0xe1, 0x0b, 0x3c, 0xdf, 0x5c, 0x9f, 0xbd, 0x87, 0x92, 0x22, 0xbd, 0xdf, 0xb7, 0x3e, 0x3d, 0x6e, 0xaf, 0xec, 0x3d, 0xbb, 0x53, 0xe3, 0xbb, 0xfe, 0x3e, 0x0f, 0x3e, 0x65, 0xb0, 0x47, 0xbe, 0x02, 0x6d, 0x21, 0xbe, 0x9f, 0x83, 0x82, 0x3c, 0xd2, 0x33, 0x34, 0x3e, 0x25, 0x8d, 0x60, 0xbd, 0x1a, 0xc7, 0x65, 0xbd, 0x52, 0xcb, 0x00, 0xbe, 0x34, 0xee, 0x37, 0xbe, 0xb8, 0x1c, 0x67, 0xbd, 0x03, 0x30, 0x89, 0x3c, 0x99, 0x81, 0xf7, 0x3c, 0x50, 0x61, 0x88, 0x3d, 0x7c, 0x98, 0x0e, 0xbe, 0x24, 0x6a, 0x2e, 0xbe, 0x01, 0x0b, 0xa3, 0xbd, 0xa8, 0xf4, 0x15, 0xbd, 0x42, 0xcd, 0x88, 0xbb, 0x92, 0x38, 0xf5, 0x3d, 0x45, 0x13, 0xb6, 0xbc, 0xa4, 0x12, 0x7d, 0xbd, 0x24, 0xb7, 0x89, 0xbc, 0x30, 0x00, 0x18, 0x3e, 0xba, 0x3a, 0x84, 0xbd, 0x89, 0x8d, 0x36, 0x3d, 0x37, 0x2d, 0xb4, 0xbd, 0x5d, 0x5a, 0x97, 0xbb, 0x92, 0xfb, 0x34, 0x3d, 0xb8, 0x80, 0x2e, 0x3c, 0x54, 0x52, 0x75, 0x3d, 0x3b, 0x80, 0x77, 0x3d, 0x93, 0x43, 0x88, 0x3c, 0x8b, 0x3d, 0x92, 0xbc, 0x41, 0x7c, 0xf7, 0x3c, 0x6d, 0xec, 0x9a, 0x3d, 0x65, 0xa5, 0x47, 0x3d, 0x52, 0x3d, 0x49, 0xbd, 0x2c, 0x6a, 0x69, 0x3e, 0xe7, 0x91, 0x2a, 0xbd, 0x67, 0xbe, 0xf7, 0xbc, 0xf5, 0x15, 0xb7, 0xbd, 0x98, 0x12, 0x9d, 0xbd, 0x33, 0x5e, 0x33, 0xbc, 0x90, 0xde, 0xfa, 0x3d, 0x25, 0xe2, 0x0e, 0x3e, 0x54, 0x9a, 0xc4, 0x3d, 0xe1, 0xef, 0x5d, 0x3c, 0x22, 0x13, 0xe8, 0x3d, 0x66, 0x64, 0xb1, 0xbd, 0xd0, 0x60, 0x39, 0x3e, 0xf0, 0xd0, 0xa7, 0xbd, 0x50, 0x55, 0x24, 0x3d, 0x23, 0x78, 0xe9, 0x3d, 0x3e, 0x86, 0xd1, 0xbd, 0x08, 0xa4, 0xe3, 0x3b, 0x3e, 0x64, 0x66, 0x3d, 0x8d, 0x10, 0xc7, 0x3c, 0x7e, 0x3e, 0x64, 0xbd, 0xef, 0xab, 0x90, 0xbd, 0x6a, 0x2d, 0xc3, 0xbd, 0x1a, 0xa5, 0xcf, 0xbd, 0x38, 0x8b, 0x62, 0x3e, 0xd8, 0xe2, 0x2c, 0xbc, 0x87, 0xfd, 0x84, 0x3c, 0x1e, 0x35, 0x45, 0x3d, 0xee, 0xcd, 0x84, 0xbc, 0x18, 0x25, 0x26, 0xbd, 0x6f, 0x30, 0xdc, 0x3d, 0x5a, 0x8f, 0x24, 0x3d, 0x4c, 0x10, 0x75, 0x3d, 0x2c, 0x7a, 0x8d, 0xbd, 0x4a, 0x6c, 0xe6, 0xba, 0x83, 0xc7, 0x0f, 0x3d, 0xb4, 0xd2, 0xf7, 0x3d, 0xe2, 0x7c, 0x44, 0xbd, 0x12, 0x9c, 0x5e, 0xbd, 0xeb, 0xbe, 0x94, 0xbd, 0x0c, 0x8e, 0x67, 0x3d, 0xa6, 0xad, 0xae, 0xbd, 0xbb, 0xb9, 0xe6, 0x3d, 0xf2, 0x98, 0xe5, 0xbd, 0x2c, 0x01, 0x92, 0xbd, 0x82, 0xdf, 0xee, 0xbc, 0xf9, 0xb7, 0xa4, 0x3a, 0xaa, 0x1b, 0x95, 0x3b, 0xe7, 0xfc, 0xa0, 0x3d, 0xfb, 0xce, 0x96, 0xbd, 0xbe, 0xe3, 0x50, 0x3c, 0xf0, 0xbe, 0xef, 0x3d, 0x9a, 0xc0, 0x79, 0x3d, 0xb5, 0x43, 0x7f, 0x3d, 0x36, 0x48, 0xd5, 0x3d, 0x34, 0xd6, 0xe5, 0x3d, 0x2f, 0x7c, 0x93, 0xbc, 0x22, 0x55, 0xce, 0x3c, 0xf0, 0x1f, 0x8d, 0x3d, 0x83, 0x9f, 0xaa, 0xbd, 0x89, 0x1c, 0x26, 0xbe, 0xe1, 0xaf, 0x68, 0xbd, 0x78, 0x17, 0x21, 0xbd, 0x8d, 0x53, 0x89, 0x3c, 0x7c, 0x0b, 0x0f, 0x3e, 0x47, 0x50, 0xbf, 0xbd, 0xea, 0x5e, 0xe0, 0xbd, 0xbf, 0x93, 0xd6, 0xbb, 0xc9, 0x54, 0x1c, 0xbe, 0xfc, 0xc5, 0xc0, 0xbc, 0x21, 0x7a, 0x2c, 0x3e, 0x89, 0x70, 0x97, 0xbd, 0x61, 0xeb, 0x2b, 0xbe, 0x0c, 0xce, 0x43, 0x3e, 0x0a, 0x5b, 0x12, 0xbe, 0x96, 0x7c, 0x17, 0x3d, 0xab, 0x4c, 0xac, 0x3d, 0x23, 0x3e, 0xe6, 0xbd, 0xa1, 0x82, 0x2c, 0xbe, 0x2c, 0xde, 0x11, 0x3d, 0xe4, 0x86, 0x87, 0xbd, 0xce, 0x86, 0x87, 0x3d, 0x9f, 0x5a, 0xf1, 0x38, 0x7a, 0xd0, 0xc3, 0xbd, 0x62, 0xeb, 0xf8, 0xbd, 0x83, 0x00, 0x47, 0x3e, 0xed, 0x2b, 0x6c, 0x3c, 0xc2, 0x3d, 0xda, 0xbb, 0x1e, 0x45, 0x12, 0x3c, 0xd3, 0xbf, 0x06, 0xbe, 0xdf, 0xa7, 0x9e, 0xbd, 0x41, 0x29, 0x2f, 0x3e, 0xe7, 0x1a, 0x95, 0xbd, 0x9c, 0x4f, 0xc8, 0x3c, 0x50, 0x32, 0xf3, 0x3d, 0x2f, 0x79, 0x12, 0xbd, 0xf7, 0x6a, 0xcc, 0xbd, 0x2f, 0x26, 0x81, 0x3e, 0xd9, 0x76, 0x04, 0x3c, 0x3d, 0x75, 0xdc, 0xbb, 0x23, 0x68, 0xa7, 0xbb, 0x9f, 0x1b, 0xad, 0xbc, 0xa6, 0x50, 0x5e, 0xbd, 0xb4, 0x0a, 0x81, 0x3e, 0xbe, 0xca, 0x97, 0xbd, 0x7b, 0x25, 0x05, 0x3d, 0x1b, 0xdd, 0x11, 0x3e, 0x13, 0xcd, 0xb1, 0xbd, 0xda, 0xad, 0x1f, 0xbe, 0xbf, 0xe0, 0x32, 0x3e, 0xac, 0xca, 0xf2, 0xbd, 0x6b, 0x0e, 0xde, 0xbd, 0xe3, 0xa4, 0x15, 0x3e, 0x6f, 0x8f, 0x8e, 0xbd, 0x20, 0x9a, 0xcd, 0xbc, 0x1f, 0x9d, 0xf0, 0xbb, 0x03, 0xa0, 0xb8, 0xbd, 0x78, 0xee, 0x81, 0xbd, 0x42, 0x2e, 0xd6, 0x3d, 0xe6, 0xf6, 0xff, 0xff, 0x04, 0x00, 0x00, 0x00, 0x34, 0x08, 0x00, 0x00, 0x2c, 0x64, 0xfa, 0x3b, 0x75, 0xe7, 0xec, 0x3d, 0x25, 0x75, 0x3d, 0xbd, 0x60, 0x89, 0x2d, 0x3e, 0x89, 0x5d, 0x90, 0xbb, 0x00, 0x76, 0x20, 0xbe, 0xa8, 0x6b, 0x81, 0x3d, 0xef, 0x1a, 0x0b, 0xbe, 0x36, 0x2e, 0x46, 0x3e, 0x28, 0xe8, 0xe8, 0x3d, 0x17, 0x45, 0x23, 0xbd, 0x61, 0xff, 0xb5, 0xbc, 0x1d, 0x7f, 0x36, 0xbe, 0x47, 0x41, 0xc6, 0x3c, 0x6b, 0x10, 0xcd, 0x3d, 0xf0, 0x82, 0xcd, 0xba, 0xe8, 0xce, 0xcb, 0x3d, 0x22, 0x40, 0x1f, 0xbd, 0x5b, 0xe2, 0x10, 0x3e, 0x90, 0x58, 0x5a, 0xbe, 0x93, 0x68, 0xc8, 0xbd, 0x2f, 0xcc, 0xba, 0xbd, 0x7d, 0x1e, 0xa1, 0xbd, 0xb8, 0x63, 0xde, 0x3d, 0xc1, 0x81, 0xfc, 0x3c, 0x34, 0x41, 0xe4, 0x3d, 0x0f, 0x7e, 0x4f, 0xbe, 0xca, 0xde, 0x2c, 0xbe, 0xbc, 0x43, 0x03, 0x3e, 0xed, 0xd8, 0x45, 0x3d, 0x12, 0xf8, 0x59, 0xbe, 0x1a, 0xf7, 0xe8, 0xbd, 0x46, 0x8c, 0xb5, 0x3d, 0x9f, 0x9c, 0x92, 0xbd, 0x95, 0x6a, 0xc2, 0xbd, 0x6e, 0x31, 0x8e, 0xbd, 0xf4, 0xe2, 0xac, 0x3c, 0x5b, 0xaa, 0x00, 0xbd, 0xd3, 0x15, 0xd9, 0xbd, 0x6b, 0x1d, 0xa7, 0x3d, 0x76, 0x0f, 0xe7, 0xbd, 0x88, 0xf1, 0xb3, 0x3c, 0x45, 0x4b, 0x05, 0x3e, 0xdd, 0x40, 0xf1, 0x3d, 0x94, 0x65, 0x31, 0x3e, 0x2f, 0xb4, 0xfe, 0xbd, 0xff, 0x18, 0xb7, 0x3c, 0x67, 0xef, 0xd7, 0xbd, 0x5e, 0x21, 0x71, 0x3e, 0x63, 0x72, 0x0e, 0xbd, 0x15, 0x0a, 0x21, 0x3e, 0x2f, 0x38, 0x4a, 0x3e, 0x60, 0x78, 0xce, 0x3d, 0x91, 0x4d, 0xf4, 0x3d, 0x7a, 0x4a, 0x9f, 0x3d, 0x85, 0x2e, 0x1f, 0x3e, 0x25, 0x09, 0x6f, 0x3e, 0x75, 0xf8, 0x15, 0xbd, 0x18, 0x5c, 0x19, 0x3e, 0xdf, 0xb7, 0x9d, 0x3d, 0x56, 0x09, 0x73, 0x3e, 0xcb, 0x64, 0xb6, 0xbd, 0xff, 0x45, 0x2d, 0xbe, 0x94, 0x91, 0x20, 0xbe, 0xe1, 0xc7, 0xc9, 0x3c, 0x30, 0xa7, 0xc7, 0x3d, 0x08, 0x77, 0x01, 0x3e, 0x85, 0x07, 0x1e, 0x3c, 0x5d, 0xf6, 0xbd, 0xbd, 0x3f, 0x69, 0x00, 0xbe, 0x3b, 0x1d, 0x41, 0x3d, 0xe5, 0x53, 0x02, 0xbd, 0x67, 0x1f, 0xad, 0xbd, 0x57, 0xfc, 0xae, 0x3d, 0x92, 0x5b, 0xb1, 0xbd, 0xe2, 0x0f, 0xc2, 0xbb, 0x0a, 0x3b, 0x06, 0xbe, 0xbd, 0x73, 0x46, 0xbd, 0x95, 0xd0, 0x5e, 0xbe, 0x85, 0x0a, 0x14, 0x3e, 0x1a, 0x1a, 0x18, 0xbd, 0xf3, 0x4f, 0xe1, 0x3d, 0x59, 0xf4, 0x4e, 0xbe, 0xc4, 0xaa, 0xcc, 0xbc, 0xdc, 0xb2, 0x94, 0x3e, 0x08, 0xd3, 0x06, 0xbd, 0xe8, 0xd6, 0x4b, 0x3e, 0x77, 0x22, 0x02, 0x3d, 0x9b, 0xc3, 0x08, 0xbd, 0xa3, 0xbe, 0xbf, 0xbd, 0xcd, 0x7c, 0x33, 0xbe, 0xbe, 0x67, 0x37, 0x3e, 0xe3, 0xcc, 0x5e, 0xbe, 0x1d, 0x9d, 0x4d, 0x3d, 0x1c, 0xca, 0x18, 0xbd, 0x05, 0xbb, 0xde, 0xbd, 0x85, 0x95, 0xbb, 0x3c, 0x1e, 0x35, 0x0d, 0xbc, 0xe3, 0x2d, 0xca, 0xbc, 0x1a, 0x17, 0xe1, 0xbd, 0x15, 0x12, 0x0a, 0xbd, 0x9f, 0x7f, 0x6b, 0xbe, 0x6d, 0x4f, 0x2a, 0x3e, 0xcb, 0x85, 0x2c, 0xbe, 0xe3, 0x70, 0x53, 0x3d, 0x3b, 0x57, 0x89, 0x3e, 0x0e, 0xf7, 0x9d, 0xbc, 0x4b, 0x3d, 0x20, 0xbd, 0x72, 0xee, 0xe8, 0xbd, 0x35, 0xd1, 0x18, 0xbe, 0xc3, 0x3c, 0x68, 0xbe, 0x5d, 0x7e, 0xd4, 0x3d, 0xb1, 0x44, 0xaf, 0xbd, 0x12, 0x08, 0x11, 0xbe, 0x1b, 0x5b, 0xcb, 0xbd, 0xe9, 0xe7, 0x95, 0x3d, 0x58, 0xcf, 0x68, 0xbd, 0xf0, 0x78, 0x3b, 0xbe, 0x55, 0x3d, 0x4c, 0x3e, 0x18, 0xb7, 0x6e, 0x3e, 0x9f, 0x7c, 0x0b, 0x3e, 0x94, 0x7d, 0x72, 0xbd, 0x5b, 0xb9, 0x65, 0x3e, 0x69, 0xf3, 0x9a, 0xbd, 0x41, 0xa2, 0xfb, 0xbd, 0x63, 0x7f, 0x53, 0x3e, 0x40, 0xc1, 0xbf, 0x3d, 0x6f, 0x1f, 0x26, 0x3c, 0x2b, 0x59, 0x0f, 0x3e, 0x99, 0x86, 0xf7, 0x3d, 0x40, 0x68, 0x26, 0x3e, 0x21, 0x74, 0x32, 0x3e, 0x29, 0x4d, 0xea, 0x3d, 0x13, 0x32, 0x38, 0x3e, 0x51, 0x46, 0x18, 0xbe, 0xa4, 0x1a, 0x95, 0xbd, 0xcd, 0xe9, 0x4b, 0xbd, 0x5f, 0x30, 0x5b, 0x3e, 0xc4, 0xe7, 0x8f, 0xbd, 0xad, 0x54, 0x69, 0x3e, 0x31, 0x63, 0x20, 0xbe, 0x37, 0xf5, 0x8e, 0x3b, 0x25, 0xef, 0x31, 0xbe, 0xb8, 0xa6, 0x12, 0xbe, 0x12, 0x85, 0x4b, 0x3d, 0xd2, 0x37, 0x32, 0x3b, 0xaf, 0xaa, 0xeb, 0xbd, 0xa1, 0x3b, 0x52, 0xbd, 0xae, 0x08, 0x6c, 0xbe, 0x58, 0x4b, 0xe2, 0x3d, 0x9f, 0x21, 0x01, 0xbe, 0x15, 0x0b, 0x08, 0xbe, 0xd3, 0x4b, 0x38, 0xbd, 0x8c, 0x7d, 0x22, 0x3e, 0x75, 0x3b, 0x06, 0xbe, 0xf3, 0xd9, 0xa2, 0x3d, 0x85, 0xc0, 0xc7, 0x3b, 0x0d, 0x5d, 0xce, 0xbb, 0x98, 0x1d, 0x3c, 0xbe, 0xa6, 0x90, 0x99, 0x3d, 0x89, 0x4e, 0xd0, 0xbd, 0x10, 0x0b, 0x0d, 0x3d, 0xfc, 0x96, 0x93, 0xbd, 0xd0, 0xf4, 0x59, 0xbe, 0xe4, 0x51, 0x0d, 0xbd, 0x6d, 0xe4, 0x83, 0xbe, 0xb0, 0xe7, 0x36, 0xbe, 0xa9, 0x83, 0xc9, 0xbc, 0xf0, 0xe9, 0x00, 0xbe, 0x40, 0x99, 0x99, 0xbd, 0x11, 0xb3, 0x0c, 0x3e, 0xbd, 0x7e, 0x1e, 0xbe, 0x67, 0xbb, 0x6a, 0x3d, 0x30, 0x2e, 0x55, 0xbd, 0xac, 0xb9, 0x6b, 0xbd, 0xe7, 0x42, 0x0c, 0xbe, 0x23, 0x48, 0x19, 0xbe, 0x32, 0x65, 0x09, 0x3e, 0x9a, 0xd7, 0x66, 0x3d, 0x97, 0x15, 0x6c, 0xbc, 0x03, 0x48, 0x8a, 0x3c, 0xe1, 0xb3, 0xea, 0x3b, 0xd7, 0x7c, 0xaf, 0x3d, 0x64, 0x46, 0xfb, 0xbd, 0x9b, 0xbf, 0xb5, 0x3d, 0x4b, 0x0a, 0x85, 0x3e, 0x14, 0x9b, 0xc4, 0x3d, 0x30, 0x78, 0xdf, 0xbd, 0x18, 0xd3, 0x09, 0x3c, 0x81, 0x0d, 0xf1, 0xbb, 0x80, 0x48, 0x6e, 0x3d, 0x57, 0xdd, 0xf2, 0x3d, 0x78, 0xbb, 0x20, 0x3e, 0xc4, 0x6e, 0x77, 0xbd, 0x3d, 0x46, 0xe8, 0xbd, 0x44, 0x63, 0x02, 0xbd, 0x8e, 0x65, 0xb1, 0x3b, 0xb7, 0xc6, 0xdb, 0x3d, 0xf6, 0x8e, 0x04, 0xbe, 0xb5, 0xbe, 0x3e, 0x3e, 0xde, 0x4f, 0x63, 0xbd, 0x47, 0x13, 0x0c, 0x3e, 0x36, 0x11, 0x00, 0x3e, 0x5c, 0x0b, 0x78, 0xbd, 0xe8, 0xb6, 0x37, 0xbe, 0x12, 0x62, 0x7c, 0x3e, 0xcd, 0x99, 0x76, 0x3e, 0xce, 0xbc, 0xf6, 0x3c, 0xb4, 0xcc, 0xdb, 0xbd, 0x0a, 0x3d, 0x70, 0x3d, 0x60, 0x72, 0x33, 0xbe, 0x08, 0x0a, 0xd1, 0xbd, 0x3b, 0x0a, 0xa5, 0x3d, 0xf5, 0x22, 0x47, 0x3e, 0x2f, 0xf0, 0x49, 0x3a, 0xa7, 0x0c, 0x4d, 0x3e, 0xa9, 0x5b, 0x3f, 0x3b, 0x6e, 0xcf, 0xec, 0xbd, 0xf3, 0xac, 0x2b, 0xbe, 0xa6, 0x72, 0x2b, 0xbe, 0x2a, 0xd1, 0x10, 0x3e, 0xf8, 0x33, 0x07, 0x3e, 0x9c, 0x60, 0xe8, 0x3d, 0x75, 0x95, 0x6c, 0x3d, 0xaf, 0xce, 0x8c, 0xbd, 0x5c, 0x11, 0x3b, 0x3d, 0xb7, 0xca, 0xb2, 0xbd, 0xe2, 0xbd, 0x3c, 0x3d, 0xd4, 0x97, 0xab, 0xbd, 0x92, 0x1a, 0x9f, 0x3d, 0x28, 0xa5, 0x96, 0xbd, 0xa5, 0x81, 0x27, 0xbe, 0xdb, 0xa7, 0xcc, 0x3c, 0x2d, 0x69, 0x81, 0xbe, 0x11, 0xf6, 0xc1, 0xbc, 0x37, 0x36, 0x7d, 0xbe, 0xfe, 0x86, 0x03, 0x3d, 0x8f, 0xc5, 0x18, 0xbe, 0x4d, 0xf9, 0xc4, 0x3d, 0xf3, 0x78, 0xc4, 0xbd, 0x58, 0x7e, 0x96, 0x3a, 0x18, 0x36, 0x4c, 0x3c, 0x81, 0x02, 0x2f, 0xbd, 0xf3, 0xdf, 0x99, 0x3d, 0xa0, 0x19, 0x88, 0x3d, 0xb9, 0xa5, 0x21, 0xbd, 0x3b, 0x23, 0x29, 0xbd, 0xbf, 0x71, 0x2e, 0xbe, 0x56, 0x48, 0x7e, 0xbd, 0xd0, 0x79, 0x94, 0x3d, 0x73, 0x95, 0x17, 0x3e, 0xaa, 0x4b, 0x33, 0x3e, 0xd9, 0x5e, 0xa4, 0x3d, 0x27, 0x2a, 0xab, 0x3d, 0x15, 0xf7, 0x09, 0xbe, 0x32, 0xdf, 0x06, 0x3e, 0x37, 0x71, 0x75, 0x3e, 0x72, 0xa3, 0x83, 0x3d, 0xad, 0x55, 0x00, 0xbd, 0x39, 0x46, 0x3b, 0x3d, 0x9e, 0x32, 0xeb, 0x3d, 0x30, 0x8f, 0x80, 0xbe, 0xfc, 0x1c, 0x11, 0x3e, 0xed, 0x2c, 0x30, 0xbe, 0x7d, 0x0d, 0xd3, 0x3c, 0x4e, 0x3b, 0x99, 0xbd, 0x3c, 0x59, 0x51, 0xbe, 0x3c, 0x57, 0xa2, 0x3d, 0x8f, 0x2d, 0x40, 0x3d, 0x3f, 0x14, 0x13, 0x3e, 0x6b, 0x26, 0xad, 0xbc, 0xff, 0x67, 0x55, 0x3e, 0x4c, 0x90, 0xd6, 0x3c, 0x15, 0x0e, 0xf9, 0x3c, 0xe0, 0xe4, 0x3d, 0xbe, 0xe1, 0x3f, 0x1c, 0xbe, 0xfe, 0x12, 0xd0, 0xbc, 0x9f, 0x83, 0xda, 0xbd, 0x57, 0x81, 0xf0, 0xbc, 0xa1, 0x62, 0x4e, 0x3e, 0x31, 0x41, 0x5f, 0xbe, 0xb6, 0xe1, 0x6d, 0xbd, 0x9d, 0xf2, 0x9d, 0x3d, 0x3c, 0xf8, 0x01, 0x3e, 0xec, 0x2f, 0x29, 0x3e, 0x58, 0x81, 0x54, 0x3d, 0xe5, 0x04, 0x22, 0x3e, 0x2d, 0x6d, 0x3e, 0xbe, 0x73, 0x1e, 0xb0, 0x3d, 0x3c, 0x77, 0x50, 0xbe, 0x1a, 0x0a, 0x58, 0xbe, 0x88, 0x97, 0x71, 0xbe, 0x65, 0x78, 0xfa, 0x3d, 0x56, 0x9a, 0xb9, 0xbd, 0xe1, 0xfe, 0xd0, 0x3b, 0x2b, 0xa0, 0x2e, 0x3e, 0xa8, 0x36, 0xf3, 0x3b, 0x74, 0x04, 0xbc, 0xbd, 0xb1, 0x18, 0x20, 0xbe, 0x0b, 0xa0, 0x23, 0x3e, 0x28, 0x24, 0x03, 0x3e, 0x4a, 0x48, 0x01, 0xbe, 0x06, 0x9c, 0x06, 0xbd, 0x38, 0x56, 0x99, 0xbc, 0x16, 0xa2, 0xbe, 0xbd, 0x31, 0xd5, 0xb7, 0xbd, 0xe9, 0x7b, 0x47, 0x3e, 0xa8, 0xeb, 0x49, 0xbe, 0x5e, 0xb7, 0x15, 0x3e, 0xc0, 0x94, 0xa4, 0x3d, 0x06, 0x3f, 0xd6, 0x3c, 0xf6, 0x9e, 0xa2, 0xbb, 0x55, 0x69, 0x7a, 0x3d, 0xbe, 0xbd, 0x0a, 0xbd, 0xe7, 0x41, 0xba, 0x3d, 0xe5, 0xc8, 0x5d, 0x3e, 0x26, 0x3b, 0x21, 0xbc, 0xb9, 0x48, 0x18, 0xbd, 0x1f, 0x20, 0x5c, 0x3b, 0x38, 0x31, 0x47, 0xbe, 0xf9, 0xbb, 0xae, 0xbd, 0x04, 0xcb, 0xeb, 0x3d, 0xf6, 0x69, 0x80, 0xbd, 0x04, 0xc7, 0x61, 0x3e, 0x60, 0x4e, 0x53, 0x3d, 0x6e, 0x64, 0x37, 0xbd, 0x75, 0x68, 0x3e, 0x3d, 0x98, 0x0a, 0x45, 0x3e, 0x80, 0x5c, 0xda, 0xbc, 0xad, 0xf0, 0x6e, 0xbd, 0xed, 0x73, 0xac, 0xbd, 0xce, 0xf3, 0x7f, 0x3d, 0x79, 0x81, 0xd9, 0xbd, 0x0e, 0xb9, 0x1d, 0x3e, 0xdf, 0x23, 0x7f, 0xbd, 0xd2, 0x36, 0x97, 0xbd, 0x86, 0x12, 0x55, 0xbe, 0x7f, 0x55, 0xb9, 0xbd, 0x26, 0x0f, 0x85, 0x3d, 0x08, 0xf1, 0x5e, 0xbd, 0x18, 0x9e, 0x44, 0x3e, 0x54, 0xd7, 0xd7, 0xbc, 0x3d, 0xb9, 0xd7, 0x3d, 0x02, 0xd3, 0xd9, 0xbd, 0x30, 0x8e, 0x22, 0x3d, 0x0b, 0xfa, 0xaa, 0x3d, 0x0f, 0xa6, 0xd3, 0x3d, 0x02, 0x9f, 0x17, 0xbd, 0xe1, 0xc2, 0xee, 0x3d, 0x3b, 0xcc, 0x27, 0xbd, 0x6b, 0x33, 0x82, 0xbe, 0x6f, 0xde, 0x62, 0x3e, 0x4c, 0x77, 0x84, 0x3b, 0x17, 0xed, 0x8f, 0xbe, 0x90, 0x6d, 0x5d, 0x3d, 0x89, 0x6b, 0x11, 0x3e, 0x4f, 0x6d, 0x72, 0xbe, 0x30, 0x64, 0xfb, 0xbd, 0x00, 0x87, 0x20, 0xbd, 0x25, 0x8a, 0x03, 0x3d, 0x94, 0x8b, 0x4a, 0xbe, 0xca, 0x8f, 0x76, 0x3c, 0x9b, 0x8e, 0x7c, 0x3e, 0x48, 0x0d, 0x36, 0xbe, 0x04, 0xb6, 0x1b, 0xbe, 0xed, 0xc3, 0xa2, 0xbd, 0xfc, 0x28, 0x41, 0xbe, 0x0e, 0x08, 0x82, 0xbe, 0x36, 0x7c, 0x5a, 0xbe, 0x4f, 0x12, 0xbf, 0xbc, 0xf0, 0x13, 0x6f, 0x3d, 0x9e, 0x20, 0x57, 0xbe, 0x41, 0x75, 0x6d, 0xbd, 0x9f, 0xa4, 0x77, 0xbc, 0x1a, 0x42, 0x0f, 0xbe, 0xe0, 0x62, 0xd5, 0x3c, 0x55, 0xc4, 0x51, 0xbd, 0xb5, 0xf0, 0xbc, 0xbd, 0xfa, 0xf9, 0x24, 0xbd, 0x66, 0x02, 0x2c, 0x3d, 0x93, 0x11, 0x33, 0x3e, 0x36, 0xcb, 0x79, 0xbe, 0x92, 0x8c, 0x86, 0xbe, 0x04, 0xaa, 0x97, 0x39, 0x9f, 0xac, 0x00, 0x3d, 0xbb, 0x2b, 0x6e, 0xbe, 0x7c, 0xa2, 0xd0, 0x3d, 0x5c, 0x0e, 0x54, 0xbd, 0xde, 0xd8, 0x99, 0x3c, 0x21, 0xb8, 0x2d, 0x3d, 0x38, 0xcd, 0x4a, 0x3d, 0x6e, 0xb0, 0x18, 0xbe, 0xa5, 0xef, 0x62, 0xbd, 0x6b, 0x5d, 0xe2, 0x3d, 0x39, 0x41, 0xf8, 0x3c, 0xe2, 0x40, 0x01, 0xbe, 0x04, 0x37, 0x79, 0x3d, 0x4f, 0xe2, 0x67, 0x3e, 0x9c, 0xf1, 0xd2, 0x3d, 0x80, 0x35, 0xc7, 0x3d, 0x2d, 0x02, 0x0a, 0xbd, 0x7b, 0x5f, 0x44, 0x3e, 0xda, 0x52, 0xd6, 0x3d, 0xb0, 0xbf, 0x88, 0xbd, 0x8f, 0x3a, 0x34, 0x3d, 0x33, 0xa6, 0xce, 0xbc, 0x7f, 0xe9, 0x7a, 0x3c, 0x9b, 0xd7, 0x66, 0x3d, 0x73, 0x3c, 0x9b, 0xbd, 0x9b, 0xca, 0xe8, 0x3d, 0xa9, 0xf8, 0xd6, 0x3d, 0x81, 0xd6, 0x4f, 0x3d, 0xc8, 0x8f, 0xf1, 0x3d, 0x5f, 0x56, 0x5a, 0xbc, 0xfd, 0x71, 0xa1, 0xbd, 0x83, 0x8a, 0xdc, 0xbd, 0x15, 0xa6, 0x4f, 0x3d, 0x82, 0x93, 0x3b, 0xbd, 0xa7, 0xee, 0x48, 0xbe, 0xe3, 0xe0, 0x42, 0x3e, 0x06, 0x48, 0xea, 0x3d, 0x3e, 0x15, 0x52, 0x3d, 0xa0, 0x66, 0x38, 0x3e, 0x54, 0xfb, 0xf5, 0x3d, 0x7e, 0xff, 0x26, 0xbe, 0x60, 0xe1, 0x78, 0xbb, 0x05, 0x80, 0xd0, 0xbd, 0x95, 0xce, 0xf5, 0x3c, 0xd5, 0x95, 0x55, 0x3e, 0x5e, 0x4c, 0x11, 0x3e, 0xbd, 0xf1, 0x6c, 0xbe, 0x20, 0x0c, 0x32, 0xbe, 0xe4, 0x48, 0x44, 0xbe, 0x40, 0xce, 0x06, 0xbe, 0x31, 0x40, 0x2a, 0xbe, 0xf5, 0xc5, 0x15, 0xbc, 0x3e, 0x57, 0x52, 0x3d, 0xb3, 0x7d, 0xad, 0xbd, 0xd4, 0xae, 0x7a, 0x3e, 0x65, 0xb2, 0x6e, 0xbe, 0x3a, 0x7c, 0x92, 0x3d, 0x75, 0x2b, 0xd7, 0x3c, 0xdb, 0x78, 0x5b, 0x3e, 0x58, 0xc5, 0xd6, 0x3b, 0x4f, 0xcb, 0x35, 0x3e, 0xa1, 0xfa, 0x37, 0xbe, 0x4f, 0x53, 0xe2, 0x3c, 0x9e, 0x69, 0xd6, 0xbd, 0x83, 0xbc, 0xbf, 0x3d, 0xe6, 0x43, 0x1f, 0x3d, 0xd4, 0x45, 0x37, 0x3e, 0xe3, 0x58, 0x22, 0x3e, 0x8f, 0x44, 0xd9, 0x3d, 0xd4, 0xbb, 0xc9, 0xbd, 0x59, 0xe7, 0x07, 0xbe, 0xb1, 0xdc, 0xcd, 0xbd, 0x70, 0x28, 0xa1, 0x3d, 0xa3, 0x90, 0x78, 0x3e, 0xbf, 0x24, 0x26, 0x3e, 0x63, 0xd2, 0x4c, 0x3c, 0x41, 0x2e, 0x4e, 0xbc, 0xb5, 0x2c, 0xcd, 0xbd, 0x04, 0x8a, 0x9c, 0x3d, 0x4e, 0x01, 0x9c, 0x3c, 0xbe, 0x34, 0xa1, 0x3b, 0x8e, 0xf1, 0xf0, 0x3d, 0x8c, 0x34, 0xef, 0x3d, 0xfd, 0x06, 0xba, 0x3d, 0x44, 0xfb, 0x28, 0xbe, 0x73, 0xbc, 0x33, 0xbe, 0xce, 0x0b, 0xf6, 0xbd, 0x67, 0xe1, 0x1e, 0x3c, 0x2b, 0xba, 0x06, 0xbe, 0xe8, 0x34, 0x69, 0x3c, 0xef, 0x32, 0x10, 0x3e, 0x61, 0x1c, 0x26, 0xbe, 0x37, 0x1d, 0xf3, 0xbd, 0x80, 0xea, 0x19, 0x3e, 0x32, 0x75, 0x6e, 0x3e, 0xb2, 0xa6, 0x25, 0x3d, 0x61, 0xeb, 0xa0, 0xbd, 0x8a, 0xb6, 0x8d, 0xbd, 0xab, 0x7b, 0x20, 0xbe, 0xf6, 0x8c, 0x02, 0x3d, 0x4a, 0x79, 0x96, 0xbd, 0x55, 0x17, 0x0e, 0x3e, 0xa6, 0x62, 0x18, 0xbe, 0xe5, 0x48, 0x0d, 0x3e, 0xaf, 0x32, 0x66, 0x3d, 0xdd, 0x6a, 0x2e, 0x3d, 0x79, 0x3e, 0x77, 0xbe, 0xf1, 0x20, 0xaa, 0xbb, 0x4e, 0xdb, 0xf1, 0x3d, 0x4c, 0x42, 0xfd, 0x3d, 0xbe, 0x1d, 0xba, 0xbd, 0x8b, 0x6c, 0x5e, 0xbe, 0xaa, 0x33, 0xef, 0xbc, 0x08, 0x11, 0x4b, 0xbe, 0x9c, 0xe2, 0xc8, 0xbb, 0x9a, 0x12, 0xcf, 0x3d, 0x0c, 0x08, 0x0a, 0x3e, 0x6f, 0x07, 0x44, 0xbc, 0xd3, 0x49, 0x0e, 0x3d, 0x4b, 0x78, 0x47, 0xbe, 0x7a, 0x8a, 0xbd, 0xbd, 0x1e, 0xeb, 0x3f, 0x3d, 0xa7, 0x32, 0x00, 0x3d, 0xe1, 0x34, 0x9b, 0xbd, 0xc4, 0x1f, 0xf6, 0xbd, 0x64, 0xf3, 0x1e, 0xbe, 0x0a, 0x7d, 0x80, 0xbe, 0x28, 0xe1, 0x10, 0xbe, 0x05, 0x3a, 0x87, 0xbe, 0xfd, 0xa6, 0x2d, 0x3d, 0x4b, 0xf4, 0x00, 0x3e, 0x1f, 0x27, 0x75, 0x3e, 0x0d, 0x65, 0x58, 0xbe, 0xd6, 0xb1, 0xa1, 0xbd, 0xdf, 0x92, 0xe3, 0x3c, 0xe2, 0x53, 0x91, 0x3d, 0xc6, 0x55, 0x3d, 0x3d, 0x97, 0xcd, 0x37, 0x3e, 0x0b, 0x11, 0x62, 0x3e, 0xd1, 0x83, 0xc4, 0x3d, 0x7a, 0xaf, 0xa3, 0xbc, 0x26, 0xff, 0xff, 0xff, 0x04, 0x00, 0x00, 0x00, 0x08, 0x00, 0x00, 0x00, 0xff, 0xff, 0xff, 0xff, 0xaf, 0x00, 0x00, 0x00, 0x3a, 0xff, 0xff, 0xff, 0x04, 0x00, 0x00, 0x00, 0x1c, 0x00, 0x00, 0x00, 0x64, 0xbc, 0xe2, 0x3c, 0x1e, 0x28, 0xf3, 0x3d, 0xc6, 0x27, 0xd2, 0x3d, 0xd6, 0x19, 0xae, 0x3d, 0x43, 0x2a, 0x4c, 0x3c, 0x46, 0x3b, 0xb6, 0x3c, 0xc3, 0x64, 0x2b, 0x3d, 0x62, 0xff, 0xff, 0xff, 0x04, 0x00, 0x00, 0x00, 0x0c, 0x00, 0x00, 0x00, 0x12, 0xf7, 0x61, 0xbd, 0xf9, 0x0d, 0x71, 0xbd, 0xb0, 0xf6, 0xa2, 0x3d, 0xb4, 0xfa, 0xff, 0xff, 0xb8, 0xfa, 0xff, 0xff, 0x0f, 0x00, 0x00, 0x00, 0x4d, 0x4c, 0x49, 0x52, 0x20, 0x43, 0x6f, 0x6e, 0x76, 0x65, 0x72, 0x74, 0x65, 0x64, 0x2e, 0x00, 0x01, 0x00, 0x00, 0x00, 0x14, 0x00, 0x00, 0x00, 0x00, 0x00, 0x0e, 0x00, 0x18, 0x00, 0x14, 0x00, 0x10, 0x00, 0x0c, 0x00, 0x08, 0x00, 0x04, 0x00, 0x0e, 0x00, 0x00, 0x00, 0x14, 0x00, 0x00, 0x00, 0x1c, 0x00, 0x00, 0x00, 0x34, 0x01, 0x00, 0x00, 0x38, 0x01, 0x00, 0x00, 0x3c, 0x01, 0x00, 0x00, 0x04, 0x00, 0x00, 0x00, 0x6d, 0x61, 0x69, 0x6e, 0x00, 0x00, 0x00, 0x00, 0x04, 0x00, 0x00, 0x00, 0xcc, 0x00, 0x00, 0x00, 0x94, 0x00, 0x00, 0x00, 0x50, 0x00, 0x00, 0x00, 0x04, 0x00, 0x00, 0x00, 0xc6, 0xff, 0xff, 0xff, 0x1c, 0x00, 0x00, 0x00, 0x00, 0x00, 0x00, 0x09, 0x1c, 0x00, 0x00, 0x00, 0x20, 0x00, 0x00, 0x00, 0x03, 0x00, 0x00, 0x00, 0x00, 0x00, 0x06, 0x00, 0x08, 0x00, 0x04, 0x00, 0x06, 0x00, 0x00, 0x00, 0x00, 0x00, 0x80, 0x3f, 0x01, 0x00, 0x00, 0x00, 0x09, 0x00, 0x00, 0x00, 0x01, 0x00, 0x00, 0x00, 0x08, 0x00, 0x00, 0x00, 0x00, 0x00, 0x0e, 0x00, 0x18, 0x00, 0x14, 0x00, 0x10, 0x00, 0x0c, 0x00, 0x0b, 0x00, 0x04, 0x00, 0x0e, 0x00, 0x00, 0x00, 0x14, 0x00, 0x00, 0x00, 0x00, 0x00, 0x00, 0x08, 0x10, 0x00, 0x00, 0x00, 0x14, 0x00, 0x00, 0x00, 0x02, 0x00, 0x00, 0x00, 0x80, 0xfb, 0xff, 0xff, 0x01, 0x00, 0x00, 0x00, 0x08, 0x00, 0x00, 0x00, 0x03, 0x00, 0x00, 0x00, 0x07, 0x00, 0x00, 0x00, 0x04, 0x00, 0x00, 0x00, 0x01, 0x00, 0x00, 0x00, 0x00, 0x00, 0x0a, 0x00, 0x10, 0x00, 0x0c, 0x00, 0x08, 0x00, 0x04, 0x00, 0x0a, 0x00, 0x00, 0x00, 0x0c, 0x00, 0x00, 0x00, 0x10, 0x00, 0x00, 0x00, 0x01, 0x00, 0x00, 0x00, 0x01, 0x00, 0x00, 0x00, 0x07, 0x00, 0x00, 0x00, 0x02, 0x00, 0x00, 0x00, 0x06, 0x00, 0x00, 0x00, 0x03, 0x00, 0x00, 0x00, 0x00, 0x00, 0x0e, 0x00, 0x14, 0x00, 0x00, 0x00, 0x10, 0x00, 0x0c, 0x00, 0x0b, 0x00, 0x04, 0x00, 0x0e, 0x00, 0x00, 0x00, 0x1c, 0x00, 0x00, 0x00, 0x00, 0x00, 0x00, 0x01, 0x28, 0x00, 0x00, 0x00, 0x2c, 0x00, 0x00, 0x00, 0x0c, 0x00, 0x14, 0x00, 0x13, 0x00, 0x0c, 0x00, 0x08, 0x00, 0x07, 0x00, 0x0c, 0x00, 0x00, 0x00, 0x00, 0x00, 0x00, 0x01, 0x0a, 0x00, 0x00, 0x00, 0x0a, 0x00, 0x00, 0x00, 0x00, 0x00, 0x00, 0x01, 0x01, 0x00, 0x00, 0x00, 0x06, 0x00, 0x00, 0x00, 0x03, 0x00, 0x00, 0x00, 0x00, 0x00, 0x00, 0x00, 0x05, 0x00, 0x00, 0x00, 0x02, 0x00, 0x00, 0x00, 0x01, 0x00, 0x00, 0x00, 0x09, 0x00, 0x00, 0x00, 0x01, 0x00, 0x00, 0x00, 0x00, 0x00, 0x00, 0x00, 0x0a, 0x00, 0x00, 0x00, 0x98, 0x03, 0x00, 0x00, 0x34, 0x03, 0x00, 0x00, 0xd0, 0x02, 0x00, 0x00, 0x88, 0x02, 0x00, 0x00, 0x34, 0x02, 0x00, 0x00, 0xe4, 0x01, 0x00, 0x00, 0x24, 0x01, 0x00, 0x00, 0xcc, 0x00, 0x00, 0x00, 0x5c, 0x00, 0x00, 0x00, 0x04, 0x00, 0x00, 0x00, 0xa4, 0xfc, 0xff, 0xff, 0x14, 0x00, 0x00, 0x00, 0x1c, 0x00, 0x00, 0x00, 0x1c, 0x00, 0x00, 0x00, 0x0a, 0x00, 0x00, 0x00, 0x34, 0x00, 0x00, 0x00, 0x02, 0x00, 0x00, 0x00, 0xff, 0xff, 0xff, 0xff, 0x03, 0x00, 0x00, 0x00, 0x88, 0xfc, 0xff, 0xff, 0x19, 0x00, 0x00, 0x00, 0x53, 0x74, 0x61, 0x74, 0x65, 0x66, 0x75, 0x6c, 0x50, 0x61, 0x72, 0x74, 0x69, 0x74, 0x69, 0x6f, 0x6e, 0x65, 0x64, 0x43, 0x61, 0x6c, 0x6c, 0x3a, 0x30, 0x00, 0x00, 0x00, 0x02, 0x00, 0x00, 0x00, 0x01, 0x00, 0x00, 0x00, 0x03, 0x00, 0x00, 0x00, 0xf8, 0xfc, 0xff, 0xff, 0x14, 0x00, 0x00, 0x00, 0x1c, 0x00, 0x00, 0x00, 0x1c, 0x00, 0x00, 0x00, 0x09, 0x00, 0x00, 0x00, 0x4c, 0x00, 0x00, 0x00, 0x02, 0x00, 0x00, 0x00, 0xff, 0xff, 0xff, 0xff, 0x03, 0x00, 0x00, 0x00, 0xdc, 0xfc, 0xff, 0xff, 0x30, 0x00, 0x00, 0x00, 0x73, 0x65, 0x71, 0x75, 0x65, 0x6e, 0x74, 0x69, 0x61, 0x6c, 0x2f, 0x64, 0x65, 0x6e, 0x73, 0x65, 0x2f, 0x4d, 0x61, 0x74, 0x4d, 0x75, 0x6c, 0x3b, 0x73, 0x65, 0x71, 0x75, 0x65, 0x6e, 0x74, 0x69, 0x61, 0x6c, 0x2f, 0x64, 0x65, 0x6e, 0x73, 0x65, 0x2f, 0x42, 0x69, 0x61, 0x73, 0x41, 0x64, 0x64, 0x00, 0x00, 0x00, 0x00, 0x02, 0x00, 0x00, 0x00, 0x01, 0x00, 0x00, 0x00, 0x03, 0x00, 0x00, 0x00, 0x64, 0xfd, 0xff, 0xff, 0x14, 0x00, 0x00, 0x00, 0x1c, 0x00, 0x00, 0x00, 0x1c, 0x00, 0x00, 0x00, 0x08, 0x00, 0x00, 0x00, 0x34, 0x00, 0x00, 0x00, 0x02, 0x00, 0x00, 0x00, 0xff, 0xff, 0xff, 0xff, 0xaf, 0x00, 0x00, 0x00, 0x48, 0xfd, 0xff, 0xff, 0x1a, 0x00, 0x00, 0x00, 0x73, 0x65, 0x71, 0x75, 0x65, 0x6e, 0x74, 0x69, 0x61, 0x6c, 0x2f, 0x66, 0x6c, 0x61, 0x74, 0x74, 0x65, 0x6e, 0x2f, 0x52, 0x65, 0x73, 0x68, 0x61, 0x70, 0x65, 0x00, 0x00, 0x02, 0x00, 0x00, 0x00, 0x01, 0x00, 0x00, 0x00, 0xaf, 0x00, 0x00, 0x00, 0xb8, 0xfd, 0xff, 0xff, 0x14, 0x00, 0x00, 0x00, 0x24, 0x00, 0x00, 0x00, 0x24, 0x00, 0x00, 0x00, 0x07, 0x00, 0x00, 0x00, 0x94, 0x00, 0x00, 0x00, 0x04, 0x00, 0x00, 0x00, 0xff, 0xff, 0xff, 0xff, 0x19, 0x00, 0x00, 0x00, 0x01, 0x00, 0x00, 0x00, 0x07, 0x00, 0x00, 0x00, 0xa4, 0xfd, 0xff, 0xff, 0x72, 0x00, 0x00, 0x00, 0x73, 0x65, 0x71, 0x75, 0x65, 0x6e, 0x74, 0x69, 0x61, 0x6c, 0x2f, 0x63, 0x6f, 0x6e, 0x76, 0x32, 0x64, 0x2f, 0x52, 0x65, 0x6c, 0x75, 0x3b, 0x73, 0x65, 0x71, 0x75, 0x65, 0x6e, 0x74, 0x69, 0x61, 0x6c, 0x2f, 0x63, 0x6f, 0x6e, 0x76, 0x32, 0x64, 0x2f, 0x42, 0x69, 0x61, 0x73, 0x41, 0x64, 0x64, 0x3b, 0x73, 0x65, 0x71, 0x75, 0x65, 0x6e, 0x74, 0x69, 0x61, 0x6c, 0x2f, 0x63, 0x6f, 0x6e, 0x76, 0x32, 0x64, 0x2f, 0x43, 0x6f, 0x6e, 0x76, 0x32, 0x44, 0x3b, 0x73, 0x65, 0x71, 0x75, 0x65, 0x6e, 0x74, 0x69, 0x61, 0x6c, 0x2f, 0x63, 0x6f, 0x6e, 0x76, 0x32, 0x64, 0x2f, 0x42, 0x69, 0x61, 0x73, 0x41, 0x64, 0x64, 0x2f, 0x52, 0x65, 0x61, 0x64, 0x56, 0x61, 0x72, 0x69, 0x61, 0x62, 0x6c, 0x65, 0x4f, 0x70, 0x00, 0x00, 0x04, 0x00, 0x00, 0x00, 0x01, 0x00, 0x00, 0x00, 0x19, 0x00, 0x00, 0x00, 0x01, 0x00, 0x00, 0x00, 0x07, 0x00, 0x00, 0x00, 0xce, 0xfe, 0xff, 0xff, 0x10, 0x00, 0x00, 0x00, 0x10, 0x00, 0x00, 0x00, 0x06, 0x00, 0x00, 0x00, 0x28, 0x00, 0x00, 0x00, 0x48, 0xfe, 0xff, 0xff, 0x18, 0x00, 0x00, 0x00, 0x73, 0x65, 0x71, 0x75, 0x65, 0x6e, 0x74, 0x69, 0x61, 0x6c, 0x2f, 0x63, 0x6f, 0x6e, 0x76, 0x32, 0x64, 0x2f, 0x43, 0x6f, 0x6e, 0x76, 0x32, 0x44, 0x00, 0x00, 0x00, 0x00, 0x04, 0x00, 0x00, 0x00, 0x07, 0x00, 0x00, 0x00, 0x0a, 0x00, 0x00, 0x00, 0x06, 0x00, 0x00, 0x00, 0x01, 0x00, 0x00, 0x00, 0x1a, 0xff, 0xff, 0xff, 0x10, 0x00, 0x00, 0x00, 0x10, 0x00, 0x00, 0x00, 0x05, 0x00, 0x00, 0x00, 0x24, 0x00, 0x00, 0x00, 0x94, 0xfe, 0xff, 0xff, 0x17, 0x00, 0x00, 0x00, 0x73, 0x65, 0x71, 0x75, 0x65, 0x6e, 0x74, 0x69, 0x61, 0x6c, 0x2f, 0x64, 0x65, 0x6e, 0x73, 0x65, 0x2f, 0x4d, 0x61, 0x74, 0x4d, 0x75, 0x6c, 0x00, 0x02, 0x00, 0x00, 0x00, 0x03, 0x00, 0x00, 0x00, 0xaf, 0x00, 0x00, 0x00, 0x00, 0x00, 0x0e, 0x00, 0x18, 0x00, 0x14, 0x00, 0x13, 0x00, 0x0c, 0x00, 0x08, 0x00, 0x04, 0x00, 0x0e, 0x00, 0x00, 0x00, 0x14, 0x00, 0x00, 0x00, 0x14, 0x00, 0x00, 0x00, 0x04, 0x00, 0x00, 0x00, 0x00, 0x00, 0x00, 0x02, 0x28, 0x00, 0x00, 0x00, 0xe8, 0xfe, 0xff, 0xff, 0x18, 0x00, 0x00, 0x00, 0x73, 0x65, 0x71, 0x75, 0x65, 0x6e, 0x74, 0x69, 0x61, 0x6c, 0x2f, 0x66, 0x6c, 0x61, 0x74, 0x74, 0x65, 0x6e, 0x2f, 0x43, 0x6f, 0x6e, 0x73, 0x74, 0x00, 0x00, 0x00, 0x00, 0x01, 0x00, 0x00, 0x00, 0x02, 0x00, 0x00, 0x00, 0xae, 0xff, 0xff, 0xff, 0x10, 0x00, 0x00, 0x00, 0x10, 0x00, 0x00, 0x00, 0x03, 0x00, 0x00, 0x00, 0x38, 0x00, 0x00, 0x00, 0x28, 0xff, 0xff, 0xff, 0x28, 0x00, 0x00, 0x00, 0x73, 0x65, 0x71, 0x75, 0x65, 0x6e, 0x74, 0x69, 0x61, 0x6c, 0x2f, 0x63, 0x6f, 0x6e, 0x76, 0x32, 0x64, 0x2f, 0x42, 0x69, 0x61, 0x73, 0x41, 0x64, 0x64, 0x2f, 0x52, 0x65, 0x61, 0x64, 0x56, 0x61, 0x72, 0x69, 0x61, 0x62, 0x6c, 0x65, 0x4f, 0x70, 0x00, 0x00, 0x00, 0x00, 0x01, 0x00, 0x00, 0x00, 0x07, 0x00, 0x00, 0x00, 0x00, 0x00, 0x0e, 0x00, 0x14, 0x00, 0x10, 0x00, 0x00, 0x00, 0x0c, 0x00, 0x08, 0x00, 0x04, 0x00, 0x0e, 0x00, 0x00, 0x00, 0x10, 0x00, 0x00, 0x00, 0x10, 0x00, 0x00, 0x00, 0x02, 0x00, 0x00, 0x00, 0x34, 0x00, 0x00, 0x00, 0x88, 0xff, 0xff, 0xff, 0x27, 0x00, 0x00, 0x00, 0x73, 0x65, 0x71, 0x75, 0x65, 0x6e, 0x74, 0x69, 0x61, 0x6c, 0x2f, 0x64, 0x65, 0x6e, 0x73, 0x65, 0x2f, 0x42, 0x69, 0x61, 0x73, 0x41, 0x64, 0x64, 0x2f, 0x52, 0x65, 0x61, 0x64, 0x56, 0x61, 0x72, 0x69, 0x61, 0x62, 0x6c, 0x65, 0x4f, 0x70, 0x00, 0x01, 0x00, 0x00, 0x00, 0x03, 0x00, 0x00, 0x00, 0x14, 0x00, 0x18, 0x00, 0x14, 0x00, 0x00, 0x00, 0x10, 0x00, 0x0c, 0x00, 0x08, 0x00, 0x00, 0x00, 0x00, 0x00, 0x04, 0x00, 0x14, 0x00, 0x00, 0x00, 0x14, 0x00, 0x00, 0x00, 0x28, 0x00, 0x00, 0x00, 0x28, 0x00, 0x00, 0x00, 0x01, 0x00, 0x00, 0x00, 0x44, 0x00, 0x00, 0x00, 0x04, 0x00, 0x00, 0x00, 0xff, 0xff, 0xff, 0xff, 0xfa, 0x00, 0x00, 0x00, 0x06, 0x00, 0x00, 0x00, 0x01, 0x00, 0x00, 0x00, 0x04, 0x00, 0x04, 0x00, 0x04, 0x00, 0x00, 0x00, 0x1e, 0x00, 0x00, 0x00, 0x73, 0x65, 0x72, 0x76, 0x69, 0x6e, 0x67, 0x5f, 0x64, 0x65, 0x66, 0x61, 0x75, 0x6c, 0x74, 0x5f, 0x63, 0x6f, 0x6e, 0x76, 0x32, 0x64, 0x5f, 0x69, 0x6e, 0x70, 0x75, 0x74, 0x3a, 0x30, 0x00, 0x00, 0x04, 0x00, 0x00, 0x00, 0x01, 0x00, 0x00, 0x00, 0xfa, 0x00, 0x00, 0x00, 0x06, 0x00, 0x00, 0x00, 0x01, 0x00, 0x00, 0x00, 0x04, 0x00, 0x00, 0x00, 0x40, 0x00, 0x00, 0x00, 0x24, 0x00, 0x00, 0x00, 0x14, 0x00, 0x00, 0x00, 0x04, 0x00, 0x00, 0x00, 0xdc, 0xff, 0xff, 0xff, 0x19, 0x00, 0x00, 0x00, 0x00, 0x00, 0x00, 0x19, 0xe8, 0xff, 0xff, 0xff, 0x09, 0x00, 0x00, 0x00, 0x00, 0x00, 0x00, 0x09, 0xf4, 0xff, 0xff, 0xff, 0x16, 0x00, 0x00, 0x00, 0x00, 0x00, 0x00, 0x16, 0x0c, 0x00, 0x0c, 0x00, 0x0b, 0x00, 0x00, 0x00, 0x00, 0x00, 0x04, 0x00, 0x0c, 0x00, 0x00, 0x00, 0x03, 0x00, 0x00, 0x00, 0x00, 0x00, 0x00, 0x03};
const int model_data_len = 5848;