
#ifdef __has_attribute
#define HAVE_ATTRIBUTE(x) __has_attribute(x)
#else
#define HAVE_ATTRIBUTE(x) 0
#endif
#if HAVE_ATTRIBUTE(aligned) || (defined(__GNUC__) && !defined(__clang__))
#define DATA_ALIGN_ATTRIBUTE __attribute__((aligned(4)))
#else
#define DATA_ALIGN_ATTRIBUTE
#endif

const unsigned char model_data[] DATA_ALIGN_ATTRIBUTE = {0x1c, 0x00, 0x00, 0x00, 0x54, 0x46, 0x4c, 0x33, 0x14, 0x00, 0x20, 0x00, 0x1c, 0x00, 0x18, 0x00, 0x14, 0x00, 0x10, 0x00, 0x0c, 0x00, 0x00, 0x00, 0x08, 0x00, 0x04, 0x00, 0x14, 0x00, 0x00, 0x00, 0x1c, 0x00, 0x00, 0x00, 0x88, 0x00, 0x00, 0x00, 0xe0, 0x00, 0x00, 0x00, 0x28, 0x27, 0x00, 0x00, 0x38, 0x27, 0x00, 0x00, 0xa4, 0x2c, 0x00, 0x00, 0x03, 0x00, 0x00, 0x00, 0x01, 0x00, 0x00, 0x00, 0x04, 0x00, 0x00, 0x00, 0x0e, 0xd8, 0xff, 0xff, 0x0c, 0x00, 0x00, 0x00, 0x1c, 0x00, 0x00, 0x00, 0x38, 0x00, 0x00, 0x00, 0x0f, 0x00, 0x00, 0x00, 0x73, 0x65, 0x72, 0x76, 0x69, 0x6e, 0x67, 0x5f, 0x64, 0x65, 0x66, 0x61, 0x75, 0x6c, 0x74, 0x00, 0x01, 0x00, 0x00, 0x00, 0x04, 0x00, 0x00, 0x00, 0x94, 0xff, 0xff, 0xff, 0x09, 0x00, 0x00, 0x00, 0x04, 0x00, 0x00, 0x00, 0x05, 0x00, 0x00, 0x00, 0x64, 0x65, 0x6e, 0x73, 0x65, 0x00, 0x00, 0x00, 0x01, 0x00, 0x00, 0x00, 0x04, 0x00, 0x00, 0x00, 0xbe, 0xd8, 0xff, 0xff, 0x04, 0x00, 0x00, 0x00, 0x0c, 0x00, 0x00, 0x00, 0x63, 0x6f, 0x6e, 0x76, 0x32, 0x64, 0x5f, 0x69, 0x6e, 0x70, 0x75, 0x74, 0x00, 0x00, 0x00, 0x00, 0x02, 0x00, 0x00, 0x00, 0x34, 0x00, 0x00, 0x00, 0x04, 0x00, 0x00, 0x00, 0xdc, 0xff, 0xff, 0xff, 0x0c, 0x00, 0x00, 0x00, 0x04, 0x00, 0x00, 0x00, 0x13, 0x00, 0x00, 0x00, 0x43, 0x4f, 0x4e, 0x56, 0x45, 0x52, 0x53, 0x49, 0x4f, 0x4e, 0x5f, 0x4d, 0x45, 0x54, 0x41, 0x44, 0x41, 0x54, 0x41, 0x00, 0x08, 0x00, 0x0c, 0x00, 0x08, 0x00, 0x04, 0x00, 0x08, 0x00, 0x00, 0x00, 0x0b, 0x00, 0x00, 0x00, 0x04, 0x00, 0x00, 0x00, 0x13, 0x00, 0x00, 0x00, 0x6d, 0x69, 0x6e, 0x5f, 0x72, 0x75, 0x6e, 0x74, 0x69, 0x6d, 0x65, 0x5f, 0x76, 0x65, 0x72, 0x73, 0x69, 0x6f, 0x6e, 0x00, 0x0d, 0x00, 0x00, 0x00, 0x44, 0x26, 0x00, 0x00, 0x3c, 0x26, 0x00, 0x00, 0x20, 0x26, 0x00, 0x00, 0xe8, 0x25, 0x00, 0x00, 0xd0, 0x25, 0x00, 0x00, 0x28, 0x18, 0x00, 0x00, 0xa8, 0x00, 0x00, 0x00, 0xa0, 0x00, 0x00, 0x00, 0x98, 0x00, 0x00, 0x00, 0x90, 0x00, 0x00, 0x00, 0x88, 0x00, 0x00, 0x00, 0x68, 0x00, 0x00, 0x00, 0x04, 0x00, 0x00, 0x00, 0x6e, 0xd9, 0xff, 0xff, 0x04, 0x00, 0x00, 0x00, 0x54, 0x00, 0x00, 0x00, 0x0c, 0x00, 0x00, 0x00, 0x08, 0x00, 0x0e, 0x00, 0x08, 0x00, 0x04, 0x00, 0x08, 0x00, 0x00, 0x00, 0x10, 0x00, 0x00, 0x00, 0x24, 0x00, 0x00, 0x00, 0x00, 0x00, 0x06, 0x00, 0x08, 0x00, 0x04, 0x00, 0x06, 0x00, 0x00, 0x00, 0x04, 0x00, 0x00, 0x00, 0x00, 0x00, 0x00, 0x00, 0x00, 0x00, 0x0a, 0x00, 0x10, 0x00, 0x0c, 0x00, 0x08, 0x00, 0x04, 0x00, 0x0a, 0x00, 0x00, 0x00, 0x02, 0x00, 0x00, 0x00, 0x02, 0x00, 0x00, 0x00, 0x04, 0x00, 0x00, 0x00, 0x05, 0x00, 0x00, 0x00, 0x32, 0x2e, 0x39, 0x2e, 0x31, 0x00, 0x00, 0x00, 0xce, 0xd9, 0xff, 0xff, 0x04, 0x00, 0x00, 0x00, 0x10, 0x00, 0x00, 0x00, 0x31, 0x2e, 0x35, 0x2e, 0x30, 0x00, 0x00, 0x00, 0x00, 0x00, 0x00, 0x00, 0x00, 0x00, 0x00, 0x00, 0x24, 0xd5, 0xff, 0xff, 0x28, 0xd5, 0xff, 0xff, 0x2c, 0xd5, 0xff, 0xff, 0x30, 0xd5, 0xff, 0xff, 0xfa, 0xd9, 0xff, 0xff, 0x04, 0x00, 0x00, 0x00, 0x70, 0x17, 0x00, 0x00, 0xdc, 0xcf, 0x1f, 0x3d, 0xa2, 0x69, 0x07, 0x3d, 0x3d, 0xfe, 0x14, 0xbd, 0x8f, 0x4a, 0x18, 0xbd, 0x24, 0xc6, 0x0b, 0xbc, 0xf7, 0x06, 0x02, 0x3c, 0x91, 0xd1, 0x8d, 0xbd, 0x42, 0xe6, 0xc4, 0x3d, 0xd5, 0xf3, 0xea, 0x3c, 0x39, 0xf3, 0x84, 0xbd, 0x3c, 0xc1, 0x87, 0x3d, 0xf4, 0x34, 0xfe, 0xbb, 0x2c, 0xa1, 0xf4, 0xbc, 0xb2, 0xc4, 0x83, 0x3d, 0x76, 0x3e, 0x2c, 0x3d, 0xd0, 0xf6, 0x71, 0xbc, 0x49, 0xa1, 0xd0, 0x3d, 0x55, 0xb9, 0xf5, 0xbb, 0x52, 0x11, 0xf4, 0x3b, 0x17, 0xfe, 0x8e, 0x3b, 0xb2, 0xc1, 0xc9, 0x3d, 0x0e, 0x7c, 0xeb, 0x3c, 0xee, 0xf9, 0x19, 0x3d, 0x8f, 0xa2, 0x36, 0xbd, 0xf5, 0xb7, 0x3e, 0x3c, 0x62, 0xef, 0xc5, 0x3d, 0xfc, 0xd3, 0xde, 0x3c, 0x45, 0x57, 0x0e, 0xbd, 0x9c, 0x0c, 0xac, 0x3d, 0x62, 0x4c, 0x21, 0xbd, 0x96, 0x72, 0x4e, 0xbd, 0x6b, 0xb5, 0x84, 0x3c, 0x43, 0xb1, 0x91, 0x3d, 0x7b, 0x7e, 0x7f, 0x3b, 0xcc, 0x79, 0xa3, 0x3d, 0xff, 0x28, 0x6e, 0x3d, 0xd4, 0xdd, 0xd2, 0x3c, 0xe9, 0x02, 0xb2, 0x3d, 0xcc, 0x2c, 0x7e, 0x3d, 0x89, 0xc2, 0xdc, 0xbc, 0x13, 0x73, 0xc9, 0xbc, 0x18, 0x84, 0x15, 0x3d, 0x9a, 0xf2, 0x6c, 0xbd, 0x8a, 0x33, 0x42, 0x3c, 0xbc, 0xda, 0xd3, 0x3c, 0xb5, 0xf0, 0xe7, 0xba, 0x65, 0x4b, 0x7e, 0x3d, 0x44, 0x26, 0x81, 0x3c, 0x52, 0x19, 0x4f, 0xbd, 0x0a, 0x27, 0xdf, 0x3d, 0x00, 0xed, 0x7f, 0x3d, 0xcc, 0x93, 0xef, 0x3c, 0x58, 0x8e, 0x85, 0x3d, 0xab, 0x3f, 0x92, 0x3c, 0x6d, 0xa6, 0x99, 0xbd, 0xfa, 0xa2, 0x55, 0x3d, 0xc8, 0xcf, 0x03, 0x3d, 0x52, 0x80, 0x96, 0xbd, 0x7c, 0xd8, 0xe4, 0x3c, 0xb7, 0x35, 0x32, 0xbc, 0x32, 0xfa, 0x90, 0xbc, 0xc3, 0x9c, 0x4d, 0x3d, 0xf6, 0xe4, 0x4d, 0xbc, 0xac, 0x55, 0xe3, 0x3c, 0x43, 0x73, 0xc8, 0x3d, 0x48, 0x8f, 0xcd, 0x3c, 0x84, 0xcc, 0x7e, 0x3c, 0x34, 0xc3, 0xa0, 0x3d, 0x4b, 0x09, 0x41, 0xbc, 0xd9, 0xdf, 0x88, 0xbc, 0xd9, 0xb4, 0x5c, 0x3d, 0x9e, 0x30, 0x90, 0x3b, 0x1d, 0x94, 0x36, 0x3c, 0xb1, 0x75, 0x99, 0x3d, 0x99, 0x96, 0xf7, 0x3c, 0xae, 0x5e, 0x4d, 0xbd, 0xcf, 0x31, 0xac, 0x3d, 0xae, 0xd4, 0x2b, 0x3c, 0x45, 0x95, 0xdf, 0xbc, 0x4e, 0x15, 0x02, 0x3d, 0xc9, 0xd8, 0x31, 0xbd, 0xaf, 0x93, 0xf6, 0xbc, 0x9a, 0x1a, 0x3d, 0x3d, 0x2c, 0x52, 0x3e, 0xbd, 0xa1, 0x7f, 0xc7, 0xbc, 0xbc, 0xb5, 0x98, 0x3d, 0xb5, 0x2a, 0x40, 0xbc, 0x48, 0x99, 0x9c, 0xbd, 0xcb, 0xe7, 0x10, 0x3d, 0x3e, 0x03, 0x11, 0xbd, 0x79, 0x48, 0xb6, 0xbc, 0xc1, 0xa6, 0xfa, 0x3b, 0xfc, 0xcf, 0xc1, 0x3d, 0x4b, 0x3e, 0x0f, 0xbd, 0xaf, 0xb6, 0x60, 0x3d, 0xca, 0x94, 0xdd, 0x3c, 0x5a, 0x32, 0x3e, 0xbd, 0x66, 0x9c, 0xe2, 0x3d, 0x46, 0x66, 0x51, 0x3d, 0xdc, 0x40, 0x90, 0x3c, 0xd8, 0xdc, 0xe1, 0x3d, 0xcb, 0xdb, 0x59, 0xbc, 0x73, 0x78, 0xaf, 0xbc, 0x5b, 0xcb, 0xea, 0x3d, 0xa0, 0x45, 0x6e, 0x3d, 0xc5, 0x1c, 0x3e, 0xbd, 0xb7, 0x30, 0xae, 0x3d, 0x07, 0x36, 0xe3, 0x3c, 0xf1, 0x2c, 0xf9, 0x3c, 0x02, 0xc8, 0xc6, 0x3b, 0x56, 0xba, 0xf5, 0x3c, 0x9c, 0x99, 0x8b, 0xbd, 0xdc, 0x9b, 0xd0, 0x3d, 0x0b, 0xd8, 0x8c, 0xbc, 0xe0, 0x07, 0x56, 0x3a, 0x4b, 0x34, 0x4c, 0x3d, 0xda, 0xb4, 0x5b, 0xbc, 0xbc, 0xd1, 0x24, 0xbd, 0xe3, 0x23, 0x54, 0x3d, 0xdd, 0x08, 0xa7, 0xbc, 0xab, 0x5b, 0xa1, 0xbd, 0x3e, 0xeb, 0x50, 0x3c, 0x5e, 0xec, 0xb0, 0x3d, 0x4b, 0xf6, 0x42, 0xbd, 0xe5, 0x5f, 0x64, 0x3c, 0xd3, 0x32, 0x2f, 0x3d, 0xf2, 0x77, 0x3a, 0xbc, 0xc6, 0x7d, 0xd6, 0x3d, 0xc8, 0x43, 0xe9, 0x3b, 0x44, 0x7d, 0x45, 0xbc, 0x87, 0xbf, 0xc6, 0x3d, 0xde, 0xe1, 0x7d, 0xbd, 0x38, 0x2b, 0xef, 0x3c, 0x99, 0xea, 0x9c, 0xba, 0x1e, 0x13, 0xe9, 0x3b, 0x40, 0x18, 0x3e, 0xbc, 0x7b, 0xfb, 0xd5, 0x3d, 0xa0, 0x49, 0xa9, 0x3d, 0x82, 0xba, 0x46, 0xbd, 0xd0, 0xad, 0x3c, 0xba, 0xc7, 0x49, 0x41, 0x3d, 0x7a, 0x78, 0xe3, 0xbb, 0x4a, 0xdc, 0x25, 0xbc, 0x82, 0x3e, 0x30, 0x3d, 0x41, 0x48, 0x21, 0x3d, 0xde, 0x59, 0x49, 0x3d, 0xe7, 0xbd, 0x90, 0x3d, 0xbf, 0x86, 0x5e, 0xba, 0xf8, 0x39, 0xaf, 0x3d, 0xf6, 0x07, 0x9c, 0xbc, 0x59, 0x2e, 0x16, 0x3c, 0x80, 0x0c, 0xd7, 0x3b, 0x04, 0xa5, 0xd5, 0xbc, 0x18, 0x15, 0x9f, 0x3d, 0xc0, 0xc2, 0xf8, 0x3d, 0x07, 0xaa, 0xe6, 0xbc, 0x68, 0x71, 0x48, 0x3c, 0x10, 0xd7, 0xcd, 0x3d, 0x19, 0x83, 0x09, 0xbd, 0xe5, 0xe7, 0x1c, 0xbd, 0x85, 0x24, 0xee, 0x3c, 0x17, 0x58, 0x18, 0xbd, 0xe7, 0xa8, 0x60, 0x3d, 0xbb, 0x0a, 0xe0, 0x3d, 0x06, 0x7c, 0x6e, 0x3c, 0xb7, 0xcd, 0x7c, 0xbc, 0xfd, 0x6b, 0xeb, 0x3d, 0x61, 0xdd, 0x6d, 0xbc, 0x58, 0x26, 0x0c, 0x3b, 0xbe, 0x44, 0x08, 0x3d, 0x65, 0x05, 0x82, 0x3d, 0x0e, 0x7d, 0xc9, 0x3c, 0xe9, 0xea, 0xed, 0x3d, 0x7a, 0x06, 0x10, 0x3a, 0x60, 0x22, 0x2f, 0x3d, 0xb8, 0x9a, 0x85, 0x3d, 0x92, 0x50, 0x93, 0x3d, 0x07, 0xd0, 0x67, 0x3c, 0x22, 0x78, 0xc1, 0x3c, 0x3c, 0x33, 0x35, 0x3d, 0x50, 0x8f, 0x2d, 0xbc, 0xb2, 0x51, 0xb0, 0x3d, 0x03, 0x08, 0xad, 0x3d, 0x43, 0xaa, 0xe5, 0x3c, 0x0f, 0x4f, 0xa4, 0x3d, 0xa9, 0xca, 0xd7, 0x3c, 0x45, 0xbe, 0x4f, 0x3d, 0x6e, 0x82, 0x9d, 0x3d, 0x8a, 0x90, 0x3e, 0xbd, 0x83, 0x34, 0x8c, 0x3d, 0x00, 0x16, 0x08, 0x3e, 0x35, 0xb7, 0x95, 0xbc, 0x6c, 0x4e, 0x1b, 0xbd, 0x02, 0x60, 0xd5, 0x3c, 0xdc, 0x3c, 0x99, 0x3d, 0x3b, 0xbf, 0x01, 0x3d, 0x68, 0xa1, 0xdb, 0x3c, 0x11, 0xdd, 0x08, 0x3d, 0x99, 0x61, 0x84, 0xbc, 0x19, 0xca, 0xd8, 0x3d, 0x91, 0x36, 0xaa, 0x3d, 0x06, 0xb0, 0x01, 0xbd, 0xdf, 0x10, 0xf6, 0x3d, 0x61, 0x56, 0xa9, 0xbb, 0xbf, 0x0f, 0x80, 0x3d, 0x87, 0x7f, 0x4d, 0x3d, 0x8a, 0xb1, 0x80, 0x3c, 0x71, 0xbb, 0xfe, 0xbc, 0xd4, 0xf7, 0xd8, 0x3d, 0xd5, 0x65, 0x82, 0x3d, 0xb4, 0xd6, 0xa4, 0x3d, 0x0c, 0x50, 0x2c, 0x3c, 0x1a, 0xec, 0x10, 0x3d, 0xdf, 0x04, 0x16, 0x3c, 0x50, 0xe2, 0x57, 0x3d, 0xb1, 0xf2, 0x21, 0x3c, 0x90, 0x96, 0x0f, 0x3d, 0x03, 0xf5, 0xab, 0xbb, 0xb8, 0x8f, 0x90, 0xbd, 0x6f, 0xf8, 0x94, 0x3d, 0xf6, 0x9c, 0x10, 0x3d, 0xc4, 0x3d, 0x44, 0x3d, 0xc3, 0xef, 0x9d, 0x3c, 0x63, 0x80, 0x9f, 0x3d, 0xd7, 0x29, 0xc7, 0x3a, 0xe2, 0x26, 0x7c, 0x3d, 0x1a, 0x39, 0x1b, 0x3c, 0xec, 0x21, 0xcc, 0x3c, 0xfc, 0x6e, 0x82, 0x3d, 0x94, 0x7d, 0xbc, 0xbc, 0x2b, 0x12, 0x49, 0xbc, 0xfb, 0x94, 0x9c, 0xbc, 0x7a, 0xc9, 0x9d, 0x3d, 0x3b, 0xac, 0xa2, 0x3d, 0xc0, 0xe8, 0xd6, 0xbb, 0x5a, 0x65, 0x03, 0x3d, 0x07, 0x60, 0x41, 0xbd, 0x95, 0x2e, 0x6f, 0x3d, 0x1d, 0xc3, 0xc4, 0x3d, 0x34, 0xa2, 0x8d, 0xbc, 0x9b, 0x90, 0xab, 0xbd, 0x66, 0x43, 0xbf, 0x3d, 0x7d, 0x37, 0x6c, 0x3d, 0xd3, 0x1a, 0x68, 0xbd, 0xd2, 0x55, 0x15, 0xbc, 0x8d, 0x8a, 0x27, 0xbd, 0x8f, 0xd3, 0x81, 0xbd, 0xdf, 0xf7, 0x85, 0x3b, 0x85, 0xaa, 0xc4, 0x3c, 0xc4, 0xac, 0xec, 0xbc, 0xbf, 0x0e, 0x68, 0xbc, 0x1c, 0x2b, 0x02, 0x3d, 0x78, 0x8f, 0x97, 0x3c, 0xd6, 0x54, 0x02, 0x3c, 0x21, 0xad, 0xa6, 0x3b, 0x03, 0xd5, 0x40, 0xbd, 0xce, 0xaf, 0xc8, 0xbc, 0xfa, 0xa6, 0xb7, 0xbc, 0x78, 0xb2, 0x22, 0xbb, 0xa7, 0xb5, 0x3b, 0xbd, 0xad, 0x66, 0xf6, 0x3b, 0x3c, 0x52, 0x59, 0x3d, 0x1f, 0x82, 0x57, 0xbd, 0xc2, 0x8e, 0xa0, 0xbc, 0xb1, 0xf9, 0x70, 0x3c, 0x85, 0x2f, 0xce, 0x3c, 0x61, 0xfd, 0x52, 0xbd, 0x2b, 0x34, 0x0a, 0xbd, 0xe6, 0xe3, 0x5a, 0xbd, 0xef, 0x1c, 0x45, 0x38, 0xa6, 0x13, 0x0c, 0x3d, 0xff, 0x36, 0x12, 0x3c, 0x4c, 0x6d, 0x07, 0x3d, 0x27, 0x39, 0x29, 0xbd, 0x77, 0xde, 0x74, 0x3c, 0x6e, 0x49, 0x39, 0xbd, 0x5d, 0x21, 0x1f, 0xbd, 0x7f, 0x68, 0xbf, 0x3c, 0x23, 0xac, 0x8a, 0xbd, 0x4b, 0x1d, 0x06, 0xbd, 0xf1, 0xd6, 0x84, 0xbd, 0x22, 0x52, 0x24, 0xbd, 0xfc, 0x2e, 0x1f, 0xbd, 0xa8, 0x39, 0x85, 0xbd, 0x3b, 0x7a, 0x20, 0xbd, 0xdb, 0x19, 0x21, 0xbc, 0x8f, 0x53, 0x42, 0xbc, 0x73, 0x7c, 0x93, 0xbd, 0x59, 0xf6, 0x97, 0xbc, 0x53, 0xfd, 0x68, 0xbd, 0x2e, 0xe1, 0xa1, 0xbd, 0x77, 0x66, 0x2a, 0xbd, 0xcf, 0x4c, 0x9b, 0x3c, 0xc8, 0x82, 0xde, 0xba, 0x2f, 0x06, 0x60, 0x3d, 0xcc, 0x4b, 0xaf, 0xbd, 0x2e, 0x01, 0x72, 0xbb, 0x99, 0x14, 0x9d, 0x3c, 0x33, 0xd5, 0xc2, 0x3c, 0x0a, 0x70, 0xaa, 0xbd, 0x47, 0xe6, 0xe8, 0x3d, 0xb1, 0x9e, 0x1f, 0x3d, 0x7f, 0x71, 0xe5, 0x3b, 0x9b, 0x29, 0xd1, 0x3d, 0xcd, 0x7f, 0x6c, 0x3c, 0x64, 0xfb, 0x2b, 0x3c, 0x6d, 0x90, 0x69, 0xba, 0xc3, 0x56, 0x51, 0xbd, 0x0b, 0x90, 0x2d, 0x3c, 0xbd, 0x8b, 0x28, 0xbd, 0x67, 0x68, 0x9e, 0xbd, 0xfd, 0x03, 0x8f, 0x3d, 0x87, 0x5c, 0xf2, 0xbc, 0x58, 0x45, 0x40, 0x3d, 0x0b, 0x75, 0x10, 0x3d, 0x00, 0xd7, 0xe3, 0xbc, 0xa8, 0x07, 0xcf, 0x3c, 0x8e, 0xc6, 0x87, 0x3d, 0x43, 0x54, 0x41, 0xbd, 0x29, 0x5f, 0x93, 0xbc, 0x24, 0xa2, 0x05, 0x3e, 0x60, 0xb7, 0x5d, 0x3d, 0xd2, 0xa7, 0x6e, 0xbd, 0x7d, 0x9d, 0x65, 0x3d, 0xd0, 0xd9, 0x4c, 0x3c, 0xef, 0xfa, 0x90, 0xbd, 0xd7, 0x07, 0xae, 0x3d, 0xc1, 0x3d, 0x36, 0x3d, 0x3c, 0x6c, 0x16, 0xbc, 0x8b, 0xf9, 0x56, 0x3d, 0x9e, 0x2b, 0xd0, 0x38, 0x07, 0x92, 0x5c, 0x3b, 0x65, 0xd6, 0x44, 0x3d, 0x52, 0x21, 0x7d, 0x3d, 0x50, 0x2a, 0xde, 0x3c, 0x12, 0x2d, 0x7a, 0x3d, 0x88, 0x22, 0xd7, 0x3b, 0x42, 0x18, 0x45, 0xbc, 0xf0, 0x95, 0x1b, 0x3d, 0x49, 0xb9, 0xd5, 0x3c, 0xa5, 0x65, 0xb1, 0xbd, 0xa5, 0x06, 0xa8, 0x3d, 0x36, 0x69, 0x3f, 0xbc, 0xf9, 0xa6, 0x88, 0x3c, 0x98, 0x6d, 0x98, 0x3d, 0xa2, 0xf8, 0x09, 0xbd, 0xee, 0x2b, 0xa4, 0xbb, 0x28, 0xcb, 0xeb, 0x3d, 0x50, 0xfd, 0x74, 0xbd, 0xb0, 0x82, 0xb4, 0xbc, 0x2c, 0xba, 0xd3, 0x3d, 0x82, 0xeb, 0x87, 0xbd, 0x06, 0x00, 0x63, 0x3d, 0xce, 0xba, 0x76, 0x3d, 0xf0, 0x9b, 0x60, 0x3c, 0xd0, 0x68, 0x11, 0xbb, 0xb5, 0x86, 0x25, 0x3d, 0x98, 0x39, 0x40, 0x3c, 0x5a, 0x21, 0x6d, 0xbd, 0xfd, 0x48, 0x77, 0x3c, 0xe6, 0x02, 0x39, 0xbd, 0xe8, 0x4d, 0x08, 0xbd, 0xe1, 0x54, 0xc2, 0x3d, 0x83, 0x4c, 0x8c, 0xbd, 0xc2, 0x50, 0x67, 0x3d, 0x09, 0x2c, 0xb7, 0x3c, 0x8b, 0x39, 0x6e, 0xbc, 0xcb, 0x3c, 0xa2, 0x3c, 0xab, 0x90, 0x2e, 0x3c, 0xed, 0xdc, 0x4a, 0xbd, 0xa6, 0xc9, 0xe3, 0xbc, 0x66, 0xf3, 0x3f, 0x3c, 0x29, 0xe7, 0x5d, 0xbd, 0x24, 0x76, 0x6c, 0x3c, 0x81, 0x13, 0x55, 0x3b, 0xdc, 0x40, 0xc4, 0xbd, 0x19, 0x1e, 0x33, 0xbd, 0x85, 0x87, 0x9f, 0x3d, 0x73, 0x34, 0xaf, 0x3c, 0x41, 0xee, 0x7b, 0x3d, 0x1d, 0x28, 0xf6, 0x3d, 0x4c, 0x61, 0x89, 0xbd, 0xca, 0xc6, 0x0d, 0xbd, 0x04, 0xca, 0xd7, 0x3d, 0xa6, 0x06, 0x04, 0x3d, 0xde, 0x00, 0xa5, 0x3d, 0xff, 0x6e, 0x01, 0x3d, 0x20, 0x86, 0xdb, 0x3c, 0xba, 0xdb, 0x19, 0x3d, 0x54, 0x05, 0x29, 0x3d, 0x02, 0x0a, 0x63, 0xbd, 0x35, 0xe9, 0x85, 0x3c, 0xb3, 0x01, 0x18, 0xbd, 0xcc, 0x1c, 0x91, 0xbd, 0x37, 0x58, 0x65, 0x3d, 0x60, 0xdb, 0x35, 0x3d, 0xbe, 0x6d, 0xfa, 0x3c, 0x2f, 0x9d, 0x9e, 0x3d, 0x08, 0x28, 0x19, 0x3d, 0x0e, 0xfe, 0x91, 0xbd, 0xdb, 0xd1, 0xda, 0x3c, 0xde, 0x6b, 0xa9, 0x3d, 0xa6, 0x67, 0x49, 0xbd, 0xc2, 0x9c, 0x0e, 0x3b, 0xbc, 0x88, 0x9c, 0x3c, 0x2f, 0x16, 0xd0, 0x3b, 0x45, 0xc7, 0x1f, 0xbd, 0x30, 0x33, 0xc3, 0x3d, 0x40, 0xd8, 0xdd, 0xbc, 0x83, 0xa8, 0xb0, 0x3c, 0x07, 0x34, 0x07, 0x3c, 0xb6, 0x64, 0x97, 0xbd, 0x57, 0xb2, 0xeb, 0x3c, 0x0b, 0xaa, 0x03, 0x3e, 0x8f, 0xe7, 0xa6, 0xbc, 0x5d, 0x6f, 0x09, 0x3d, 0x3c, 0x5c, 0x97, 0x3d, 0x59, 0x3b, 0x47, 0x39, 0xcc, 0x6b, 0xdf, 0x3c, 0x36, 0xa3, 0x93, 0x3d, 0x2a, 0x10, 0x13, 0xbd, 0x59, 0xbe, 0x1c, 0xbd, 0x4e, 0xf6, 0x33, 0x3b, 0x8c, 0x33, 0x84, 0xbd, 0x3b, 0x0f, 0x46, 0xbc, 0xb7, 0x11, 0xfa, 0x3c, 0x82, 0x6e, 0x02, 0xbc, 0xa3, 0x5c, 0x8c, 0x3d, 0x9c, 0x5e, 0x5f, 0x3b, 0xc2, 0x0e, 0xa9, 0xbd, 0x3a, 0x71, 0x37, 0xbd, 0xc1, 0x27, 0x88, 0x3c, 0xfa, 0xe2, 0x1f, 0x3b, 0xdd, 0xe1, 0x6e, 0x3c, 0x0e, 0x72, 0xfc, 0x3d, 0x71, 0x1a, 0x47, 0xbc, 0x80, 0x0c, 0x65, 0x3c, 0x0c, 0x5d, 0x95, 0x3d, 0x40, 0x06, 0xa6, 0x3c, 0xa2, 0x9a, 0x24, 0xbd, 0x98, 0x19, 0x0a, 0x3b, 0x64, 0xc3, 0xc3, 0xbd, 0xb6, 0x31, 0x11, 0x3d, 0x8b, 0x99, 0x95, 0x3d, 0xfc, 0xeb, 0x58, 0xbd, 0xc2, 0x07, 0x07, 0x3d, 0x0b, 0xb9, 0x64, 0x3d, 0x49, 0xa5, 0xc0, 0xbd, 0x05, 0x1d, 0xa6, 0x3b, 0x53, 0xf4, 0x9d, 0x3b, 0x2c, 0x25, 0xb7, 0xbd, 0xd4, 0x24, 0xc6, 0xbd, 0x81, 0xb6, 0xc2, 0x3d, 0x05, 0xa8, 0x8e, 0xbc, 0x78, 0x66, 0x63, 0xbd, 0xe1, 0x50, 0xf0, 0x3c, 0xa0, 0x5c, 0xcc, 0xbd, 0xe4, 0x7a, 0x66, 0xbc, 0x58, 0xfe, 0x67, 0x3c, 0xf6, 0xff, 0x1a, 0xbd, 0x11, 0x08, 0xab, 0xbd, 0xbf, 0xd1, 0x46, 0xbd, 0x17, 0x5b, 0x1a, 0x3c, 0x10, 0x18, 0x53, 0xbd, 0xd1, 0x61, 0x65, 0xbc, 0x74, 0xb8, 0x30, 0xbd, 0x9c, 0xd8, 0x2f, 0x3c, 0x38, 0xca, 0xd5, 0xbc, 0x55, 0x3d, 0x92, 0xbc, 0x81, 0x26, 0xd8, 0x3c, 0x1d, 0x39, 0x90, 0xbd, 0x9c, 0x69, 0x27, 0x3d, 0xc4, 0xba, 0x52, 0xbd, 0xb2, 0x7f, 0x1f, 0x3d, 0x2b, 0xdf, 0x6d, 0xbd, 0x03, 0x4b, 0xc7, 0xbd, 0xb9, 0x74, 0x1e, 0xbd, 0xfc, 0xe1, 0x85, 0xbc, 0x90, 0xa2, 0x4a, 0xbd, 0x63, 0x75, 0xc7, 0xbc, 0x08, 0x2c, 0x9c, 0xbc, 0xbf, 0x9b, 0xd5, 0xbc, 0xc5, 0xeb, 0xba, 0xbd, 0xa3, 0x41, 0x33, 0xbd, 0x66, 0xf1, 0x34, 0xbd, 0x0e, 0x96, 0x09, 0xbd, 0x06, 0x1a, 0x76, 0x3b, 0x42, 0x3a, 0x1a, 0xbd, 0x3e, 0xed, 0x22, 0xbd, 0xfc, 0xfb, 0x8f, 0x3c, 0x86, 0xc8, 0xe3, 0x3d, 0x39, 0xfe, 0x5e, 0xbd, 0x9b, 0x0a, 0x01, 0xbc, 0x97, 0x4c, 0xfd, 0x3c, 0x04, 0x46, 0x42, 0x3c, 0xfa, 0x86, 0x35, 0x3b, 0x98, 0xfd, 0x92, 0xbc, 0x59, 0xd4, 0x10, 0xbd, 0x22, 0xb4, 0xe6, 0xbc, 0xc0, 0x70, 0x5c, 0xbd, 0xc0, 0x94, 0x18, 0xb8, 0x72, 0xf9, 0x0f, 0xbd, 0xd0, 0xd4, 0xbe, 0xbc, 0x62, 0x87, 0x94, 0xbd, 0x1d, 0xac, 0x10, 0x3d, 0xc8, 0x13, 0x40, 0xbd, 0x26, 0xe5, 0x67, 0xbd, 0x7a, 0x2b, 0x30, 0xbd, 0x1e, 0x9b, 0xc4, 0xbd, 0x7f, 0xa5, 0x53, 0x3c, 0x45, 0x1a, 0x6e, 0x3c, 0x2f, 0x87, 0x52, 0xbd, 0x14, 0x69, 0x21, 0xbd, 0x28, 0x02, 0x9f, 0x3d, 0x1e, 0xac, 0x93, 0xbd, 0x56, 0xed, 0x03, 0xbc, 0x1a, 0xa7, 0xd6, 0x3d, 0x48, 0x23, 0x54, 0x3c, 0x45, 0x53, 0xab, 0xbd, 0x80, 0xcf, 0x1f, 0xbd, 0x71, 0x78, 0xfb, 0xbc, 0x91, 0x27, 0xfe, 0xbc, 0x2e, 0xe0, 0x70, 0xba, 0x8b, 0x84, 0x15, 0x3d, 0x4e, 0x57, 0xda, 0x3c, 0x04, 0x3c, 0x87, 0x3d, 0xa3, 0x19, 0xb5, 0xba, 0x16, 0x62, 0x80, 0x3c, 0x27, 0x3c, 0x13, 0x3d, 0x2f, 0x27, 0x23, 0x3d, 0x04, 0xe4, 0xae, 0xbd, 0xf7, 0x23, 0x19, 0x3d, 0x7c, 0x6d, 0x2c, 0xbd, 0x7c, 0xe9, 0x41, 0xbd, 0xf5, 0x8b, 0xf4, 0xbb, 0x55, 0x9e, 0x81, 0xbd, 0x91, 0xcd, 0x2b, 0xbd, 0xb8, 0xb2, 0x84, 0xbd, 0x2e, 0x23, 0x83, 0xbd, 0x36, 0x09, 0xaa, 0xbd, 0x33, 0x2f, 0x94, 0x3b, 0x78, 0xf0, 0x9f, 0xbd, 0xd3, 0x9b, 0x69, 0xbd, 0xcc, 0x1d, 0x6c, 0xbd, 0x20, 0xfc, 0x96, 0xbd, 0xd0, 0xdd, 0x67, 0xbd, 0xa5, 0x86, 0x5a, 0xbd, 0x32, 0x38, 0xca, 0x3c, 0x7e, 0x26, 0xa9, 0xbd, 0x50, 0x2d, 0x82, 0x3d, 0x09, 0x53, 0x60, 0xbc, 0x61, 0xdd, 0x70, 0xbd, 0x0f, 0xec, 0xda, 0xbc, 0xba, 0x74, 0x38, 0xbd, 0x0b, 0x2b, 0xbc, 0xbd, 0xb3, 0x73, 0x1b, 0x3d, 0xce, 0x02, 0x05, 0xbc, 0x6b, 0x05, 0x0f, 0xbd, 0xb8, 0x72, 0xb3, 0x3d, 0x6a, 0x3a, 0x97, 0x39, 0x65, 0x19, 0x73, 0xbd, 0x3c, 0x50, 0x12, 0xbd, 0x88, 0xd3, 0x96, 0x3d, 0xd9, 0x83, 0xc1, 0xbd, 0x7d, 0x01, 0xa2, 0x3c, 0xe0, 0x9e, 0xb4, 0x3d, 0x21, 0x8e, 0x95, 0x3c, 0xb7, 0xc7, 0xa4, 0x3d, 0x52, 0x3d, 0xfb, 0x3c, 0x3d, 0x58, 0x00, 0xbd, 0x32, 0x59, 0x9c, 0x3d, 0xa7, 0xcf, 0x2d, 0x3d, 0xdc, 0x07, 0xbc, 0xbd, 0xcc, 0xe0, 0x0e, 0xbd, 0xed, 0xc7, 0x00, 0xbd, 0xbc, 0x19, 0x35, 0xbd, 0x80, 0x86, 0x04, 0xbd, 0xf6, 0x4f, 0x55, 0x3d, 0xe5, 0x86, 0x2d, 0xbc, 0xa6, 0xb3, 0x8d, 0x3d, 0xd1, 0x25, 0xcd, 0x3d, 0xe0, 0x81, 0x70, 0xbd, 0x06, 0x6e, 0xbe, 0x3d, 0x32, 0xd9, 0xd0, 0x3d, 0xa5, 0xb8, 0xf5, 0xbd, 0xe8, 0x83, 0x10, 0x3d, 0x54, 0xe1, 0xa0, 0x3d, 0xda, 0xfe, 0x7b, 0xbd, 0xfa, 0xc5, 0xb6, 0x3d, 0xc0, 0x06, 0x80, 0x3c, 0x2e, 0x80, 0x84, 0xbd, 0xa7, 0xa5, 0x3e, 0x39, 0xc9, 0x9f, 0x48, 0xbd, 0x2b, 0xda, 0x05, 0xbd, 0x3f, 0x9d, 0xbc, 0x3d, 0xb6, 0xc5, 0x04, 0xbd, 0x71, 0x0e, 0xdf, 0xbd, 0x62, 0x0d, 0x7e, 0xbc, 0x40, 0x17, 0x2b, 0xbd, 0x29, 0x2c, 0x96, 0xbd, 0xfe, 0xca, 0xc2, 0x3d, 0xd0, 0x35, 0x23, 0xbb, 0xcf, 0x18, 0x33, 0xbc, 0x29, 0x47, 0x04, 0x3d, 0x42, 0x91, 0x3a, 0xbb, 0x50, 0x9c, 0xdf, 0xbc, 0xa0, 0x3f, 0x61, 0x3c, 0x4e, 0x15, 0xba, 0x3d, 0x8a, 0x34, 0x2b, 0xbd, 0xf3, 0x03, 0x2a, 0x3c, 0x4a, 0xcd, 0xcb, 0x3d, 0x80, 0xea, 0x9d, 0x39, 0xc7, 0x29, 0x50, 0xbc, 0x81, 0x65, 0xc0, 0x3d, 0xae, 0xb3, 0x15, 0xbd, 0x0b, 0x50, 0x71, 0xbd, 0x6a, 0xf9, 0xfb, 0x3c, 0x51, 0xec, 0x61, 0xbd, 0x20, 0x12, 0xa0, 0xbd, 0xd9, 0x5f, 0xd0, 0x3c, 0x57, 0xf2, 0xbf, 0xbc, 0x41, 0xad, 0x30, 0xbc, 0x30, 0xc5, 0x31, 0x3d, 0x33, 0x7c, 0xba, 0xbd, 0x3f, 0xf2, 0xb9, 0xbd, 0x1a, 0x82, 0xa6, 0x3d, 0x7d, 0xda, 0x1f, 0x3d, 0xef, 0x53, 0x9e, 0x3c, 0xfc, 0x34, 0x82, 0xbb, 0x79, 0xea, 0x09, 0xbd, 0xc0, 0xf8, 0x9a, 0x3c, 0x70, 0x16, 0x94, 0x3d, 0xb6, 0xf2, 0x2f, 0xbb, 0x5d, 0xdb, 0xe1, 0xbc, 0x69, 0xb5, 0x9a, 0x3c, 0xc3, 0x74, 0x5a, 0x3d, 0x26, 0x8b, 0x08, 0xbd, 0x29, 0x97, 0xce, 0x3d, 0x5d, 0xc4, 0x3d, 0xbd, 0x47, 0xb7, 0x93, 0x3c, 0xfa, 0x17, 0xa8, 0x3d, 0x5e, 0xe1, 0xbc, 0x3c, 0x97, 0x1b, 0x46, 0xbd, 0x97, 0xaa, 0x9d, 0x3d, 0xfa, 0x7d, 0x1b, 0x3b, 0x1d, 0x40, 0x4b, 0xbd, 0x45, 0xbe, 0x38, 0xbc, 0x92, 0x0d, 0x06, 0x3d, 0x77, 0x84, 0x92, 0xbd, 0xc2, 0x5d, 0x99, 0x3d, 0x69, 0x47, 0x4e, 0x3c, 0x3f, 0x36, 0x94, 0xbd, 0x17, 0xe0, 0xfa, 0x3c, 0x3e, 0x22, 0x71, 0x3c, 0xcf, 0x86, 0x9b, 0x3c, 0x6e, 0xb8, 0xa7, 0x3d, 0x09, 0x4c, 0x36, 0xbd, 0xd0, 0xcd, 0x4d, 0xbd, 0x60, 0x7c, 0x3f, 0x3a, 0xd9, 0xa8, 0x10, 0xbd, 0x7b, 0x1e, 0x9e, 0xbd, 0x9c, 0xc9, 0xbb, 0x3c, 0x40, 0x10, 0x9c, 0x3c, 0xa8, 0x84, 0x87, 0xbd, 0x5f, 0x76, 0x4b, 0x3d, 0x04, 0x59, 0x24, 0xbd, 0x70, 0x54, 0x6c, 0xbd, 0xa3, 0x79, 0x80, 0x3a, 0x34, 0x96, 0x64, 0xbc, 0xaa, 0xcb, 0xdc, 0xbc, 0x19, 0x74, 0xac, 0x3d, 0xf3, 0xb6, 0x54, 0xbc, 0x35, 0x23, 0x95, 0xbc, 0x08, 0x5f, 0x28, 0x3c, 0xc8, 0x76, 0x9f, 0xbd, 0xa5, 0x30, 0xf7, 0x3c, 0x18, 0x4c, 0x36, 0x3d, 0x39, 0xcd, 0x06, 0xbd, 0x4a, 0x71, 0xbe, 0xbc, 0xb4, 0xea, 0x92, 0x3c, 0xf9, 0xa8, 0x3c, 0xbd, 0x25, 0x5d, 0xf8, 0xbc, 0xc9, 0x00, 0x25, 0x3d, 0xeb, 0x54, 0xd8, 0x3c, 0xb0, 0x01, 0x43, 0x3c, 0x98, 0x96, 0xbe, 0x3d, 0xeb, 0xdd, 0x16, 0xbd, 0x6d, 0x62, 0xf8, 0xbc, 0x32, 0x64, 0xd1, 0x3d, 0xe9, 0xba, 0x09, 0xbd, 0xeb, 0x61, 0xab, 0x3b, 0xcb, 0xd4, 0xc3, 0x3d, 0xa9, 0x6f, 0x95, 0xbc, 0x0a, 0x09, 0x57, 0x3d, 0x2e, 0x6a, 0x5a, 0xbc, 0xa0, 0x1e, 0x6b, 0x3d, 0x50, 0xf1, 0x89, 0x3c, 0xdd, 0xc7, 0xc7, 0x3d, 0x12, 0x28, 0x08, 0xbd, 0x22, 0x35, 0x24, 0x3d, 0x6e, 0xec, 0x09, 0x3d, 0xf7, 0x48, 0xa4, 0xbc, 0x51, 0xbc, 0xc6, 0xbc, 0x5a, 0x80, 0x59, 0x3d, 0x58, 0x54, 0x46, 0x3d, 0xd9, 0xf7, 0x71, 0x3c, 0x55, 0x67, 0xd1, 0x3b, 0x9b, 0x5f, 0x07, 0x3c, 0x2a, 0x7e, 0xb6, 0xbd, 0xf2, 0x9f, 0xe6, 0xbb, 0x43, 0x29, 0x31, 0x3b, 0x2c, 0xab, 0xef, 0xbc, 0x06, 0x47, 0xe4, 0x3c, 0x7f, 0x79, 0x20, 0xbd, 0xf5, 0x0d, 0xd0, 0xbc, 0xdc, 0xd9, 0x3a, 0x3d, 0x5b, 0x6a, 0x22, 0xbb, 0xeb, 0xb5, 0xdb, 0xbd, 0x42, 0xf9, 0xbc, 0x3d, 0x4d, 0x4a, 0x48, 0x3d, 0x8b, 0xb7, 0x4e, 0xbd, 0x4b, 0xff, 0xbb, 0x3d, 0xb1, 0x9f, 0x1f, 0x3d, 0xbe, 0xe2, 0xaa, 0xbd, 0xc9, 0x0c, 0xab, 0x3c, 0xda, 0x00, 0xa7, 0x3c, 0x30, 0xe3, 0x83, 0xbd, 0xc5, 0x44, 0xfe, 0x3c, 0x93, 0x5c, 0x7b, 0x3d, 0xfc, 0xce, 0x9c, 0xbd, 0x96, 0x27, 0x9d, 0x3d, 0x3a, 0x57, 0x67, 0x3d, 0x66, 0x33, 0x4f, 0xbd, 0x69, 0xfc, 0x3e, 0x3d, 0x96, 0x14, 0x7c, 0x3d, 0x59, 0x98, 0xda, 0xbd, 0x0b, 0xff, 0x4b, 0x3d, 0x82, 0xe0, 0xfe, 0x3c, 0x34, 0x8b, 0xdf, 0xbd, 0xdf, 0x67, 0x4f, 0xbb, 0xe2, 0x1b, 0x74, 0x3d, 0xb2, 0x6e, 0x50, 0xbd, 0x4e, 0x66, 0x9e, 0x3d, 0x14, 0xea, 0x1c, 0x3d, 0x3a, 0x57, 0x04, 0xbd, 0x5d, 0x85, 0x65, 0x3d, 0xa1, 0xaa, 0x05, 0x3d, 0x27, 0x10, 0x23, 0xbd, 0xaa, 0xba, 0x46, 0x3d, 0xeb, 0xcc, 0x3a, 0x3d, 0x82, 0x9d, 0xb3, 0xbb, 0xa1, 0x63, 0x59, 0xbd, 0x9a, 0x61, 0x1a, 0x3d, 0x61, 0x3f, 0x7c, 0xbd, 0x7b, 0x20, 0xc4, 0xbc, 0x8a, 0x7b, 0xbc, 0x3d, 0x99, 0x14, 0x05, 0xbd, 0xea, 0x9d, 0xb2, 0x3c, 0xf2, 0xac, 0x1d, 0x3d, 0xc6, 0x36, 0x2e, 0x3d, 0xa0, 0xea, 0xc6, 0xbc, 0x5b, 0xa8, 0xb3, 0x3d, 0xab, 0x94, 0x18, 0x3d, 0x01, 0x9f, 0xf9, 0x39, 0x80, 0x05, 0xfc, 0x3c, 0x54, 0x28, 0x1a, 0x3d, 0x2e, 0xd8, 0xe3, 0x3c, 0x9e, 0xa9, 0xa8, 0x3d, 0x01, 0x15, 0x91, 0xbc, 0xe0, 0x27, 0x31, 0x3c, 0xb7, 0x6f, 0x41, 0x3c, 0x09, 0x5d, 0xb7, 0xbc, 0x60, 0x45, 0x13, 0xbb, 0xdb, 0xc7, 0xaa, 0x3a, 0x68, 0xf2, 0xae, 0xbc, 0x9a, 0x21, 0x8d, 0xbd, 0x9f, 0x35, 0xc8, 0x3d, 0x65, 0x8a, 0x97, 0x3a, 0x83, 0xce, 0x10, 0x3d, 0xea, 0x7f, 0x5c, 0x3b, 0xef, 0xec, 0xe9, 0x3c, 0x25, 0xaf, 0xc7, 0xbc, 0x9f, 0xe7, 0x9c, 0x3d, 0xce, 0xe1, 0xb6, 0x3c, 0x9a, 0x65, 0x15, 0xbc, 0x98, 0x14, 0xb3, 0x3d, 0x26, 0x63, 0x21, 0x3d, 0xc5, 0xbe, 0x41, 0x3a, 0x32, 0xd0, 0x22, 0x3d, 0x2c, 0xe8, 0x9b, 0x3c, 0xfa, 0x64, 0xad, 0xbb, 0x54, 0x61, 0xd8, 0x3c, 0xef, 0x04, 0xcd, 0x3c, 0xcb, 0x48, 0x3c, 0x3c, 0xfb, 0x34, 0xc1, 0x3d, 0x2e, 0x1d, 0x27, 0xbd, 0x6c, 0xfd, 0x41, 0xbd, 0x4e, 0xc5, 0xbd, 0x3b, 0x21, 0x25, 0x23, 0x3c, 0x66, 0xd9, 0x90, 0x3c, 0xc8, 0xde, 0x7f, 0x3d, 0xc3, 0x21, 0x95, 0x3c, 0xe8, 0x01, 0x1d, 0xbd, 0xa1, 0xa1, 0x6b, 0x3d, 0xd3, 0xd7, 0x79, 0xbd, 0xfb, 0xf3, 0xe7, 0x3b, 0x88, 0x7b, 0x7f, 0x3b, 0x8a, 0x9c, 0x59, 0xbd, 0xad, 0xa2, 0x39, 0x3d, 0x35, 0x05, 0x21, 0x3d, 0x06, 0x58, 0x47, 0x3c, 0x06, 0x12, 0x84, 0x3c, 0x83, 0x0b, 0x77, 0x3d, 0x61, 0x41, 0x15, 0x3d, 0xb8, 0x13, 0xf3, 0x3c, 0x9c, 0xf2, 0xde, 0x3d, 0x81, 0x5d, 0x4f, 0x3b, 0xa0, 0x11, 0x3a, 0xbd, 0x7e, 0xd8, 0xde, 0x3d, 0x83, 0x29, 0xbc, 0x3c, 0xe4, 0xd7, 0x61, 0xbd, 0xbb, 0x34, 0xcc, 0x3d, 0x74, 0x0a, 0x48, 0x3d, 0x82, 0x1e, 0x9f, 0xb9, 0xe4, 0xe2, 0xde, 0x3d, 0xf6, 0xf5, 0x89, 0x3d, 0x62, 0xb6, 0xb2, 0x3c, 0xd4, 0x15, 0xc4, 0x3c, 0xef, 0xfc, 0xb0, 0xbb, 0xcb, 0xb5, 0x4f, 0xbd, 0x8f, 0xa1, 0x57, 0x3d, 0xc6, 0xb1, 0xc3, 0x3d, 0x7a, 0x76, 0xaa, 0xbc, 0x7c, 0x8b, 0xb9, 0x3d, 0xf6, 0x14, 0x7b, 0x3d, 0x1c, 0x06, 0xa5, 0xbd, 0xbd, 0x61, 0x8d, 0x3c, 0xc8, 0x0b, 0x1f, 0x3d, 0xab, 0xa5, 0x8d, 0x3b, 0xfc, 0x7f, 0x06, 0x3d, 0x1f, 0xa8, 0xcd, 0x3d, 0xaa, 0x4e, 0x90, 0xbc, 0x73, 0x33, 0x83, 0x3d, 0xa5, 0x1a, 0xbe, 0x3a, 0xac, 0x73, 0x42, 0xbd, 0x21, 0x4e, 0x8e, 0x3d, 0x1a, 0x38, 0x34, 0x3d, 0x59, 0xab, 0x99, 0xbb, 0x9b, 0x28, 0x93, 0x3d, 0x7c, 0x9d, 0xb9, 0x3d, 0x1c, 0x1b, 0x21, 0x3d, 0x09, 0x08, 0x5e, 0x3c, 0x14, 0x2c, 0x99, 0x3c, 0x8f, 0x74, 0x20, 0xbd, 0x43, 0xd8, 0x12, 0x3d, 0x85, 0x86, 0xb1, 0x3d, 0xe7, 0x3a, 0x13, 0x3b, 0x38, 0x96, 0xd7, 0x3d, 0x7d, 0x5e, 0xfa, 0x3a, 0x01, 0x8d, 0x4c, 0x3c, 0xc9, 0x07, 0x90, 0x3d, 0x67, 0x2f, 0x6a, 0x3d, 0x82, 0x83, 0x33, 0x3c, 0xfe, 0xdf, 0x00, 0x3c, 0x92, 0x73, 0x5d, 0x3c, 0x2c, 0x6f, 0xbc, 0xbd, 0x98, 0x0f, 0x6e, 0x3d, 0x47, 0x40, 0x5e, 0x3d, 0xfe, 0x97, 0xe2, 0x3b, 0xd8, 0x48, 0x54, 0x3c, 0x82, 0xb9, 0x2e, 0x3d, 0x1a, 0x26, 0x55, 0xbd, 0x0f, 0xc8, 0xc4, 0x3d, 0x76, 0xc1, 0x09, 0xbc, 0xa2, 0x94, 0xd7, 0x3c, 0x25, 0xbb, 0x42, 0x3d, 0x34, 0x5e, 0xad, 0x3d, 0x55, 0x51, 0x67, 0x3a, 0x4a, 0xa7, 0xdf, 0x3d, 0xec, 0x96, 0xb8, 0x3d, 0x03, 0x66, 0xde, 0x3c, 0x17, 0x73, 0x1c, 0x3d, 0x9d, 0xab, 0x60, 0x3d, 0xa6, 0xd9, 0x49, 0x3d, 0x44, 0x3f, 0x72, 0x3d, 0x33, 0xf0, 0xbe, 0xbb, 0x03, 0xcc, 0x0e, 0x3c, 0x07, 0x8c, 0xfb, 0x3d, 0xb5, 0xba, 0xdd, 0x3b, 0x87, 0xac, 0xf2, 0xbc, 0xb6, 0x7b, 0xd5, 0x3c, 0x76, 0x8c, 0x2c, 0xbb, 0x00, 0x91, 0x0b, 0xbd, 0xfc, 0x09, 0xcd, 0x3d, 0x6d, 0xea, 0xac, 0x3c, 0xff, 0x2f, 0x71, 0xbd, 0xe2, 0x89, 0xa7, 0x3d, 0x7c, 0xbc, 0x96, 0x3c, 0xa9, 0xd7, 0xa1, 0xbd, 0xba, 0xb1, 0xbb, 0x3d, 0x79, 0x20, 0xc8, 0xbd, 0xd9, 0xa5, 0x08, 0x3c, 0x09, 0x10, 0x44, 0x3d, 0x83, 0x9b, 0xeb, 0xbc, 0x3b, 0x98, 0xa4, 0xba, 0x84, 0xe9, 0x13, 0x3d, 0x45, 0xf3, 0xd2, 0xbc, 0x6a, 0x56, 0xbe, 0x3c, 0xcc, 0xf0, 0x19, 0xbd, 0xb7, 0x9a, 0x89, 0xbd, 0x17, 0x13, 0x51, 0x3d, 0x38, 0x1a, 0x6f, 0xbb, 0x0c, 0xda, 0xff, 0xbb, 0x8f, 0x3b, 0x6b, 0xbc, 0xc0, 0xff, 0x8d, 0x3c, 0xdc, 0xad, 0x89, 0xbd, 0x3e, 0x29, 0x77, 0xbc, 0x06, 0x8b, 0xf1, 0x3c, 0x85, 0xed, 0x9b, 0xbd, 0x84, 0xb5, 0x11, 0xbd, 0x21, 0x7c, 0x55, 0xbc, 0x2e, 0x82, 0xe7, 0x3a, 0xfd, 0x54, 0x7a, 0xbd, 0x32, 0x19, 0xcf, 0xbd, 0xd3, 0xae, 0xe6, 0x3c, 0xc9, 0x0f, 0x28, 0x3d, 0x64, 0x54, 0x9a, 0x3c, 0x9b, 0x01, 0xb6, 0x3c, 0xbc, 0x4e, 0x5b, 0xbd, 0x61, 0x3b, 0x2d, 0xbd, 0x8a, 0xbb, 0x07, 0x3d, 0x33, 0xc4, 0x3d, 0x3d, 0xd7, 0x71, 0xe4, 0x3b, 0xac, 0xb3, 0x9d, 0xbd, 0x57, 0xa4, 0x29, 0x3d, 0x40, 0x28, 0xc5, 0x3c, 0x64, 0x49, 0xa0, 0xbd, 0x30, 0x58, 0x2a, 0xbc, 0x45, 0xbe, 0x3a, 0xbd, 0x65, 0x8f, 0xca, 0x3c, 0x1f, 0xaa, 0x51, 0xbd, 0x8c, 0xb3, 0x98, 0xbd, 0x1b, 0x15, 0x51, 0xbd, 0xe6, 0xdd, 0x85, 0xb9, 0x97, 0x24, 0xa7, 0xbd, 0x33, 0x7f, 0x19, 0xbb, 0x13, 0x3b, 0x88, 0xbc, 0xc8, 0xe6, 0xb7, 0xbd, 0xc5, 0x9b, 0xf7, 0x3b, 0x81, 0x68, 0xbb, 0xbc, 0xe7, 0xb9, 0xa9, 0xbd, 0x3d, 0x1a, 0x42, 0x3c, 0xf6, 0xe0, 0x46, 0xbd, 0xcb, 0xd6, 0xde, 0xbd, 0x4e, 0xcd, 0xef, 0xbb, 0x29, 0x40, 0x65, 0xbd, 0xad, 0xbe, 0x7e, 0xbd, 0x7f, 0x45, 0x5d, 0x3c, 0xb9, 0x5c, 0x86, 0x3c, 0x04, 0xea, 0xa6, 0xbc, 0xf0, 0xff, 0x14, 0x3d, 0x49, 0x84, 0xe0, 0x3b, 0x01, 0x72, 0xab, 0xbc, 0x99, 0x23, 0x89, 0xbd, 0x2e, 0x62, 0x46, 0xbc, 0xf8, 0xc7, 0x42, 0xbd, 0x65, 0xc3, 0xb6, 0x3b, 0xe2, 0x5a, 0x4c, 0x3d, 0x3e, 0x6d, 0x8e, 0xbb, 0xd0, 0x00, 0x42, 0x3c, 0x58, 0xea, 0x94, 0xbd, 0x61, 0xcf, 0x83, 0x3b, 0x32, 0x92, 0x87, 0xbc, 0x1d, 0x01, 0xe4, 0x3c, 0x3c, 0x3d, 0xb6, 0xbd, 0x8b, 0x8e, 0x48, 0xbc, 0x56, 0x85, 0x93, 0x3c, 0x61, 0x98, 0x47, 0xbc, 0x5e, 0x87, 0x20, 0xbc, 0x0f, 0x71, 0x26, 0xbc, 0xfa, 0x6e, 0x3e, 0xbd, 0x0e, 0xeb, 0x15, 0xbd, 0xae, 0x8d, 0xa1, 0xbc, 0x28, 0xe1, 0xc0, 0xbd, 0xa0, 0xf1, 0x8f, 0x3c, 0x81, 0xb9, 0xfd, 0xbc, 0x76, 0x24, 0xc6, 0xbb, 0x61, 0x03, 0xa4, 0xbd, 0x2b, 0x7a, 0xaf, 0xbc, 0x6c, 0xb6, 0xa1, 0xbd, 0x6e, 0xcc, 0x8a, 0x3c, 0x13, 0xb0, 0xc7, 0xbc, 0xcc, 0xef, 0x91, 0xbd, 0x78, 0x84, 0xb1, 0xbc, 0x65, 0xfc, 0x7c, 0xbc, 0x33, 0xd4, 0x90, 0xbd, 0x8a, 0x0b, 0xfd, 0x3b, 0x2c, 0x2a, 0x08, 0x3c, 0xf5, 0x97, 0x5b, 0xbd, 0xb6, 0x72, 0xc8, 0xbc, 0xd8, 0x4d, 0xb9, 0xbc, 0x6f, 0x00, 0xb8, 0xbd, 0xe9, 0x32, 0x16, 0x3c, 0x17, 0xd0, 0x61, 0x3d, 0x0e, 0xb1, 0x30, 0xbd, 0xf4, 0x07, 0xe3, 0xbc, 0x63, 0x82, 0x26, 0xbd, 0x1f, 0xf7, 0x43, 0xbd, 0x67, 0x17, 0x03, 0x3d, 0x9a, 0xd8, 0x74, 0xbd, 0x25, 0x0d, 0xdb, 0xbd, 0x71, 0x39, 0xb4, 0xbd, 0x37, 0x6a, 0xe8, 0x3c, 0x7a, 0xd6, 0x52, 0xbd, 0xf3, 0xf6, 0xc4, 0xbc, 0x86, 0x3c, 0x52, 0x3d, 0x22, 0x65, 0x92, 0xbd, 0x7e, 0x0e, 0x23, 0xbb, 0x25, 0xdc, 0x15, 0xbd, 0xec, 0xcd, 0xcf, 0xbd, 0xf5, 0xc8, 0xd3, 0xbc, 0x7a, 0x8e, 0xc6, 0xbb, 0xf7, 0xb5, 0x1a, 0x3c, 0x1a, 0x4c, 0x9e, 0xbc, 0xfe, 0x28, 0x39, 0x3d, 0x3a, 0x89, 0x8d, 0xbb, 0xaf, 0x30, 0xd0, 0x3c, 0x08, 0x07, 0x04, 0xbd, 0x6b, 0x92, 0x30, 0x3c, 0x33, 0xa4, 0x4b, 0xbd, 0xaf, 0x4a, 0xe9, 0x3c, 0xfb, 0x42, 0xba, 0xbd, 0x70, 0x43, 0xc2, 0x3c, 0xe9, 0xab, 0x00, 0xbd, 0x14, 0x25, 0xda, 0xbc, 0x99, 0xd9, 0x8f, 0x3c, 0x5f, 0x5e, 0x17, 0xba, 0x98, 0x74, 0xa8, 0xbc, 0x24, 0x01, 0x8b, 0xbd, 0xb4, 0x9a, 0x6d, 0x3d, 0xb7, 0xe8, 0x9e, 0xbd, 0x1d, 0x97, 0x0b, 0xbd, 0xe7, 0x03, 0x49, 0x3b, 0x26, 0x8d, 0x87, 0xbd, 0xf5, 0x03, 0x4f, 0xbc, 0xf5, 0x97, 0xd7, 0xba, 0xe0, 0xb7, 0x5f, 0xbd, 0xfa, 0x70, 0x55, 0x3b, 0xda, 0x01, 0x29, 0x3d, 0x6b, 0xd3, 0x87, 0x3c, 0xb3, 0x69, 0x6f, 0xbc, 0x67, 0xa2, 0xa9, 0x3c, 0x7d, 0xc8, 0xd2, 0x3c, 0x86, 0xb1, 0xad, 0x3b, 0x42, 0xdf, 0x32, 0x3d, 0x51, 0x48, 0xac, 0xbb, 0xc7, 0xef, 0x09, 0xbc, 0x6c, 0x2a, 0x63, 0xbd, 0xf8, 0xde, 0xa8, 0xbc, 0x17, 0xc7, 0x84, 0x3d, 0xfc, 0xd6, 0x09, 0x3d, 0xa0, 0x50, 0x83, 0xbd, 0xbb, 0xb2, 0xc9, 0xbc, 0xbb, 0xb3, 0x3a, 0xbc, 0x34, 0x67, 0x52, 0xbd, 0x5a, 0x3a, 0x1e, 0x3d, 0xfd, 0xf5, 0x66, 0x3d, 0xa3, 0xda, 0xb3, 0xbc, 0x3f, 0x2f, 0x27, 0xbd, 0xff, 0xe5, 0x61, 0x3d, 0xd6, 0xb3, 0xcc, 0xbd, 0x5c, 0xfd, 0x77, 0x3d, 0x4a, 0x60, 0x92, 0xbb, 0xdd, 0xc7, 0xbd, 0xbd, 0xc4, 0x9e, 0x33, 0x3d, 0x97, 0x7b, 0x51, 0x3b, 0x91, 0xe3, 0xac, 0xbb, 0x57, 0x6b, 0xea, 0xbc, 0x63, 0x9c, 0xe4, 0x3b, 0x66, 0xde, 0xcd, 0x3a, 0xe5, 0x73, 0x8c, 0xbc, 0x07, 0x74, 0x33, 0x3c, 0xfe, 0x66, 0x97, 0xbc, 0x76, 0x03, 0x1b, 0xbd, 0x1f, 0xf7, 0x26, 0xbd, 0xdf, 0x2e, 0x0f, 0xbd, 0x7e, 0x60, 0x75, 0x3a, 0xfa, 0xbd, 0xa9, 0x3b, 0x14, 0x74, 0xae, 0xbd, 0x18, 0x6c, 0x47, 0x3c, 0xee, 0x92, 0x0d, 0x3d, 0x12, 0x1b, 0xcf, 0xbd, 0xe4, 0xa7, 0x2c, 0x3c, 0x47, 0xd4, 0x21, 0xbd, 0x99, 0x13, 0xee, 0xbb, 0xd1, 0x22, 0xe5, 0xbc, 0x63, 0xda, 0x90, 0x3c, 0x47, 0x29, 0x9c, 0xbd, 0x6e, 0x28, 0x56, 0x3b, 0x1f, 0x67, 0x4f, 0xbc, 0x42, 0xf7, 0x1e, 0xbc, 0xd5, 0xe0, 0xee, 0x3c, 0x40, 0x15, 0x39, 0xbd, 0xd0, 0xb8, 0xaa, 0xbd, 0x6a, 0xb9, 0x06, 0x3d, 0xc5, 0x90, 0x35, 0x3c, 0x72, 0x26, 0xeb, 0xbc, 0x09, 0xe3, 0x8c, 0x3d, 0x18, 0x52, 0x41, 0x3d, 0x98, 0x2d, 0x55, 0xbc, 0x49, 0x11, 0x3d, 0x3d, 0x7e, 0x7b, 0x08, 0x3d, 0xf6, 0xd2, 0xb6, 0xbd, 0x53, 0x3d, 0xbc, 0x3c, 0xde, 0xa9, 0x4f, 0xba, 0x67, 0x37, 0xad, 0xbd, 0xbe, 0x10, 0x58, 0x3d, 0x97, 0xd7, 0x37, 0xbc, 0xcf, 0x55, 0xa9, 0xbc, 0xc3, 0x3d, 0x77, 0x3d, 0xf7, 0x37, 0x75, 0x3c, 0x10, 0xe0, 0x38, 0xbd, 0x1a, 0xfa, 0x80, 0x3c, 0x77, 0x82, 0x8f, 0x3d, 0xf4, 0x76, 0xb8, 0xbd, 0xca, 0x89, 0x05, 0x3d, 0x03, 0x18, 0xb0, 0x3c, 0x4e, 0xb6, 0x9a, 0xbd, 0xd4, 0x42, 0x13, 0x3d, 0x88, 0x22, 0xdf, 0xbc, 0x16, 0x74, 0xc1, 0xbd, 0x70, 0x0d, 0xa9, 0x3d, 0x5a, 0x60, 0x61, 0xbc, 0xe2, 0xe5, 0x83, 0xbd, 0x4d, 0xfe, 0x1c, 0x3d, 0x84, 0x5b, 0x28, 0x3d, 0x4a, 0x47, 0xa8, 0xbd, 0xf4, 0xd1, 0x0a, 0xbd, 0x64, 0x7a, 0xdc, 0x3c, 0x3e, 0x2b, 0xd1, 0xbd, 0x65, 0x0c, 0x6b, 0xbc, 0x30, 0xfa, 0x9e, 0x3c, 0xa9, 0x7f, 0x16, 0xbc, 0x76, 0xbc, 0x80, 0xbd, 0xc3, 0x50, 0x77, 0x3c, 0x92, 0x7b, 0x86, 0xbc, 0x39, 0xac, 0x0c, 0xbd, 0x0a, 0x7f, 0xef, 0xbc, 0xf4, 0x79, 0x98, 0xbc, 0x64, 0xbb, 0x85, 0xbc, 0xe7, 0x86, 0x9a, 0x3d, 0x90, 0x21, 0x12, 0xbc, 0x82, 0x0c, 0xc0, 0x3c, 0xb0, 0xc3, 0xba, 0x3b, 0xf9, 0xde, 0xde, 0xbd, 0x54, 0x05, 0x84, 0xbc, 0x03, 0x7e, 0xeb, 0xbb, 0x72, 0x89, 0xf3, 0xbd, 0x97, 0xe4, 0xc8, 0xbc, 0xf3, 0xcd, 0x65, 0xbb, 0x76, 0x53, 0x4a, 0xbd, 0xa5, 0x03, 0x09, 0x3c, 0x21, 0x91, 0x1f, 0x3d, 0x18, 0x34, 0xe8, 0xbd, 0x8c, 0x2b, 0x43, 0xbc, 0x90, 0xff, 0x87, 0x3d, 0xfe, 0xc5, 0x7a, 0xbd, 0x77, 0xc0, 0x0d, 0x3c, 0xca, 0xca, 0xc6, 0xbc, 0xb3, 0xc2, 0x7c, 0xbd, 0x49, 0xba, 0x78, 0x3d, 0x89, 0x7c, 0x25, 0xbc, 0x81, 0x80, 0xdc, 0xbd, 0xec, 0x73, 0x52, 0xbd, 0xde, 0xbd, 0x18, 0xbc, 0x1f, 0xbd, 0xd5, 0xbb, 0xa2, 0xa5, 0x83, 0xbd, 0xf2, 0x9d, 0x22, 0xbb, 0xb4, 0x24, 0xb8, 0xbd, 0xd4, 0x94, 0x53, 0xbc, 0x69, 0xca, 0xf8, 0x3c, 0x2f, 0x91, 0xb3, 0xbd, 0xa7, 0x0e, 0x22, 0xbd, 0xfc, 0xe2, 0x2a, 0x3d, 0x72, 0x93, 0x82, 0xbd, 0x0d, 0x39, 0x82, 0xbd, 0xa2, 0xd2, 0x4a, 0x3d, 0xa8, 0xcf, 0xbc, 0xbd, 0x08, 0x6f, 0x17, 0x3b, 0x38, 0x2b, 0x1d, 0xbc, 0x6c, 0x7b, 0xd5, 0xbc, 0x13, 0xf7, 0x99, 0xbc, 0x42, 0x5a, 0xab, 0xbc, 0xc5, 0xa3, 0xc8, 0xbd, 0x43, 0xe5, 0x57, 0x3c, 0xea, 0x11, 0x9a, 0x3d, 0x3a, 0xa1, 0x73, 0xbd, 0xb9, 0x15, 0x48, 0x3d, 0xcc, 0x0e, 0x21, 0x3d, 0x6c, 0x0b, 0x8e, 0xbd, 0x49, 0xec, 0x0b, 0x3d, 0x24, 0x3d, 0xce, 0xbc, 0xf3, 0x2e, 0x5c, 0xbc, 0xca, 0x2e, 0x1a, 0xbc, 0x06, 0xf6, 0xf2, 0x3c, 0x03, 0xed, 0x6b, 0x3b, 0x41, 0x34, 0x19, 0x3d, 0x28, 0x09, 0x0d, 0x3d, 0x38, 0xee, 0x30, 0x3d, 0xe1, 0x2f, 0x96, 0x3d, 0xf6, 0x9c, 0x40, 0xbd, 0x47, 0x70, 0x2d, 0x3d, 0x3e, 0x4c, 0x37, 0x3d, 0x8a, 0x25, 0x25, 0xbd, 0xf6, 0xda, 0xd6, 0xbc, 0xea, 0xc9, 0xab, 0x3c, 0x9b, 0x1a, 0x88, 0xbd, 0xbe, 0x85, 0xbe, 0xbb, 0x58, 0xee, 0x88, 0xbc, 0xc9, 0x5c, 0x08, 0xbd, 0xf3, 0x2b, 0x4e, 0xbd, 0x86, 0xe7, 0xf6, 0xba, 0xd7, 0xa7, 0x04, 0xbc, 0x4f, 0x42, 0x02, 0xbd, 0x7c, 0x5b, 0x20, 0xba, 0x71, 0x14, 0xb9, 0xbd, 0x28, 0xcd, 0xf4, 0x3b, 0x43, 0xf9, 0xe1, 0x3c, 0x28, 0x3b, 0x90, 0xbb, 0x3f, 0x49, 0xe7, 0x3b, 0xde, 0x1d, 0x56, 0x3d, 0xc6, 0x2f, 0x6a, 0xbd, 0xe2, 0x7f, 0x41, 0xbd, 0x3e, 0x53, 0x91, 0x3d, 0x53, 0xd5, 0xc2, 0xbd, 0x34, 0x91, 0x65, 0xbd, 0x69, 0x12, 0xbf, 0xbc, 0x91, 0x07, 0xb5, 0xbd, 0xc4, 0x9a, 0x32, 0xbd, 0x17, 0x81, 0x92, 0x3d, 0xbb, 0x5e, 0xb8, 0xbd, 0x58, 0x38, 0x91, 0x3c, 0x9f, 0x25, 0x28, 0x3d, 0xd2, 0x8c, 0xbc, 0xbd, 0x6b, 0x6c, 0xa2, 0xbd, 0xea, 0x86, 0x97, 0x3d, 0xb1, 0xc2, 0x33, 0xbd, 0xa5, 0x4c, 0xc8, 0x3b, 0x36, 0xf2, 0xed, 0xbc, 0x23, 0x2a, 0x91, 0xbd, 0xc5, 0x5c, 0x09, 0xbb, 0x7f, 0x95, 0xc7, 0xbc, 0x75, 0x5e, 0xdd, 0xbd, 0x35, 0x67, 0x8f, 0xbd, 0xbc, 0x3f, 0x3e, 0x3c, 0xde, 0xe2, 0x87, 0xbc, 0x13, 0x49, 0x51, 0xbd, 0xbb, 0x42, 0xfb, 0x3b, 0xeb, 0xf2, 0xca, 0xbd, 0xeb, 0xe2, 0x34, 0xbc, 0x9c, 0xc4, 0x94, 0x3d, 0x3f, 0xcd, 0x95, 0xbc, 0x34, 0x03, 0x0b, 0xbd, 0xe4, 0x1d, 0xb6, 0x3c, 0x8f, 0x9c, 0xa4, 0xbd, 0x52, 0x0b, 0x9f, 0x3c, 0xfe, 0xbe, 0xe5, 0xbc, 0x06, 0xf7, 0xf5, 0xba, 0x8f, 0x8e, 0xc5, 0xbc, 0x25, 0x4b, 0x3d, 0x3d, 0x2c, 0xfa, 0xc3, 0xbc, 0xa0, 0xed, 0xa9, 0xbb, 0xfc, 0x1b, 0xed, 0x3c, 0x88, 0x70, 0xb2, 0xbc, 0x30, 0xeb, 0xc9, 0xbc, 0x93, 0xde, 0x8a, 0x3c, 0x6f, 0x3c, 0xa0, 0xbd, 0x4a, 0x5f, 0x65, 0xbd, 0xd7, 0xcd, 0x57, 0x3d, 0x6f, 0xd5, 0x9e, 0xbd, 0xe5, 0x5a, 0x7c, 0x3c, 0x4e, 0x61, 0x86, 0x3d, 0x75, 0xf6, 0x3a, 0xbd, 0x96, 0xbc, 0xc8, 0x3b, 0x76, 0x43, 0x4f, 0x3d, 0x91, 0x8e, 0x9b, 0xbb, 0x27, 0xb1, 0x13, 0x3d, 0x66, 0x8a, 0xad, 0x3d, 0xe2, 0x89, 0x1a, 0xbc, 0x9e, 0x01, 0xb6, 0x3c, 0x52, 0x91, 0x0a, 0x3d, 0xf0, 0x03, 0xeb, 0xbd, 0x39, 0x3b, 0xf2, 0xbc, 0x50, 0xf1, 0xaf, 0x3d, 0xad, 0x23, 0xbb, 0xbd, 0x45, 0x59, 0xa7, 0x3b, 0x2c, 0x36, 0x9c, 0x3c, 0xd0, 0xff, 0xba, 0xbc, 0xb6, 0x68, 0xd4, 0xbc, 0x01, 0x1a, 0x9b, 0xba, 0x08, 0x57, 0xba, 0xbb, 0x3b, 0x20, 0x18, 0x3d, 0xcc, 0x51, 0xb3, 0x3b, 0x1b, 0x4f, 0x9e, 0xba, 0xff, 0x82, 0x24, 0x3d, 0x3d, 0x03, 0x8b, 0x3d, 0xf5, 0xcf, 0xd5, 0xbd, 0x42, 0x8c, 0x55, 0x3d, 0x62, 0xdd, 0x80, 0x3d, 0xb3, 0xd1, 0xc9, 0xbd, 0xa3, 0x80, 0x20, 0xbc, 0x07, 0x66, 0xd8, 0xbc, 0x4c, 0xfb, 0x74, 0xbd, 0xec, 0xd3, 0xb9, 0x3c, 0x34, 0x2c, 0xa0, 0x3c, 0xaf, 0xc0, 0x57, 0xbd, 0x9e, 0x7e, 0x49, 0xbb, 0xc4, 0x9f, 0xc0, 0xbc, 0x04, 0x68, 0xe5, 0xbc, 0xc6, 0x37, 0x49, 0xbc, 0xde, 0x19, 0x80, 0x3d, 0x3b, 0x00, 0x3b, 0xbd, 0xc1, 0x63, 0x97, 0xbb, 0x00, 0x02, 0x6a, 0x3d, 0x6c, 0xf3, 0xc8, 0xbd, 0x84, 0xee, 0x1f, 0x3d, 0x77, 0x10, 0x7e, 0x3b, 0x03, 0xfa, 0xb7, 0xbd, 0xa8, 0xd0, 0x27, 0x3d, 0x2a, 0xb7, 0x69, 0x3c, 0xd4, 0xa0, 0x42, 0xbd, 0xdc, 0xd8, 0x20, 0x3d, 0x6f, 0xea, 0xad, 0x3d, 0xbe, 0x58, 0xb8, 0xbd, 0x39, 0x41, 0x27, 0xbd, 0xb0, 0xf5, 0x82, 0xbc, 0x29, 0xea, 0xac, 0xbd, 0x87, 0x76, 0x3a, 0x3b, 0xfa, 0xa3, 0xa1, 0x3d, 0xbd, 0xb4, 0xaa, 0xbd, 0xc6, 0xd3, 0x55, 0xbc, 0xa7, 0x3e, 0x65, 0x3c, 0x45, 0x0d, 0x06, 0xbd, 0xae, 0x1f, 0x63, 0xbd, 0x01, 0xad, 0x5a, 0x3d, 0x06, 0x37, 0x39, 0x38, 0xb4, 0x95, 0xca, 0xbb, 0x6b, 0xc7, 0x13, 0x3d, 0x3f, 0x07, 0x1f, 0xbd, 0x34, 0xf3, 0xf9, 0x3c, 0x63, 0x39, 0x4c, 0x3d, 0x1a, 0x10, 0x97, 0xbd, 0xd9, 0x37, 0xbe, 0xbd, 0x97, 0x5e, 0x02, 0x3d, 0xbf, 0x6a, 0xcb, 0xbd, 0xac, 0x4f, 0xbe, 0xbd, 0x13, 0x35, 0x0a, 0xbc, 0xd3, 0xbe, 0xac, 0xbd, 0xc2, 0x03, 0x79, 0xbd, 0xff, 0x1c, 0x0c, 0xbd, 0xc2, 0xdf, 0xd8, 0xbc, 0x0c, 0x61, 0xa9, 0xbc, 0x9b, 0x3a, 0x99, 0xbd, 0x2e, 0xb6, 0x76, 0xbd, 0x94, 0xf8, 0x06, 0xbd, 0xc4, 0x5b, 0x00, 0xbd, 0x99, 0x97, 0x4c, 0xbd, 0xc2, 0x00, 0xe3, 0xba, 0x43, 0x62, 0x6b, 0xbc, 0x36, 0x8b, 0x37, 0xbd, 0x62, 0xaa, 0x28, 0xbd, 0x22, 0x95, 0x69, 0xbc, 0x3e, 0x28, 0x6e, 0xbd, 0x71, 0xbe, 0x85, 0xbd, 0x62, 0x76, 0x89, 0xbd, 0x57, 0x57, 0xa7, 0xbd, 0xf4, 0xa4, 0xa9, 0x3b, 0x2c, 0x77, 0x27, 0xbd, 0x27, 0x18, 0x3b, 0xbd, 0x1c, 0x75, 0x93, 0xbc, 0x8e, 0xd3, 0x83, 0xbc, 0x69, 0xc3, 0xca, 0xbd, 0x80, 0x85, 0x82, 0xbd, 0x82, 0xd4, 0x35, 0xbd, 0x7a, 0xf0, 0xc2, 0xbc, 0xcf, 0xba, 0x58, 0xbd, 0xdd, 0x00, 0x1f, 0x3d, 0x02, 0x20, 0x29, 0xbc, 0x5a, 0x53, 0x8b, 0x3c, 0xf6, 0x09, 0xd9, 0x3c, 0xe1, 0x5d, 0x39, 0x3c, 0x5c, 0xa0, 0x8c, 0xbd, 0x82, 0x1d, 0x03, 0x3d, 0x94, 0x0c, 0xec, 0xba, 0x34, 0x73, 0x32, 0xbc, 0x5a, 0xf0, 0xca, 0xbc, 0x77, 0x5d, 0x96, 0xbc, 0x8e, 0xea, 0xc4, 0xbc, 0x2c, 0xa7, 0x94, 0xbd, 0xa9, 0x12, 0x2b, 0xbd, 0xcc, 0x94, 0x4b, 0xbc, 0x82, 0xa8, 0x84, 0xbd, 0xec, 0x14, 0xdb, 0x39, 0x57, 0x51, 0xbe, 0xbc, 0x56, 0xbc, 0x0d, 0xbd, 0x06, 0x7a, 0xea, 0xbc, 0x66, 0x61, 0x80, 0x3d, 0xa7, 0xbd, 0xf2, 0x3a, 0xd1, 0xaa, 0xc2, 0xbb, 0x67, 0x35, 0xed, 0xbb, 0x68, 0x0b, 0x1e, 0x3d, 0x2c, 0x4c, 0x18, 0x3b, 0xc9, 0x76, 0x41, 0x3d, 0xd5, 0x50, 0xeb, 0x3c, 0x9e, 0xe2, 0xdc, 0xbb, 0x52, 0x9c, 0x82, 0x3d, 0x36, 0x78, 0x07, 0x3d, 0x72, 0xa6, 0x17, 0x3d, 0x27, 0xea, 0x26, 0x3c, 0x41, 0x26, 0x5e, 0x3c, 0x2e, 0x67, 0x69, 0x3d, 0xdb, 0xb7, 0x6c, 0x3d, 0x03, 0xcb, 0x0b, 0xbd, 0x08, 0xc9, 0x22, 0xbc, 0x96, 0x7b, 0x92, 0x3d, 0xc7, 0x1e, 0x24, 0xbd, 0xc7, 0x91, 0xd1, 0x3c, 0x12, 0x20, 0x33, 0x3d, 0x4c, 0x2d, 0xb5, 0xbc, 0xcd, 0x1c, 0x8d, 0x3d, 0xc9, 0xc2, 0x70, 0x3d, 0xd9, 0x8b, 0x35, 0xbd, 0xb2, 0x1d, 0x86, 0x3c, 0xa4, 0xc4, 0xae, 0x3d, 0x4b, 0xa0, 0x16, 0x3d, 0xdf, 0x52, 0x28, 0xbc, 0xdc, 0x5c, 0xe1, 0x3c, 0xc2, 0x98, 0xa4, 0x3b, 0xda, 0x9c, 0x2c, 0x3b, 0xdc, 0x0b, 0x5b, 0x3d, 0xd3, 0x6d, 0xd5, 0x3b, 0xda, 0xfb, 0xc5, 0x3c, 0x3c, 0xbb, 0x39, 0xbb, 0x52, 0x05, 0x0f, 0xbd, 0x81, 0xcd, 0x9c, 0x3c, 0x53, 0x3c, 0xfa, 0x3b, 0x4f, 0x07, 0xb9, 0x3c, 0x50, 0x77, 0xe6, 0x3c, 0x7a, 0x1d, 0x0e, 0xbc, 0x93, 0x40, 0xc7, 0xbc, 0x76, 0xa3, 0x7c, 0x3c, 0xdf, 0x84, 0xd9, 0x3c, 0x3e, 0xc5, 0x2e, 0xbd, 0x75, 0xfc, 0x9c, 0x3d, 0xfe, 0x4e, 0xb2, 0x3d, 0xc0, 0x39, 0x5e, 0x3d, 0x03, 0xfe, 0x7f, 0x3d, 0xad, 0xf8, 0x66, 0xbc, 0xd0, 0x16, 0x58, 0xbd, 0x69, 0x5d, 0xde, 0x3b, 0x6e, 0x04, 0x86, 0xbc, 0xf0, 0xd5, 0x7d, 0x3b, 0x4a, 0xba, 0x9a, 0x3c, 0x9b, 0xf6, 0x82, 0x3c, 0x95, 0xf2, 0x07, 0x3c, 0x96, 0xfa, 0x84, 0x3d, 0x58, 0x92, 0xaf, 0x3d, 0xe5, 0xfa, 0xbf, 0xb9, 0x04, 0x4a, 0xad, 0x3d, 0xe9, 0x41, 0x9d, 0x3d, 0x34, 0x49, 0x6f, 0xbb, 0x33, 0x9e, 0x50, 0x3d, 0xb0, 0x36, 0xb0, 0x3c, 0xd1, 0xab, 0x7c, 0xbd, 0xf6, 0x13, 0xbf, 0x3c, 0x66, 0xbc, 0x82, 0x3d, 0x6b, 0x0e, 0x03, 0xbd, 0xde, 0xb2, 0x82, 0x3d, 0x72, 0x28, 0x29, 0xbd, 0xac, 0xde, 0x8e, 0xbd, 0x29, 0x17, 0x4f, 0x3d, 0x05, 0xa8, 0x96, 0xbd, 0x4e, 0x9d, 0x0e, 0xbd, 0x59, 0x11, 0xb9, 0x3d, 0x0d, 0x07, 0xac, 0xbd, 0x08, 0xb5, 0x1d, 0x3d, 0x8e, 0x9d, 0xf3, 0x3c, 0x1b, 0xad, 0x4f, 0xbd, 0xf3, 0x5a, 0xc8, 0x3c, 0x45, 0x74, 0xf4, 0x3c, 0xce, 0x05, 0xff, 0x3b, 0x7d, 0x0b, 0x64, 0xbd, 0xe8, 0xbc, 0x51, 0x3d, 0x6d, 0x5a, 0x8d, 0xbd, 0x6a, 0x57, 0xa8, 0x3b, 0xdb, 0xc9, 0x2f, 0x3b, 0x74, 0x06, 0x88, 0x3c, 0x2e, 0xfa, 0x99, 0xbd, 0x9d, 0x66, 0x8c, 0xbc, 0xcb, 0xc4, 0xbb, 0x3c, 0x76, 0xf1, 0xff, 0xff, 0x04, 0x00, 0x00, 0x00, 0x98, 0x0d, 0x00, 0x00, 0xf1, 0x66, 0x7b, 0xbd, 0x1b, 0xe3, 0x0d, 0xbe, 0x0a, 0x24, 0x83, 0x3d, 0x7f, 0xa5, 0x62, 0x3d, 0x22, 0xa0, 0xbb, 0xbc, 0x30, 0xed, 0xf1, 0x3d, 0x9a, 0xe3, 0x02, 0xbe, 0x1c, 0x0a, 0x00, 0x3d, 0x0f, 0x6e, 0xa9, 0xbd, 0xd7, 0xd2, 0x2a, 0xbe, 0xd8, 0xa1, 0xd1, 0xb9, 0xda, 0x68, 0x57, 0xbe, 0x5c, 0xd0, 0x38, 0x3e, 0xd4, 0x41, 0x17, 0xbd, 0xe0, 0x8d, 0x0b, 0xbe, 0xe6, 0x40, 0x58, 0x3e, 0xae, 0x75, 0x0b, 0xbd, 0xff, 0x37, 0xea, 0x3d, 0x3b, 0xd6, 0x20, 0xbe, 0x28, 0x99, 0xa8, 0x3d, 0x88, 0xe2, 0x5c, 0xbe, 0x01, 0xd4, 0xc2, 0xbd, 0x06, 0xa6, 0xa4, 0xbd, 0x2a, 0x1e, 0xaa, 0xbd, 0x5d, 0x13, 0xf7, 0xbd, 0x1b, 0xfb, 0x14, 0x3e, 0x7d, 0x7e, 0x8b, 0xbd, 0xe9, 0xaa, 0x32, 0xbd, 0x5a, 0x57, 0x96, 0x3b, 0xce, 0xfe, 0xab, 0x3d, 0xcb, 0x16, 0x1c, 0xbc, 0x28, 0xa6, 0x7b, 0xba, 0x23, 0xeb, 0xc1, 0x3d, 0x5e, 0x1f, 0x05, 0xbc, 0xb4, 0x35, 0xdf, 0xbd, 0x72, 0x20, 0xc5, 0x3d, 0xca, 0x1d, 0x49, 0xbd, 0x9b, 0x80, 0xb1, 0x3c, 0xd8, 0xa7, 0xf4, 0xbd, 0x78, 0xca, 0x34, 0xbe, 0x86, 0x9f, 0xf6, 0xbd, 0xb2, 0x38, 0x97, 0x3d, 0x74, 0x82, 0xe7, 0x3d, 0x8f, 0xca, 0x39, 0xbc, 0x7f, 0x68, 0x3e, 0xbe, 0xe3, 0xf2, 0x52, 0xbc, 0xa9, 0x89, 0xc6, 0x3c, 0x3a, 0x57, 0x21, 0xbd, 0xc1, 0x28, 0x17, 0xbd, 0x71, 0xa2, 0x00, 0xbd, 0xea, 0xd5, 0x89, 0x3d, 0x38, 0xd7, 0x0c, 0xbe, 0x4a, 0x31, 0x3b, 0xbc, 0xba, 0x3e, 0x29, 0x3e, 0x70, 0x3b, 0xf4, 0xbd, 0xfc, 0x51, 0x2e, 0x3e, 0x8d, 0x61, 0x34, 0xbd, 0x45, 0x4a, 0xa7, 0xbd, 0xeb, 0xe2, 0x7d, 0xbd, 0xab, 0xfe, 0x05, 0xbe, 0x3b, 0x0a, 0xc0, 0xbd, 0x54, 0x6d, 0xc9, 0x3c, 0x16, 0xcf, 0x22, 0x3e, 0xaa, 0xb7, 0x83, 0xbc, 0xe2, 0xd4, 0x3e, 0xba, 0x43, 0xa4, 0x11, 0xbd, 0x90, 0x41, 0x09, 0x3e, 0xa0, 0x57, 0x0c, 0x3d, 0xec, 0xd4, 0x46, 0xbe, 0x38, 0x2b, 0x20, 0x3d, 0x1f, 0x52, 0x04, 0x3d, 0x44, 0x5b, 0x9c, 0x3c, 0x2a, 0x81, 0xb1, 0xbd, 0x02, 0x72, 0xcc, 0x3d, 0xc1, 0xc8, 0x77, 0x3d, 0x7f, 0x36, 0xbe, 0x3d, 0xcf, 0x5d, 0xe5, 0x3d, 0x75, 0x2a, 0x85, 0xbd, 0x2d, 0xe4, 0x1a, 0xbe, 0x6d, 0x26, 0xa9, 0xbd, 0xae, 0x3e, 0x2a, 0xbe, 0xd5, 0xb2, 0x91, 0xbd, 0x44, 0x73, 0x89, 0x3d, 0x70, 0x22, 0x26, 0x3d, 0x52, 0x00, 0x2c, 0xbc, 0x1b, 0x5e, 0x15, 0x3e, 0xa9, 0x44, 0x1a, 0xbe, 0xd7, 0xc9, 0xcd, 0x3d, 0xad, 0xa9, 0x41, 0xbe, 0x73, 0xb0, 0x7f, 0xbd, 0x4a, 0x80, 0xba, 0xbd, 0x32, 0xfc, 0x3d, 0xbd, 0x73, 0x83, 0x68, 0xbd, 0x12, 0xd3, 0x51, 0x3d, 0xbc, 0x55, 0xa2, 0xbd, 0xd7, 0x1c, 0x35, 0x3d, 0xd7, 0x9e, 0x07, 0x3e, 0x0f, 0x64, 0x40, 0xbc, 0xd9, 0x8a, 0xf9, 0xbd, 0xcf, 0xe8, 0xd1, 0xbc, 0xa1, 0x55, 0x4b, 0x3d, 0x29, 0x91, 0x49, 0x3c, 0x81, 0x86, 0x6c, 0x3c, 0x4f, 0x46, 0x1a, 0x3e, 0xc3, 0xc1, 0x93, 0xbd, 0x5a, 0x9e, 0x1f, 0x3e, 0x3f, 0x8b, 0xc7, 0x3d, 0x5d, 0xce, 0x3e, 0x3e, 0x76, 0x6f, 0x7d, 0x3d, 0x4b, 0x3d, 0x06, 0x3e, 0x1d, 0xbf, 0x59, 0xbe, 0xc4, 0x69, 0x85, 0x3d, 0xaa, 0xf6, 0x0f, 0xbe, 0xf1, 0x4f, 0xa8, 0x3d, 0x0b, 0x02, 0x5a, 0x3d, 0x08, 0xbc, 0x2c, 0xbe, 0xfc, 0xa8, 0x31, 0x3d, 0x80, 0x02, 0x23, 0x3d, 0x41, 0x8b, 0x4a, 0x3c, 0xb8, 0x2f, 0xf5, 0xbc, 0x41, 0x86, 0xb3, 0xbd, 0x60, 0x73, 0x21, 0xbe, 0xc1, 0xa7, 0x1c, 0x3d, 0x80, 0xc2, 0x84, 0x3d, 0x35, 0x30, 0x18, 0xbe, 0xe4, 0x77, 0x73, 0xbd, 0x5d, 0xe0, 0x44, 0x3d, 0x43, 0xfb, 0x10, 0x3e, 0x14, 0x46, 0x2a, 0x3d, 0xe9, 0x17, 0x00, 0xbe, 0x19, 0xfa, 0xad, 0x3d, 0x38, 0x6b, 0xef, 0x3d, 0x63, 0xf0, 0x89, 0xbd, 0x21, 0x0f, 0x56, 0x3e, 0xc7, 0xbf, 0x24, 0xbe, 0xb6, 0xd5, 0x05, 0xbe, 0x7d, 0x1e, 0x86, 0xbc, 0x16, 0x5f, 0x88, 0x3d, 0x34, 0x3b, 0xc0, 0xbd, 0x87, 0x39, 0xa1, 0x3d, 0x0d, 0x0f, 0x04, 0xbc, 0xc2, 0x1e, 0x04, 0x3d, 0x8c, 0x5c, 0xd9, 0x3c, 0x50, 0xcc, 0x7f, 0xbd, 0x3e, 0x1f, 0x19, 0xbd, 0x86, 0x68, 0x7a, 0xbd, 0x88, 0x5b, 0x9f, 0xbd, 0x27, 0xf0, 0x69, 0x3d, 0xef, 0x40, 0x32, 0x3d, 0x54, 0x28, 0xc6, 0xbd, 0x9d, 0x11, 0xad, 0x3c, 0x78, 0x06, 0x84, 0x3d, 0x62, 0xed, 0x22, 0x3e, 0xd3, 0x4b, 0x29, 0xbd, 0x51, 0x35, 0x12, 0x3e, 0x25, 0x70, 0x31, 0x3e, 0xec, 0xff, 0x06, 0x3e, 0x20, 0x42, 0x0b, 0x3e, 0x33, 0xf5, 0xfe, 0x3a, 0x73, 0x48, 0x94, 0x3d, 0xbf, 0x0e, 0xd0, 0x3d, 0xd8, 0x8c, 0x17, 0xbd, 0xa9, 0x7f, 0x03, 0x3e, 0x45, 0x9d, 0x87, 0xbc, 0x56, 0xfc, 0x1d, 0x3e, 0x8f, 0x58, 0x99, 0x3d, 0xbe, 0x0a, 0xb4, 0x3c, 0x28, 0xea, 0x0e, 0xbd, 0x13, 0x81, 0xc3, 0x3c, 0xa9, 0x26, 0x80, 0xbc, 0x16, 0x48, 0xc8, 0xbd, 0x0b, 0x3f, 0x86, 0x3c, 0x07, 0xfb, 0xeb, 0x3d, 0x88, 0xb6, 0x1c, 0xbe, 0xb9, 0x0c, 0x7b, 0x3d, 0xff, 0xa7, 0x61, 0xbd, 0x55, 0x11, 0xca, 0x3d, 0x6c, 0x8b, 0xe7, 0x3d, 0xf0, 0xb1, 0x17, 0xbd, 0x17, 0x65, 0x22, 0xbe, 0x4b, 0xba, 0x99, 0x3d, 0x5c, 0x8d, 0x3d, 0xbe, 0x03, 0x19, 0x50, 0xbd, 0x2d, 0x1b, 0x0e, 0xbe, 0xf9, 0xbe, 0x9e, 0x3d, 0x50, 0x88, 0xe2, 0x3d, 0xa6, 0xe0, 0x8e, 0xbc, 0x83, 0x24, 0x2e, 0xbd, 0x4c, 0x32, 0x1a, 0x3d, 0xbf, 0x41, 0x1c, 0xbd, 0x5b, 0x9c, 0x00, 0xbc, 0x8c, 0xf5, 0x1d, 0xbb, 0xf5, 0x85, 0x10, 0x3e, 0x9e, 0x33, 0x24, 0x3d, 0xa8, 0x23, 0xe0, 0x3d, 0x47, 0xbd, 0x48, 0x3e, 0x5b, 0x55, 0xc6, 0x3d, 0xaf, 0x5a, 0x81, 0x3d, 0x12, 0xd6, 0x00, 0xbe, 0x3e, 0x86, 0x42, 0x3e, 0x46, 0x35, 0xf0, 0xbc, 0x9c, 0xdf, 0xaa, 0xbd, 0xb0, 0xdc, 0xe3, 0x3d, 0x52, 0x68, 0xcd, 0xbd, 0x36, 0x4a, 0xd5, 0xbd, 0xce, 0x0c, 0xde, 0xbd, 0x98, 0x0b, 0x4f, 0x3c, 0x2f, 0x65, 0x2f, 0x3e, 0x25, 0x4a, 0x46, 0xbe, 0xea, 0x84, 0x23, 0x3d, 0xe1, 0x44, 0xf0, 0x3d, 0xaa, 0xd3, 0x13, 0x38, 0x48, 0x86, 0xc7, 0xbc, 0x4f, 0xbc, 0x06, 0x3e, 0x54, 0x51, 0xec, 0x3d, 0x3f, 0x06, 0xf5, 0x3d, 0x37, 0x0f, 0x17, 0x3e, 0xff, 0xcf, 0x84, 0xbd, 0x67, 0x18, 0x0b, 0xbe, 0xce, 0xc1, 0x4f, 0xbd, 0xf0, 0x4e, 0xda, 0x3d, 0xfe, 0x06, 0x90, 0x3d, 0xea, 0xed, 0x0b, 0x3e, 0x3f, 0x65, 0x0b, 0x3e, 0xc3, 0x86, 0x05, 0xbd, 0xbd, 0x4b, 0x25, 0x3e, 0x31, 0xd9, 0x8d, 0xbd, 0x11, 0x4d, 0x1b, 0xbd, 0x41, 0x17, 0x4f, 0xbe, 0xdc, 0xcf, 0xba, 0x3d, 0x71, 0xd6, 0x85, 0x3c, 0xa6, 0x1b, 0x29, 0xbe, 0xa5, 0x06, 0xee, 0x3d, 0xfb, 0x95, 0x0e, 0x3d, 0xc1, 0xb0, 0xa5, 0x3d, 0xa2, 0x39, 0xfb, 0xbd, 0x7c, 0x6c, 0xc1, 0x3c, 0x89, 0x1b, 0x34, 0x3e, 0x36, 0xa2, 0xfd, 0xbd, 0x43, 0xcf, 0xb9, 0x3d, 0xc5, 0xad, 0x65, 0xbc, 0x6a, 0x0a, 0xc4, 0xbd, 0x69, 0x62, 0xef, 0x3d, 0x1c, 0xf9, 0xb1, 0xbc, 0x9d, 0x32, 0x06, 0xbe, 0x53, 0x65, 0x48, 0x3d, 0xbb, 0xc7, 0x4b, 0xbd, 0xdc, 0x89, 0xac, 0x3d, 0xc2, 0xcf, 0x43, 0xbe, 0x2b, 0x01, 0x1d, 0xbc, 0x59, 0xb0, 0xda, 0x3d, 0x76, 0x28, 0x3f, 0xbd, 0x78, 0xdc, 0x6c, 0x3d, 0x0f, 0x18, 0x1d, 0x3e, 0x2f, 0x6b, 0xc2, 0xbc, 0xe5, 0x88, 0xe8, 0x3d, 0xe7, 0x48, 0xc5, 0x3c, 0x9a, 0x97, 0x7d, 0xbd, 0x66, 0x7d, 0xb9, 0xbd, 0xda, 0xfc, 0xb7, 0x3d, 0x16, 0xc8, 0xc5, 0x3d, 0x7d, 0x13, 0xef, 0xbd, 0x8c, 0x0b, 0xfb, 0xbd, 0x23, 0x1e, 0x23, 0x3c, 0x7a, 0x06, 0x82, 0xbd, 0xcf, 0x82, 0x2b, 0x3d, 0x24, 0xf5, 0x1c, 0x3e, 0x14, 0x67, 0x70, 0xbd, 0xff, 0x8f, 0xb8, 0xbd, 0x87, 0x52, 0xdb, 0xbd, 0x40, 0x5d, 0x88, 0xbd, 0x00, 0x31, 0x01, 0xbd, 0xd2, 0xbe, 0x9d, 0x3d, 0x61, 0x26, 0xf6, 0xbd, 0x77, 0xb7, 0x03, 0xbd, 0xa8, 0xdf, 0x9a, 0x3d, 0x11, 0xbe, 0x1b, 0x3d, 0xfd, 0x9c, 0x95, 0x3d, 0xbb, 0x2d, 0x24, 0xbe, 0x68, 0x6e, 0x40, 0xbe, 0x35, 0x09, 0xa7, 0xbd, 0x31, 0x5d, 0x14, 0xbe, 0x2a, 0x66, 0x56, 0xbd, 0xec, 0x39, 0xd3, 0xbd, 0x8f, 0x14, 0x62, 0xbd, 0x7a, 0x9e, 0x2c, 0xbd, 0xd6, 0x1e, 0x2d, 0x3e, 0x2f, 0x21, 0xfd, 0x3c, 0xfa, 0xb6, 0x77, 0x3c, 0x46, 0x77, 0x71, 0x3d, 0xe4, 0xff, 0x2e, 0xbe, 0xb8, 0x54, 0xda, 0x3d, 0x01, 0xb6, 0x4f, 0xbc, 0x15, 0x15, 0x13, 0x3e, 0x60, 0x74, 0x16, 0x3d, 0xf9, 0x41, 0x6f, 0x3d, 0x4a, 0x3f, 0xff, 0x3d, 0x14, 0x75, 0x05, 0xbd, 0xd5, 0xde, 0x14, 0x3e, 0xb8, 0x50, 0x90, 0xbd, 0xb3, 0x38, 0xd1, 0xbc, 0x0e, 0xd1, 0xc4, 0x3d, 0x50, 0x99, 0x11, 0xbe, 0xf5, 0x1c, 0x18, 0x3e, 0x18, 0x37, 0x0f, 0xba, 0x76, 0x4e, 0x2a, 0x3c, 0x20, 0x80, 0x58, 0x3d, 0x7f, 0x73, 0xb0, 0x3d, 0xbf, 0x00, 0xe4, 0x3d, 0x0e, 0x59, 0x88, 0xbd, 0x36, 0xda, 0xf8, 0x3d, 0xb3, 0xc9, 0x9e, 0x3d, 0x24, 0xa4, 0x99, 0x3c, 0x90, 0x9f, 0xc8, 0x3b, 0x48, 0x8c, 0x8c, 0xbd, 0x02, 0xb9, 0xb3, 0xbd, 0xe3, 0x3d, 0x29, 0x3e, 0xb1, 0x4d, 0x8f, 0xbc, 0x02, 0x79, 0x1f, 0x3e, 0x66, 0x54, 0x61, 0xbd, 0x70, 0xaf, 0xae, 0xbd, 0x7a, 0xb0, 0x8d, 0x3d, 0x0d, 0xaf, 0x9a, 0x3d, 0x3a, 0x65, 0x9b, 0xbd, 0xd4, 0x39, 0xa4, 0xbd, 0x28, 0x32, 0x9f, 0xbd, 0xc2, 0x54, 0x98, 0x3d, 0x60, 0x07, 0xc4, 0xbd, 0xa0, 0xd9, 0x29, 0x3e, 0x44, 0xe0, 0x3a, 0x3e, 0xfe, 0x40, 0x1c, 0xbd, 0x54, 0xba, 0x87, 0x3d, 0x67, 0x7c, 0xaa, 0xbd, 0x9d, 0x86, 0xf9, 0x3c, 0x8c, 0x5d, 0x5c, 0xbd, 0x35, 0xfd, 0x62, 0x3d, 0xd7, 0x98, 0xb5, 0xbb, 0x1d, 0xb1, 0x29, 0xbe, 0xf0, 0xbe, 0x71, 0xbd, 0xa1, 0xc9, 0x29, 0x3e, 0xed, 0x45, 0x01, 0xbd, 0x1a, 0xce, 0x1f, 0xbd, 0x57, 0xf8, 0x5a, 0xbd, 0x01, 0x7e, 0xf6, 0xbc, 0xc0, 0x1f, 0x00, 0x3d, 0xc4, 0xca, 0x4e, 0xbd, 0xab, 0x6d, 0xeb, 0xbd, 0xc5, 0x9a, 0x39, 0xbd, 0x65, 0x55, 0x29, 0xbd, 0x71, 0xc9, 0x0e, 0x3e, 0x80, 0xed, 0x93, 0x39, 0x7e, 0x44, 0xc0, 0xbd, 0xf2, 0x2c, 0x16, 0xbc, 0x42, 0xb1, 0x87, 0x3d, 0xa3, 0x5a, 0xf4, 0x3d, 0x03, 0xad, 0xd9, 0xbc, 0x96, 0xcc, 0xfb, 0x3d, 0xad, 0xb9, 0x93, 0xbd, 0xf3, 0x4c, 0x3b, 0x3d, 0x0f, 0xb2, 0x3c, 0xbd, 0xb5, 0x77, 0x0f, 0xbe, 0x94, 0xc3, 0x99, 0x3d, 0x69, 0x47, 0x34, 0xbd, 0xed, 0x0e, 0xd0, 0x3b, 0x01, 0x85, 0x9e, 0x3d, 0x9c, 0xe7, 0xb9, 0x3c, 0xb8, 0x0a, 0x03, 0xbd, 0xdf, 0xc4, 0x34, 0xbe, 0x82, 0x76, 0x95, 0x3d, 0xe9, 0x44, 0xa1, 0xbc, 0x11, 0x94, 0xc8, 0xbd, 0xde, 0x2f, 0x15, 0x3e, 0xb7, 0x8a, 0x08, 0x3d, 0xcb, 0xce, 0x26, 0x3e, 0x50, 0x5b, 0x38, 0xbc, 0xd9, 0xda, 0x27, 0x3d, 0x1d, 0x34, 0x2e, 0x3e, 0x3d, 0xf8, 0xcb, 0xbd, 0x62, 0xb5, 0xe1, 0x38, 0x29, 0x7a, 0xca, 0xbc, 0x31, 0x41, 0x2a, 0x3e, 0x72, 0xf9, 0x8e, 0xbd, 0x16, 0xf5, 0x27, 0x3d, 0x02, 0x6e, 0xd4, 0xbd, 0x0c, 0xe7, 0x1a, 0xbd, 0xe2, 0x78, 0x02, 0x3e, 0x42, 0xd0, 0x91, 0xbd, 0xfb, 0xd6, 0x22, 0xbe, 0xe7, 0xec, 0xee, 0xbc, 0x44, 0xee, 0x1a, 0x3e, 0x76, 0x50, 0x62, 0x3d, 0xf0, 0x8a, 0x37, 0xbd, 0xc9, 0x3e, 0x1a, 0x3e, 0xa3, 0xef, 0x36, 0xbe, 0x88, 0xb1, 0xa3, 0xbb, 0x90, 0xdf, 0x70, 0x3d, 0xbd, 0x0a, 0x90, 0x3d, 0x39, 0xbe, 0x39, 0xbd, 0xdd, 0x3d, 0xa8, 0x3d, 0xf1, 0x22, 0x2d, 0x3c, 0xbf, 0x7b, 0x2b, 0x3e, 0x62, 0x87, 0xdc, 0x3d, 0x3e, 0x68, 0xae, 0x3c, 0x55, 0x6d, 0x1d, 0xbd, 0xa1, 0x7c, 0xcc, 0x3a, 0x5a, 0x23, 0xd2, 0xbc, 0x85, 0xb3, 0x02, 0xbe, 0xda, 0x5c, 0xce, 0xbd, 0xe5, 0x2f, 0xf6, 0x3d, 0x11, 0x87, 0x06, 0x3c, 0x59, 0x32, 0x8b, 0x3d, 0x68, 0x15, 0x1f, 0x3e, 0xd2, 0x7a, 0x86, 0xbc, 0xd1, 0xdb, 0xb6, 0x3d, 0x81, 0x5f, 0xa3, 0xbd, 0xfa, 0x9f, 0x8b, 0xbd, 0x9b, 0xdc, 0x09, 0x3d, 0x79, 0x25, 0x1a, 0xbe, 0x36, 0x22, 0xb5, 0xbc, 0xe3, 0x98, 0x02, 0x3d, 0x35, 0x87, 0x87, 0x3c, 0x69, 0x2e, 0xb2, 0xbd, 0x0b, 0xb9, 0x32, 0x3e, 0xc1, 0xcc, 0xbb, 0x3c, 0x80, 0xd1, 0x84, 0x3d, 0x2b, 0xba, 0xab, 0x3a, 0x39, 0xbd, 0x6d, 0xbd, 0x17, 0xc4, 0x3d, 0xbe, 0x6a, 0x12, 0xcc, 0xbd, 0x3e, 0x05, 0x1a, 0x3d, 0x69, 0x3f, 0x24, 0xbd, 0x59, 0xf8, 0x5f, 0x3c, 0x49, 0xbe, 0x26, 0x3e, 0xce, 0x61, 0x65, 0xbd, 0x97, 0xc4, 0xec, 0x3d, 0x56, 0x84, 0xf0, 0xbc, 0x14, 0x5e, 0xdb, 0xbd, 0xf9, 0x18, 0xe3, 0xbc, 0x38, 0x8f, 0xaf, 0x3d, 0x71, 0xd4, 0x18, 0x3e, 0x58, 0xfc, 0x15, 0x3e, 0x17, 0x60, 0x98, 0x3d, 0x97, 0x06, 0x95, 0xbd, 0x5a, 0xfe, 0x30, 0xbe, 0x70, 0xc5, 0x2a, 0xbe, 0x9c, 0x18, 0x68, 0x3d, 0x54, 0xda, 0x8e, 0xbd, 0x8d, 0x15, 0x58, 0x39, 0x26, 0x8c, 0x02, 0xbd, 0x96, 0xb4, 0xfd, 0xbd, 0x46, 0x65, 0x0f, 0xbe, 0xad, 0xd3, 0x1e, 0xbd, 0x89, 0x52, 0x92, 0xbd, 0x7d, 0x91, 0xf9, 0xbc, 0x02, 0x89, 0x04, 0x3e, 0x80, 0xd6, 0x6b, 0x3c, 0xb9, 0xfc, 0x08, 0xbe, 0x9b, 0x45, 0x60, 0xbd, 0xd0, 0x04, 0xdb, 0x3d, 0x79, 0xc5, 0x26, 0x3e, 0x56, 0x06, 0x77, 0xbd, 0x26, 0xc6, 0x7f, 0xbd, 0xfb, 0xb2, 0x83, 0xbd, 0x57, 0x36, 0x9f, 0xbd, 0x27, 0xb1, 0x2a, 0xbe, 0x15, 0x0f, 0x62, 0x3d, 0xa4, 0xac, 0xc4, 0xbd, 0xec, 0xb8, 0x0e, 0xbe, 0x74, 0x44, 0x65, 0x3c, 0x90, 0x50, 0x32, 0xbc, 0x64, 0xc6, 0x16, 0xbe, 0x47, 0x08, 0x4f, 0x3e, 0x07, 0x52, 0xc1, 0x3d, 0x10, 0x33, 0x1b, 0x3e, 0x07, 0x6c, 0x77, 0xbd, 0xa4, 0xe0, 0xbe, 0xbd, 0xbe, 0x28, 0x0f, 0x3e, 0xe8, 0x0a, 0xa2, 0x3d, 0xa5, 0x00, 0x75, 0x3c, 0xe6, 0x13, 0x19, 0x3e, 0xbf, 0x19, 0xee, 0xbd, 0xa3, 0x63, 0xc0, 0xbd, 0x04, 0x77, 0xd4, 0xbd, 0x73, 0x0a, 0x2b, 0xbe, 0x58, 0x09, 0xd7, 0x3d, 0x05, 0xe9, 0x05, 0xbe, 0x09, 0xaa, 0x7e, 0xbd, 0x34, 0xd5, 0x61, 0xbd, 0xc9, 0x58, 0xae, 0x3c, 0x97, 0xbb, 0xfb, 0x3d, 0xcf, 0xc8, 0x3d, 0xbc, 0xf3, 0x83, 0x78, 0xbd, 0x05, 0x87, 0x9e, 0x3c, 0x47, 0x38, 0x04, 0xbe, 0x51, 0x43, 0x68, 0x3d, 0x14, 0xcd, 0x03, 0xbd, 0xe6, 0xe0, 0x2d, 0x3d, 0x50, 0x31, 0x18, 0xbe, 0x51, 0xf9, 0x23, 0x3e, 0xcf, 0x23, 0x78, 0x3c, 0x7e, 0x35, 0x87, 0xbc, 0x49, 0xdd, 0x87, 0xbd, 0x5a, 0x60, 0x4f, 0xbd, 0xd6, 0x9d, 0x9a, 0x3b, 0x91, 0x42, 0xa7, 0x3d, 0x90, 0x4f, 0x1b, 0xbe, 0x15, 0xef, 0xc8, 0xbd, 0x23, 0x89, 0x21, 0xbe, 0x1b, 0x8a, 0xf5, 0x3d, 0xb1, 0xe4, 0x89, 0x3d, 0x2a, 0x92, 0xbd, 0x3d, 0x3f, 0x1b, 0xf5, 0x3d, 0xf8, 0x74, 0xfa, 0x3c, 0x32, 0xca, 0x4f, 0xbd, 0x63, 0x25, 0x28, 0x3e, 0xb3, 0x2e, 0x62, 0x3c, 0xa2, 0x79, 0xad, 0xbd, 0x3f, 0x99, 0x97, 0xbd, 0x43, 0x0a, 0xae, 0xbd, 0x8c, 0x10, 0x20, 0x3e, 0xd8, 0xb8, 0x1b, 0x3d, 0x47, 0x7a, 0xaa, 0xbd, 0x1c, 0xd4, 0x3a, 0x3d, 0x04, 0x89, 0x55, 0xbd, 0x5c, 0x88, 0x50, 0x3c, 0x3e, 0x9f, 0x2d, 0x3d, 0x7d, 0x42, 0xeb, 0xbc, 0x98, 0xe7, 0x2e, 0xbe, 0x17, 0xda, 0x61, 0xbd, 0xdb, 0x45, 0xd3, 0x3d, 0x56, 0xde, 0x29, 0x3e, 0xcc, 0xd1, 0xaf, 0x3d, 0xeb, 0x2b, 0x8f, 0x3d, 0xe0, 0x69, 0x64, 0x3b, 0x0e, 0x66, 0xd5, 0x3a, 0xc7, 0x2d, 0x39, 0x3d, 0x50, 0xb1, 0x96, 0x3d, 0x80, 0xa0, 0xb9, 0xbd, 0xe4, 0xc4, 0x9e, 0xbc, 0x50, 0xca, 0x68, 0xbb, 0x66, 0x9f, 0x81, 0xbd, 0x0a, 0xea, 0x6c, 0x3d, 0xdb, 0x9b, 0xb2, 0xbc, 0xc2, 0xf2, 0xc0, 0x3d, 0x55, 0xbd, 0xa5, 0x3d, 0x55, 0x99, 0x10, 0xbe, 0x2d, 0x49, 0xff, 0xba, 0xb7, 0xcb, 0x00, 0xbd, 0xec, 0x3e, 0x35, 0x3d, 0xe1, 0x8b, 0x24, 0x3d, 0xdd, 0xfb, 0x49, 0xbd, 0xf3, 0x1c, 0xdb, 0x3d, 0xe3, 0x75, 0x53, 0xbd, 0xb6, 0xf3, 0x34, 0x3c, 0xda, 0x71, 0x65, 0x3d, 0xa1, 0xe4, 0x02, 0xbe, 0x69, 0x58, 0xb0, 0xbc, 0x98, 0xd5, 0xdf, 0xbd, 0x04, 0xd6, 0x19, 0x3e, 0x45, 0xc8, 0x11, 0x3e, 0xef, 0xe4, 0xb4, 0x3d, 0xad, 0x2b, 0x3d, 0x3e, 0x1e, 0x2f, 0x8f, 0x3d, 0xc0, 0x29, 0x97, 0x3c, 0x0b, 0x70, 0x31, 0x3e, 0x17, 0xfd, 0xc9, 0xbb, 0xeb, 0xab, 0x0b, 0xbe, 0xe4, 0xab, 0x34, 0xbd, 0xbd, 0x61, 0x0e, 0x3e, 0x11, 0x2e, 0xae, 0xbd, 0x7f, 0x2b, 0x27, 0xbd, 0x18, 0x1e, 0x34, 0x3e, 0x5f, 0x1b, 0x32, 0xbd, 0x09, 0x6f, 0x0d, 0xbe, 0xce, 0x72, 0x2d, 0xbd, 0x92, 0x17, 0x98, 0x3d, 0x80, 0x91, 0x1d, 0xbe, 0x28, 0x3c, 0xf1, 0xbc, 0x9d, 0xcc, 0xbb, 0xbd, 0x0c, 0x9c, 0x03, 0x3e, 0xbb, 0xfe, 0xfa, 0xbb, 0xb8, 0x18, 0x0e, 0x3e, 0xe8, 0xcd, 0x81, 0xbc, 0x65, 0xb3, 0x6d, 0xbd, 0x73, 0x0e, 0xb6, 0x3d, 0x33, 0x02, 0x25, 0xbe, 0x10, 0x2c, 0x14, 0xbd, 0xa6, 0xbb, 0x06, 0x3e, 0x89, 0x5f, 0xf7, 0xbd, 0x28, 0x89, 0x23, 0xbd, 0xce, 0xb0, 0x84, 0xbc, 0x1a, 0x37, 0x0c, 0xbd, 0x69, 0x67, 0x4d, 0xba, 0xa2, 0x9d, 0xe1, 0xbd, 0x8f, 0x4d, 0x06, 0x3e, 0xa1, 0x2d, 0xa1, 0xbd, 0xcd, 0x24, 0xe6, 0xbd, 0xdc, 0xcd, 0x0a, 0x3d, 0xe5, 0x3b, 0x1e, 0xbd, 0xdf, 0x02, 0x7e, 0x3d, 0xc8, 0x83, 0x42, 0x3e, 0x87, 0x57, 0x7e, 0x3d, 0xe7, 0xb9, 0x75, 0xbd, 0xdb, 0x84, 0xf4, 0xbc, 0xdc, 0xee, 0x87, 0x3d, 0xef, 0x0a, 0x4e, 0xbe, 0xc3, 0x8b, 0x68, 0xbd, 0x46, 0x3f, 0x20, 0xbc, 0x88, 0xb0, 0x47, 0x3d, 0x12, 0x21, 0x9c, 0xbd, 0xc0, 0xa8, 0x05, 0xbd, 0x60, 0xba, 0x40, 0x3e, 0x11, 0x0c, 0x68, 0x3c, 0x3f, 0xa9, 0xd9, 0xbd, 0x5e, 0x46, 0x45, 0x3e, 0x32, 0x78, 0x2e, 0xbe, 0x08, 0xe4, 0x1f, 0xbe, 0xb6, 0xf0, 0x23, 0x3d, 0x68, 0x3e, 0x89, 0xbd, 0x9f, 0x89, 0xbe, 0xbd, 0xca, 0xc8, 0x44, 0x3d, 0xd3, 0x63, 0x25, 0x3e, 0x6d, 0x17, 0x47, 0xbe, 0x14, 0x7b, 0x27, 0xbe, 0xcd, 0x94, 0x5f, 0x3d, 0x14, 0x1e, 0x23, 0xbe, 0xbb, 0xec, 0x94, 0xbd, 0xf7, 0xcb, 0x1b, 0x3d, 0x9e, 0x1c, 0x70, 0x3d, 0x26, 0xe4, 0x94, 0xbd, 0x58, 0xbf, 0xe6, 0x3c, 0x13, 0xc0, 0x31, 0xbd, 0x15, 0x51, 0x0a, 0xbc, 0x3b, 0x82, 0x19, 0xbc, 0xc8, 0x0d, 0xbb, 0x3c, 0xb9, 0xc3, 0xb9, 0xbc, 0x3a, 0xd9, 0x10, 0xbe, 0xec, 0x42, 0x80, 0xbd, 0x42, 0xe8, 0x37, 0xbe, 0x8a, 0x52, 0xa1, 0xbd, 0x22, 0xdf, 0xf1, 0x3d, 0xbb, 0x3d, 0x5d, 0x3c, 0x2b, 0xa6, 0xb9, 0xbd, 0x05, 0x2a, 0x80, 0x3d, 0x9b, 0x88, 0xfd, 0x3d, 0x60, 0x1e, 0x26, 0xbd, 0xe7, 0xde, 0xde, 0xbd, 0xd1, 0xc9, 0x9e, 0xbd, 0xa5, 0x00, 0x10, 0xbe, 0xf5, 0x82, 0xe4, 0xbd, 0x87, 0xec, 0x03, 0x3c, 0xa8, 0xf3, 0xaa, 0x3d, 0x65, 0xd7, 0xf2, 0xbd, 0x0e, 0x16, 0x1b, 0xbe, 0x1a, 0xf1, 0xc5, 0x3d, 0x93, 0x3a, 0x18, 0xbe, 0x9f, 0x75, 0x8b, 0xbd, 0xa7, 0xc8, 0x32, 0xbd, 0xc2, 0xde, 0x0a, 0x39, 0x7d, 0x6f, 0x38, 0xbd, 0xc9, 0xfc, 0x19, 0x3e, 0x3b, 0x9c, 0x29, 0x3e, 0xc4, 0xb5, 0x9e, 0xbd, 0x9c, 0x38, 0xa4, 0x3d, 0x6b, 0x62, 0x7d, 0x3d, 0x90, 0xca, 0x29, 0xbe, 0x0e, 0x9f, 0x29, 0xbe, 0x77, 0x56, 0x23, 0x3e, 0x46, 0x49, 0xc8, 0xbc, 0x40, 0xe4, 0x69, 0xbd, 0x9a, 0x0f, 0x43, 0x3e, 0x5f, 0x28, 0xbb, 0xbd, 0xf5, 0x86, 0xf5, 0xbd, 0x37, 0xd2, 0x96, 0xbd, 0x0d, 0xc6, 0x25, 0x3e, 0x0b, 0x80, 0x49, 0xbe, 0x38, 0x3a, 0x39, 0xbe, 0x36, 0x66, 0x20, 0x3d, 0x2b, 0xff, 0x5b, 0x3d, 0x32, 0xcf, 0xe8, 0xbd, 0x30, 0xa8, 0xb9, 0x3d, 0x9b, 0x56, 0x81, 0xbd, 0x56, 0xe4, 0x3f, 0xbe, 0xf0, 0x82, 0xc7, 0xbd, 0xe2, 0xf4, 0xcb, 0xbd, 0xbd, 0x5b, 0xb9, 0x3d, 0xb6, 0x0c, 0xc4, 0xbc, 0x37, 0xa7, 0xaf, 0xbd, 0xa0, 0x3b, 0x3c, 0xbe, 0xd1, 0x13, 0x4d, 0xbe, 0xb2, 0x53, 0xc4, 0x3d, 0x44, 0xef, 0x19, 0x3e, 0x0d, 0x64, 0x41, 0xbe, 0x75, 0xbf, 0x3b, 0xbe, 0x41, 0x2c, 0xb6, 0xbc, 0x76, 0xa1, 0x8b, 0xbc, 0xb3, 0xe0, 0xf4, 0x3c, 0x3d, 0x34, 0x47, 0xbd, 0x97, 0xca, 0x54, 0xbd, 0x55, 0x68, 0xf2, 0xbd, 0x79, 0xe1, 0xfa, 0x3d, 0x10, 0x17, 0x18, 0x3e, 0xf7, 0x9e, 0x39, 0xbd, 0x7e, 0x48, 0x87, 0x3d, 0x6f, 0xce, 0xcc, 0xbd, 0x09, 0x86, 0x8e, 0xbd, 0x1f, 0xbf, 0x20, 0x3d, 0xe1, 0x12, 0x14, 0x3b, 0xed, 0x50, 0xc2, 0x3d, 0x6c, 0x33, 0xcf, 0xbd, 0x5a, 0xf7, 0x56, 0xbe, 0xe3, 0xf8, 0xa5, 0x3d, 0x15, 0xdd, 0xc2, 0x3d, 0x38, 0x1d, 0x9b, 0x3d, 0x73, 0x3d, 0xaf, 0xbc, 0x49, 0x38, 0xf2, 0xbd, 0x07, 0x4b, 0xa3, 0xbc, 0x78, 0x71, 0x33, 0x3d, 0xac, 0xf7, 0x1d, 0xbd, 0xe8, 0x46, 0x24, 0xbe, 0xaa, 0x35, 0x21, 0xbe, 0xdb, 0x4d, 0x0d, 0xbe, 0xde, 0x1a, 0x33, 0xbe, 0x59, 0xf7, 0x1f, 0x3d, 0x05, 0xfe, 0xe1, 0xbd, 0xe6, 0xf8, 0x1f, 0x3d, 0x41, 0x64, 0x29, 0x3d, 0x49, 0x62, 0x86, 0x3d, 0x76, 0xb1, 0xd4, 0x3d, 0x05, 0x9b, 0x91, 0xbd, 0x22, 0xf3, 0x1c, 0xbe, 0x36, 0x27, 0xed, 0x3c, 0x14, 0xc7, 0x93, 0xbd, 0x58, 0x3e, 0x3e, 0xbd, 0x93, 0x89, 0xc8, 0xbc, 0x58, 0xf3, 0x66, 0xbd, 0x7d, 0xf7, 0xe6, 0xbd, 0x9d, 0xef, 0xba, 0x3b, 0xb0, 0x11, 0x17, 0xbd, 0x31, 0xb2, 0x0a, 0x3e, 0x44, 0x7a, 0x62, 0x3c, 0x8d, 0x93, 0x14, 0x3e, 0x8b, 0x9c, 0xf6, 0xbd, 0xbe, 0xc8, 0x26, 0x3d, 0x62, 0x2b, 0x0b, 0xbe, 0x92, 0x7a, 0x06, 0x3e, 0x1b, 0x96, 0x09, 0x3e, 0xc1, 0xe7, 0x0c, 0x3e, 0xf2, 0xb5, 0x83, 0x3d, 0x6c, 0x01, 0x90, 0x3d, 0x54, 0x91, 0x8e, 0xbd, 0x8f, 0x62, 0x83, 0x3c, 0x79, 0xb4, 0x37, 0x3d, 0xb9, 0x19, 0x74, 0xbd, 0xb8, 0x16, 0x13, 0xbe, 0x48, 0x0d, 0x0a, 0x3e, 0xd1, 0x66, 0xde, 0x3d, 0x92, 0x11, 0x1a, 0xbd, 0x24, 0xe0, 0x2c, 0x3e, 0x8b, 0xa1, 0xeb, 0xbc, 0x41, 0x3c, 0x40, 0xbe, 0x1f, 0x4a, 0xc9, 0xbc, 0xda, 0xd0, 0xbb, 0xbd, 0x76, 0x08, 0x3a, 0x3c, 0x1d, 0x37, 0xe1, 0xbd, 0xf6, 0xce, 0xd8, 0x3d, 0x09, 0x2e, 0x0f, 0xbd, 0xd6, 0x7f, 0xd2, 0x3d, 0x37, 0x05, 0xb8, 0x3d, 0x0e, 0xa4, 0xb4, 0xbd, 0xfb, 0xfe, 0x9a, 0x3d, 0x1c, 0xd1, 0x08, 0xbe, 0xd4, 0x28, 0xfb, 0xbc, 0x10, 0xa4, 0x45, 0x3d, 0x63, 0x1e, 0x4d, 0x3d, 0x00, 0x4d, 0xdd, 0x3d, 0x20, 0x05, 0xfb, 0x3d, 0x54, 0x49, 0x7d, 0x3d, 0x8d, 0x83, 0x82, 0xbd, 0x5d, 0x85, 0x87, 0x3c, 0x7c, 0x80, 0x3d, 0xbd, 0xa7, 0x93, 0xe4, 0xbc, 0x3f, 0x20, 0xa9, 0xbd, 0x4f, 0x86, 0x27, 0xbe, 0xed, 0x90, 0xa0, 0x3d, 0x10, 0x4c, 0x17, 0xbe, 0xaa, 0xdd, 0xa1, 0x3d, 0xb0, 0xe4, 0x8a, 0x3d, 0x85, 0x02, 0x0a, 0xbd, 0x6b, 0x04, 0x11, 0xbd, 0x72, 0x0a, 0xcf, 0xbd, 0xe9, 0x74, 0x5b, 0x3c, 0xa4, 0x18, 0x46, 0x3d, 0x12, 0x44, 0xdd, 0xbd, 0xdb, 0x1c, 0x09, 0xbe, 0xf2, 0xc8, 0xc1, 0x3c, 0x84, 0x59, 0x04, 0xbe, 0x40, 0xab, 0x90, 0x3d, 0xab, 0xb5, 0x3f, 0xbc, 0x08, 0x91, 0xc6, 0xbd, 0x5a, 0x87, 0x03, 0xbe, 0xe2, 0x79, 0x05, 0xbe, 0xe8, 0x57, 0xd7, 0xbd, 0x96, 0x35, 0x83, 0x3d, 0x7f, 0x24, 0xe9, 0xbc, 0xd7, 0xe7, 0x9f, 0xbd, 0x32, 0x12, 0xde, 0xbd, 0x5e, 0xb2, 0x90, 0xbd, 0x30, 0xa6, 0x18, 0xbd, 0x82, 0xa3, 0x92, 0xbd, 0xa2, 0x4f, 0xd2, 0xbd, 0x47, 0xd1, 0xde, 0xbd, 0xed, 0x66, 0xc2, 0xbc, 0xf9, 0xa1, 0x86, 0x3d, 0x1b, 0x32, 0x5d, 0x3d, 0xec, 0x79, 0xf1, 0xbd, 0xdb, 0xf0, 0x30, 0xbe, 0xdf, 0xae, 0xe9, 0x3d, 0xbe, 0x35, 0xf8, 0xbd, 0xdb, 0x29, 0x0c, 0xbe, 0x1b, 0x03, 0x9d, 0xbd, 0x47, 0x9c, 0xf8, 0xbd, 0xbe, 0xcd, 0x30, 0x3d, 0x6b, 0x5d, 0x35, 0xbc, 0x4e, 0x62, 0xb7, 0xbd, 0xd7, 0x00, 0xa7, 0x3d, 0x00, 0x6d, 0x80, 0x3d, 0xee, 0xcb, 0x3f, 0xbd, 0x69, 0x79, 0xcf, 0x3b, 0x5a, 0xa7, 0xbb, 0xbd, 0x95, 0xd3, 0x70, 0x3c, 0x3d, 0x7b, 0x3f, 0x3c, 0xc4, 0x4e, 0x1f, 0x3e, 0xd1, 0xbd, 0x44, 0x3d, 0x11, 0x1a, 0xf4, 0xbd, 0xfb, 0x34, 0xd0, 0x3d, 0x12, 0xcd, 0x2c, 0xbe, 0xdc, 0x62, 0xe1, 0xbd, 0xd8, 0x15, 0x31, 0x3e, 0xad, 0xb2, 0xd0, 0xbd, 0xe8, 0x03, 0xa8, 0xbc, 0xab, 0x77, 0x8c, 0x3d, 0xc5, 0xf1, 0x55, 0xbd, 0x37, 0xa8, 0xd0, 0x3c, 0x23, 0x9e, 0x44, 0xbd, 0x29, 0xec, 0x50, 0x3d, 0x65, 0x7d, 0xe7, 0xbd, 0x4b, 0x6b, 0xf8, 0xbd, 0x81, 0xc6, 0x87, 0xbd, 0x33, 0x62, 0x23, 0xbd, 0x1d, 0x1d, 0x5b, 0xbd, 0x99, 0x3c, 0x70, 0x3c, 0x81, 0xf6, 0x2c, 0x3d, 0xd8, 0xd5, 0x25, 0xbe, 0xc7, 0xa6, 0x11, 0xbd, 0xbf, 0xfb, 0x97, 0x3d, 0x63, 0x69, 0x00, 0xbe, 0x37, 0x0c, 0x9b, 0x3d, 0x24, 0xb4, 0x94, 0xbd, 0x5d, 0xc8, 0x94, 0xbd, 0xb7, 0x87, 0xe5, 0xbd, 0x65, 0x2a, 0xb7, 0x3d, 0x2a, 0x90, 0x79, 0x3c, 0x2a, 0x10, 0xeb, 0xbb, 0x0e, 0x34, 0x8a, 0xbd, 0x28, 0xbd, 0x8f, 0x3d, 0x32, 0x9a, 0x02, 0xbe, 0x1c, 0x3f, 0x39, 0x3d, 0x5b, 0xff, 0x1e, 0x3e, 0x2c, 0xe6, 0xaf, 0xbd, 0x1a, 0xff, 0xff, 0xff, 0x04, 0x00, 0x00, 0x00, 0x08, 0x00, 0x00, 0x00, 0xff, 0xff, 0xff, 0xff, 0x22, 0x01, 0x00, 0x00, 0x2e, 0xff, 0xff, 0xff, 0x04, 0x00, 0x00, 0x00, 0x28, 0x00, 0x00, 0x00, 0xa7, 0x06, 0x5e, 0x3d, 0x24, 0x91, 0x7b, 0xbd, 0x42, 0xa3, 0x9d, 0x3d, 0x5d, 0x6e, 0xb2, 0x3d, 0x5e, 0xbd, 0x6e, 0x3c, 0x0a, 0xde, 0x82, 0x3d, 0xf7, 0x4b, 0x61, 0x3d, 0x1e, 0x66, 0xa3, 0x3d, 0xef, 0xc4, 0x14, 0xbd, 0x24, 0xbb, 0xd8, 0xbb, 0x62, 0xff, 0xff, 0xff, 0x04, 0x00, 0x00, 0x00, 0x0c, 0x00, 0x00, 0x00, 0x88, 0x4d, 0x4d, 0x3d, 0xe7, 0x71, 0x54, 0xbd, 0x50, 0xbf, 0x03, 0xbc, 0xb4, 0xfa, 0xff, 0xff, 0xb8, 0xfa, 0xff, 0xff, 0x0f, 0x00, 0x00, 0x00, 0x4d, 0x4c, 0x49, 0x52, 0x20, 0x43, 0x6f, 0x6e, 0x76, 0x65, 0x72, 0x74, 0x65, 0x64, 0x2e, 0x00, 0x01, 0x00, 0x00, 0x00, 0x14, 0x00, 0x00, 0x00, 0x00, 0x00, 0x0e, 0x00, 0x18, 0x00, 0x14, 0x00, 0x10, 0x00, 0x0c, 0x00, 0x08, 0x00, 0x04, 0x00, 0x0e, 0x00, 0x00, 0x00, 0x14, 0x00, 0x00, 0x00, 0x1c, 0x00, 0x00, 0x00, 0x34, 0x01, 0x00, 0x00, 0x38, 0x01, 0x00, 0x00, 0x3c, 0x01, 0x00, 0x00, 0x04, 0x00, 0x00, 0x00, 0x6d, 0x61, 0x69, 0x6e, 0x00, 0x00, 0x00, 0x00, 0x04, 0x00, 0x00, 0x00, 0xcc, 0x00, 0x00, 0x00, 0x94, 0x00, 0x00, 0x00, 0x50, 0x00, 0x00, 0x00, 0x04, 0x00, 0x00, 0x00, 0xc6, 0xff, 0xff, 0xff, 0x1c, 0x00, 0x00, 0x00, 0x00, 0x00, 0x00, 0x09, 0x1c, 0x00, 0x00, 0x00, 0x20, 0x00, 0x00, 0x00, 0x03, 0x00, 0x00, 0x00, 0x00, 0x00, 0x06, 0x00, 0x08, 0x00, 0x04, 0x00, 0x06, 0x00, 0x00, 0x00, 0x00, 0x00, 0x80, 0x3f, 0x01, 0x00, 0x00, 0x00, 0x09, 0x00, 0x00, 0x00, 0x01, 0x00, 0x00, 0x00, 0x08, 0x00, 0x00, 0x00, 0x00, 0x00, 0x0e, 0x00, 0x18, 0x00, 0x14, 0x00, 0x10, 0x00, 0x0c, 0x00, 0x0b, 0x00, 0x04, 0x00, 0x0e, 0x00, 0x00, 0x00, 0x14, 0x00, 0x00, 0x00, 0x00, 0x00, 0x00, 0x08, 0x10, 0x00, 0x00, 0x00, 0x14, 0x00, 0x00, 0x00, 0x02, 0x00, 0x00, 0x00, 0x80, 0xfb, 0xff, 0xff, 0x01, 0x00, 0x00, 0x00, 0x08, 0x00, 0x00, 0x00, 0x03, 0x00, 0x00, 0x00, 0x07, 0x00, 0x00, 0x00, 0x04, 0x00, 0x00, 0x00, 0x01, 0x00, 0x00, 0x00, 0x00, 0x00, 0x0a, 0x00, 0x10, 0x00, 0x0c, 0x00, 0x08, 0x00, 0x04, 0x00, 0x0a, 0x00, 0x00, 0x00, 0x0c, 0x00, 0x00, 0x00, 0x10, 0x00, 0x00, 0x00, 0x01, 0x00, 0x00, 0x00, 0x01, 0x00, 0x00, 0x00, 0x07, 0x00, 0x00, 0x00, 0x02, 0x00, 0x00, 0x00, 0x06, 0x00, 0x00, 0x00, 0x03, 0x00, 0x00, 0x00, 0x00, 0x00, 0x0e, 0x00, 0x14, 0x00, 0x00, 0x00, 0x10, 0x00, 0x0c, 0x00, 0x0b, 0x00, 0x04, 0x00, 0x0e, 0x00, 0x00, 0x00, 0x1c, 0x00, 0x00, 0x00, 0x00, 0x00, 0x00, 0x01, 0x28, 0x00, 0x00, 0x00, 0x2c, 0x00, 0x00, 0x00, 0x0c, 0x00, 0x14, 0x00, 0x13, 0x00, 0x0c, 0x00, 0x08, 0x00, 0x07, 0x00, 0x0c, 0x00, 0x00, 0x00, 0x00, 0x00, 0x00, 0x01, 0x1e, 0x00, 0x00, 0x00, 0x1e, 0x00, 0x00, 0x00, 0x00, 0x00, 0x00, 0x01, 0x01, 0x00, 0x00, 0x00, 0x06, 0x00, 0x00, 0x00, 0x03, 0x00, 0x00, 0x00, 0x00, 0x00, 0x00, 0x00, 0x05, 0x00, 0x00, 0x00, 0x02, 0x00, 0x00, 0x00, 0x01, 0x00, 0x00, 0x00, 0x09, 0x00, 0x00, 0x00, 0x01, 0x00, 0x00, 0x00, 0x00, 0x00, 0x00, 0x00, 0x0a, 0x00, 0x00, 0x00, 0x98, 0x03, 0x00, 0x00, 0x34, 0x03, 0x00, 0x00, 0xd0, 0x02, 0x00, 0x00, 0x88, 0x02, 0x00, 0x00, 0x34, 0x02, 0x00, 0x00, 0xe4, 0x01, 0x00, 0x00, 0x24, 0x01, 0x00, 0x00, 0xcc, 0x00, 0x00, 0x00, 0x5c, 0x00, 0x00, 0x00, 0x04, 0x00, 0x00, 0x00, 0xa4, 0xfc, 0xff, 0xff, 0x14, 0x00, 0x00, 0x00, 0x1c, 0x00, 0x00, 0x00, 0x1c, 0x00, 0x00, 0x00, 0x0a, 0x00, 0x00, 0x00, 0x34, 0x00, 0x00, 0x00, 0x02, 0x00, 0x00, 0x00, 0xff, 0xff, 0xff, 0xff, 0x03, 0x00, 0x00, 0x00, 0x88, 0xfc, 0xff, 0xff, 0x19, 0x00, 0x00, 0x00, 0x53, 0x74, 0x61, 0x74, 0x65, 0x66, 0x75, 0x6c, 0x50, 0x61, 0x72, 0x74, 0x69, 0x74, 0x69, 0x6f, 0x6e, 0x65, 0x64, 0x43, 0x61, 0x6c, 0x6c, 0x3a, 0x30, 0x00, 0x00, 0x00, 0x02, 0x00, 0x00, 0x00, 0x01, 0x00, 0x00, 0x00, 0x03, 0x00, 0x00, 0x00, 0xf8, 0xfc, 0xff, 0xff, 0x14, 0x00, 0x00, 0x00, 0x1c, 0x00, 0x00, 0x00, 0x1c, 0x00, 0x00, 0x00, 0x09, 0x00, 0x00, 0x00, 0x4c, 0x00, 0x00, 0x00, 0x02, 0x00, 0x00, 0x00, 0xff, 0xff, 0xff, 0xff, 0x03, 0x00, 0x00, 0x00, 0xdc, 0xfc, 0xff, 0xff, 0x30, 0x00, 0x00, 0x00, 0x73, 0x65, 0x71, 0x75, 0x65, 0x6e, 0x74, 0x69, 0x61, 0x6c, 0x2f, 0x64, 0x65, 0x6e, 0x73, 0x65, 0x2f, 0x4d, 0x61, 0x74, 0x4d, 0x75, 0x6c, 0x3b, 0x73, 0x65, 0x71, 0x75, 0x65, 0x6e, 0x74, 0x69, 0x61, 0x6c, 0x2f, 0x64, 0x65, 0x6e, 0x73, 0x65, 0x2f, 0x42, 0x69, 0x61, 0x73, 0x41, 0x64, 0x64, 0x00, 0x00, 0x00, 0x00, 0x02, 0x00, 0x00, 0x00, 0x01, 0x00, 0x00, 0x00, 0x03, 0x00, 0x00, 0x00, 0x64, 0xfd, 0xff, 0xff, 0x14, 0x00, 0x00, 0x00, 0x1c, 0x00, 0x00, 0x00, 0x1c, 0x00, 0x00, 0x00, 0x08, 0x00, 0x00, 0x00, 0x34, 0x00, 0x00, 0x00, 0x02, 0x00, 0x00, 0x00, 0xff, 0xff, 0xff, 0xff, 0x22, 0x01, 0x00, 0x00, 0x48, 0xfd, 0xff, 0xff, 0x1a, 0x00, 0x00, 0x00, 0x73, 0x65, 0x71, 0x75, 0x65, 0x6e, 0x74, 0x69, 0x61, 0x6c, 0x2f, 0x66, 0x6c, 0x61, 0x74, 0x74, 0x65, 0x6e, 0x2f, 0x52, 0x65, 0x73, 0x68, 0x61, 0x70, 0x65, 0x00, 0x00, 0x02, 0x00, 0x00, 0x00, 0x01, 0x00, 0x00, 0x00, 0x22, 0x01, 0x00, 0x00, 0xb8, 0xfd, 0xff, 0xff, 0x14, 0x00, 0x00, 0x00, 0x24, 0x00, 0x00, 0x00, 0x24, 0x00, 0x00, 0x00, 0x07, 0x00, 0x00, 0x00, 0x94, 0x00, 0x00, 0x00, 0x04, 0x00, 0x00, 0x00, 0xff, 0xff, 0xff, 0xff, 0x1d, 0x00, 0x00, 0x00, 0x01, 0x00, 0x00, 0x00, 0x0a, 0x00, 0x00, 0x00, 0xa4, 0xfd, 0xff, 0xff, 0x72, 0x00, 0x00, 0x00, 0x73, 0x65, 0x71, 0x75, 0x65, 0x6e, 0x74, 0x69, 0x61, 0x6c, 0x2f, 0x63, 0x6f, 0x6e, 0x76, 0x32, 0x64, 0x2f, 0x52, 0x65, 0x6c, 0x75, 0x3b, 0x73, 0x65, 0x71, 0x75, 0x65, 0x6e, 0x74, 0x69, 0x61, 0x6c, 0x2f, 0x63, 0x6f, 0x6e, 0x76, 0x32, 0x64, 0x2f, 0x42, 0x69, 0x61, 0x73, 0x41, 0x64, 0x64, 0x3b, 0x73, 0x65, 0x71, 0x75, 0x65, 0x6e, 0x74, 0x69, 0x61, 0x6c, 0x2f, 0x63, 0x6f, 0x6e, 0x76, 0x32, 0x64, 0x2f, 0x43, 0x6f, 0x6e, 0x76, 0x32, 0x44, 0x3b, 0x73, 0x65, 0x71, 0x75, 0x65, 0x6e, 0x74, 0x69, 0x61, 0x6c, 0x2f, 0x63, 0x6f, 0x6e, 0x76, 0x32, 0x64, 0x2f, 0x42, 0x69, 0x61, 0x73, 0x41, 0x64, 0x64, 0x2f, 0x52, 0x65, 0x61, 0x64, 0x56, 0x61, 0x72, 0x69, 0x61, 0x62, 0x6c, 0x65, 0x4f, 0x70, 0x00, 0x00, 0x04, 0x00, 0x00, 0x00, 0x01, 0x00, 0x00, 0x00, 0x1d, 0x00, 0x00, 0x00, 0x01, 0x00, 0x00, 0x00, 0x0a, 0x00, 0x00, 0x00, 0xce, 0xfe, 0xff, 0xff, 0x10, 0x00, 0x00, 0x00, 0x10, 0x00, 0x00, 0x00, 0x06, 0x00, 0x00, 0x00, 0x28, 0x00, 0x00, 0x00, 0x48, 0xfe, 0xff, 0xff, 0x18, 0x00, 0x00, 0x00, 0x73, 0x65, 0x71, 0x75, 0x65, 0x6e, 0x74, 0x69, 0x61, 0x6c, 0x2f, 0x63, 0x6f, 0x6e, 0x76, 0x32, 0x64, 0x2f, 0x43, 0x6f, 0x6e, 0x76, 0x32, 0x44, 0x00, 0x00, 0x00, 0x00, 0x04, 0x00, 0x00, 0x00, 0x0a, 0x00, 0x00, 0x00, 0x32, 0x00, 0x00, 0x00, 0x03, 0x00, 0x00, 0x00, 0x01, 0x00, 0x00, 0x00, 0x1a, 0xff, 0xff, 0xff, 0x10, 0x00, 0x00, 0x00, 0x10, 0x00, 0x00, 0x00, 0x05, 0x00, 0x00, 0x00, 0x24, 0x00, 0x00, 0x00, 0x94, 0xfe, 0xff, 0xff, 0x17, 0x00, 0x00, 0x00, 0x73, 0x65, 0x71, 0x75, 0x65, 0x6e, 0x74, 0x69, 0x61, 0x6c, 0x2f, 0x64, 0x65, 0x6e, 0x73, 0x65, 0x2f, 0x4d, 0x61, 0x74, 0x4d, 0x75, 0x6c, 0x00, 0x02, 0x00, 0x00, 0x00, 0x03, 0x00, 0x00, 0x00, 0x22, 0x01, 0x00, 0x00, 0x00, 0x00, 0x0e, 0x00, 0x18, 0x00, 0x14, 0x00, 0x13, 0x00, 0x0c, 0x00, 0x08, 0x00, 0x04, 0x00, 0x0e, 0x00, 0x00, 0x00, 0x14, 0x00, 0x00, 0x00, 0x14, 0x00, 0x00, 0x00, 0x04, 0x00, 0x00, 0x00, 0x00, 0x00, 0x00, 0x02, 0x28, 0x00, 0x00, 0x00, 0xe8, 0xfe, 0xff, 0xff, 0x18, 0x00, 0x00, 0x00, 0x73, 0x65, 0x71, 0x75, 0x65, 0x6e, 0x74, 0x69, 0x61, 0x6c, 0x2f, 0x66, 0x6c, 0x61, 0x74, 0x74, 0x65, 0x6e, 0x2f, 0x43, 0x6f, 0x6e, 0x73, 0x74, 0x00, 0x00, 0x00, 0x00, 0x01, 0x00, 0x00, 0x00, 0x02, 0x00, 0x00, 0x00, 0xae, 0xff, 0xff, 0xff, 0x10, 0x00, 0x00, 0x00, 0x10, 0x00, 0x00, 0x00, 0x03, 0x00, 0x00, 0x00, 0x38, 0x00, 0x00, 0x00, 0x28, 0xff, 0xff, 0xff, 0x28, 0x00, 0x00, 0x00, 0x73, 0x65, 0x71, 0x75, 0x65, 0x6e, 0x74, 0x69, 0x61, 0x6c, 0x2f, 0x63, 0x6f, 0x6e, 0x76, 0x32, 0x64, 0x2f, 0x42, 0x69, 0x61, 0x73, 0x41, 0x64, 0x64, 0x2f, 0x52, 0x65, 0x61, 0x64, 0x56, 0x61, 0x72, 0x69, 0x61, 0x62, 0x6c, 0x65, 0x4f, 0x70, 0x00, 0x00, 0x00, 0x00, 0x01, 0x00, 0x00, 0x00, 0x0a, 0x00, 0x00, 0x00, 0x00, 0x00, 0x0e, 0x00, 0x14, 0x00, 0x10, 0x00, 0x00, 0x00, 0x0c, 0x00, 0x08, 0x00, 0x04, 0x00, 0x0e, 0x00, 0x00, 0x00, 0x10, 0x00, 0x00, 0x00, 0x10, 0x00, 0x00, 0x00, 0x02, 0x00, 0x00, 0x00, 0x34, 0x00, 0x00, 0x00, 0x88, 0xff, 0xff, 0xff, 0x27, 0x00, 0x00, 0x00, 0x73, 0x65, 0x71, 0x75, 0x65, 0x6e, 0x74, 0x69, 0x61, 0x6c, 0x2f, 0x64, 0x65, 0x6e, 0x73, 0x65, 0x2f, 0x42, 0x69, 0x61, 0x73, 0x41, 0x64, 0x64, 0x2f, 0x52, 0x65, 0x61, 0x64, 0x56, 0x61, 0x72, 0x69, 0x61, 0x62, 0x6c, 0x65, 0x4f, 0x70, 0x00, 0x01, 0x00, 0x00, 0x00, 0x03, 0x00, 0x00, 0x00, 0x14, 0x00, 0x18, 0x00, 0x14, 0x00, 0x00, 0x00, 0x10, 0x00, 0x0c, 0x00, 0x08, 0x00, 0x00, 0x00, 0x00, 0x00, 0x04, 0x00, 0x14, 0x00, 0x00, 0x00, 0x14, 0x00, 0x00, 0x00, 0x28, 0x00, 0x00, 0x00, 0x28, 0x00, 0x00, 0x00, 0x01, 0x00, 0x00, 0x00, 0x44, 0x00, 0x00, 0x00, 0x04, 0x00, 0x00, 0x00, 0xff, 0xff, 0xff, 0xff, 0x84, 0x03, 0x00, 0x00, 0x06, 0x00, 0x00, 0x00, 0x01, 0x00, 0x00, 0x00, 0x04, 0x00, 0x04, 0x00, 0x04, 0x00, 0x00, 0x00, 0x1e, 0x00, 0x00, 0x00, 0x73, 0x65, 0x72, 0x76, 0x69, 0x6e, 0x67, 0x5f, 0x64, 0x65, 0x66, 0x61, 0x75, 0x6c, 0x74, 0x5f, 0x63, 0x6f, 0x6e, 0x76, 0x32, 0x64, 0x5f, 0x69, 0x6e, 0x70, 0x75, 0x74, 0x3a, 0x30, 0x00, 0x00, 0x04, 0x00, 0x00, 0x00, 0x01, 0x00, 0x00, 0x00, 0x84, 0x03, 0x00, 0x00, 0x06, 0x00, 0x00, 0x00, 0x01, 0x00, 0x00, 0x00, 0x04, 0x00, 0x00, 0x00, 0x40, 0x00, 0x00, 0x00, 0x24, 0x00, 0x00, 0x00, 0x14, 0x00, 0x00, 0x00, 0x04, 0x00, 0x00, 0x00, 0xdc, 0xff, 0xff, 0xff, 0x19, 0x00, 0x00, 0x00, 0x00, 0x00, 0x00, 0x19, 0xe8, 0xff, 0xff, 0xff, 0x09, 0x00, 0x00, 0x00, 0x00, 0x00, 0x00, 0x09, 0xf4, 0xff, 0xff, 0xff, 0x16, 0x00, 0x00, 0x00, 0x00, 0x00, 0x00, 0x16, 0x0c, 0x00, 0x0c, 0x00, 0x0b, 0x00, 0x00, 0x00, 0x00, 0x00, 0x04, 0x00, 0x0c, 0x00, 0x00, 0x00, 0x03, 0x00, 0x00, 0x00, 0x00, 0x00, 0x00, 0x03};
const int model_data_len = 11560;