
#ifdef __has_attribute
#define HAVE_ATTRIBUTE(x) __has_attribute(x)
#else
#define HAVE_ATTRIBUTE(x) 0
#endif
#if HAVE_ATTRIBUTE(aligned) || (defined(__GNUC__) && !defined(__clang__))
#define DATA_ALIGN_ATTRIBUTE __attribute__((aligned(4)))
#else
#define DATA_ALIGN_ATTRIBUTE
#endif

const unsigned char model_data[] DATA_ALIGN_ATTRIBUTE = {0x1c, 0x00, 0x00, 0x00, 0x54, 0x46, 0x4c, 0x33, 0x14, 0x00, 0x20, 0x00, 0x1c, 0x00, 0x18, 0x00, 0x14, 0x00, 0x10, 0x00, 0x0c, 0x00, 0x00, 0x00, 0x08, 0x00, 0x04, 0x00, 0x14, 0x00, 0x00, 0x00, 0x1c, 0x00, 0x00, 0x00, 0x88, 0x00, 0x00, 0x00, 0xe0, 0x00, 0x00, 0x00, 0xd8, 0x10, 0x00, 0x00, 0xe8, 0x10, 0x00, 0x00, 0x88, 0x16, 0x00, 0x00, 0x03, 0x00, 0x00, 0x00, 0x01, 0x00, 0x00, 0x00, 0x04, 0x00, 0x00, 0x00, 0x5e, 0xee, 0xff, 0xff, 0x0c, 0x00, 0x00, 0x00, 0x1c, 0x00, 0x00, 0x00, 0x38, 0x00, 0x00, 0x00, 0x0f, 0x00, 0x00, 0x00, 0x73, 0x65, 0x72, 0x76, 0x69, 0x6e, 0x67, 0x5f, 0x64, 0x65, 0x66, 0x61, 0x75, 0x6c, 0x74, 0x00, 0x01, 0x00, 0x00, 0x00, 0x04, 0x00, 0x00, 0x00, 0x94, 0xff, 0xff, 0xff, 0x09, 0x00, 0x00, 0x00, 0x04, 0x00, 0x00, 0x00, 0x07, 0x00, 0x00, 0x00, 0x64, 0x65, 0x6e, 0x73, 0x65, 0x5f, 0x31, 0x00, 0x01, 0x00, 0x00, 0x00, 0x04, 0x00, 0x00, 0x00, 0x0e, 0xef, 0xff, 0xff, 0x04, 0x00, 0x00, 0x00, 0x0e, 0x00, 0x00, 0x00, 0x63, 0x6f, 0x6e, 0x76, 0x32, 0x64, 0x5f, 0x31, 0x5f, 0x69, 0x6e, 0x70, 0x75, 0x74, 0x00, 0x00, 0x02, 0x00, 0x00, 0x00, 0x34, 0x00, 0x00, 0x00, 0x04, 0x00, 0x00, 0x00, 0xdc, 0xff, 0xff, 0xff, 0x0c, 0x00, 0x00, 0x00, 0x04, 0x00, 0x00, 0x00, 0x13, 0x00, 0x00, 0x00, 0x43, 0x4f, 0x4e, 0x56, 0x45, 0x52, 0x53, 0x49, 0x4f, 0x4e, 0x5f, 0x4d, 0x45, 0x54, 0x41, 0x44, 0x41, 0x54, 0x41, 0x00, 0x08, 0x00, 0x0c, 0x00, 0x08, 0x00, 0x04, 0x00, 0x08, 0x00, 0x00, 0x00, 0x0b, 0x00, 0x00, 0x00, 0x04, 0x00, 0x00, 0x00, 0x13, 0x00, 0x00, 0x00, 0x6d, 0x69, 0x6e, 0x5f, 0x72, 0x75, 0x6e, 0x74, 0x69, 0x6d, 0x65, 0x5f, 0x76, 0x65, 0x72, 0x73, 0x69, 0x6f, 0x6e, 0x00, 0x0d, 0x00, 0x00, 0x00, 0xf4, 0x0f, 0x00, 0x00, 0xec, 0x0f, 0x00, 0x00, 0xd0, 0x0f, 0x00, 0x00, 0xa4, 0x0f, 0x00, 0x00, 0x8c, 0x0f, 0x00, 0x00, 0x48, 0x07, 0x00, 0x00, 0xa8, 0x00, 0x00, 0x00, 0xa0, 0x00, 0x00, 0x00, 0x98, 0x00, 0x00, 0x00, 0x90, 0x00, 0x00, 0x00, 0x88, 0x00, 0x00, 0x00, 0x68, 0x00, 0x00, 0x00, 0x04, 0x00, 0x00, 0x00, 0xbe, 0xef, 0xff, 0xff, 0x04, 0x00, 0x00, 0x00, 0x54, 0x00, 0x00, 0x00, 0x0c, 0x00, 0x00, 0x00, 0x08, 0x00, 0x0e, 0x00, 0x08, 0x00, 0x04, 0x00, 0x08, 0x00, 0x00, 0x00, 0x10, 0x00, 0x00, 0x00, 0x24, 0x00, 0x00, 0x00, 0x00, 0x00, 0x06, 0x00, 0x08, 0x00, 0x04, 0x00, 0x06, 0x00, 0x00, 0x00, 0x04, 0x00, 0x00, 0x00, 0x00, 0x00, 0x00, 0x00, 0x00, 0x00, 0x0a, 0x00, 0x10, 0x00, 0x0c, 0x00, 0x08, 0x00, 0x04, 0x00, 0x0a, 0x00, 0x00, 0x00, 0x02, 0x00, 0x00, 0x00, 0x02, 0x00, 0x00, 0x00, 0x04, 0x00, 0x00, 0x00, 0x05, 0x00, 0x00, 0x00, 0x32, 0x2e, 0x39, 0x2e, 0x31, 0x00, 0x00, 0x00, 0x1e, 0xf0, 0xff, 0xff, 0x04, 0x00, 0x00, 0x00, 0x10, 0x00, 0x00, 0x00, 0x31, 0x2e, 0x35, 0x2e, 0x30, 0x00, 0x00, 0x00, 0x00, 0x00, 0x00, 0x00, 0x00, 0x00, 0x00, 0x00, 0x44, 0xeb, 0xff, 0xff, 0x48, 0xeb, 0xff, 0xff, 0x4c, 0xeb, 0xff, 0xff, 0x50, 0xeb, 0xff, 0xff, 0x4a, 0xf0, 0xff, 0xff, 0x04, 0x00, 0x00, 0x00, 0x90, 0x06, 0x00, 0x00, 0xa0, 0xab, 0x13, 0xbe, 0x94, 0xdb, 0x9f, 0x3d, 0x9a, 0x63, 0x8b, 0x3d, 0x4f, 0x6d, 0x6a, 0x3d, 0x9f, 0xc5, 0xfe, 0x3d, 0x5d, 0x98, 0xe5, 0x3c, 0x35, 0x24, 0x48, 0x3d, 0x74, 0x97, 0x3f, 0xbd, 0x74, 0x5a, 0x3d, 0xbd, 0x95, 0xc2, 0x41, 0x3e, 0xd7, 0xa4, 0x52, 0xbd, 0xdc, 0x53, 0x43, 0xbd, 0xb3, 0x8f, 0x03, 0xbe, 0xfc, 0xa3, 0xd8, 0x3c, 0xee, 0xc1, 0x24, 0x3e, 0x21, 0xa2, 0x4a, 0x3c, 0x2c, 0x52, 0x6f, 0xbd, 0xae, 0x98, 0x54, 0x3b, 0x05, 0x98, 0x22, 0x3b, 0x5a, 0x16, 0xca, 0xbd, 0xbc, 0x19, 0x2e, 0x3e, 0xa8, 0x15, 0x35, 0x3d, 0xd9, 0x16, 0xc0, 0x3c, 0x71, 0x87, 0xf6, 0xbd, 0xb3, 0xc1, 0xc2, 0x3d, 0xe1, 0x86, 0x70, 0xbc, 0xc8, 0x2f, 0xf0, 0x3d, 0xdf, 0xb6, 0x80, 0x3d, 0x76, 0x7c, 0x9b, 0xbd, 0x34, 0xf8, 0xda, 0xbd, 0x4c, 0x1f, 0x89, 0xbb, 0x8d, 0xd1, 0x35, 0x3d, 0xba, 0x54, 0xbc, 0xbd, 0x81, 0xba, 0xed, 0x3c, 0x6c, 0x95, 0x7a, 0x3d, 0x2b, 0xb6, 0x72, 0x3c, 0x29, 0x80, 0x09, 0xbd, 0x93, 0x4d, 0x8c, 0xbd, 0xc1, 0xd0, 0x4b, 0xbd, 0xd3, 0x31, 0x1a, 0x3e, 0x9f, 0x0f, 0x76, 0xbc, 0xae, 0x05, 0x25, 0x3c, 0xf4, 0x96, 0xa1, 0xbd, 0x43, 0x3d, 0x41, 0xbd, 0xdf, 0x9e, 0xaf, 0x3d, 0x4e, 0x12, 0x5c, 0x3d, 0x0c, 0x56, 0x30, 0xbd, 0x1b, 0x51, 0xc9, 0xbc, 0xba, 0x61, 0x32, 0x3d, 0xc5, 0xcc, 0x8a, 0x3b, 0xd0, 0x5b, 0x04, 0x3e, 0x26, 0x83, 0x35, 0x3e, 0xd0, 0xb7, 0x30, 0xbc, 0xe3, 0x58, 0x03, 0x3c, 0x58, 0x62, 0x8c, 0xbb, 0xaf, 0x47, 0x3b, 0xbd, 0x19, 0x22, 0x0d, 0xbd, 0x51, 0x13, 0x70, 0x3d, 0x4d, 0x14, 0xc3, 0x3d, 0x44, 0x5d, 0x00, 0x3d, 0xa2, 0x64, 0x88, 0x3d, 0xac, 0x44, 0x3c, 0xbd, 0x35, 0x2f, 0xd8, 0xbd, 0x83, 0x10, 0x42, 0xbb, 0x9a, 0x3e, 0x58, 0x3d, 0xdf, 0xaa, 0xb0, 0x3d, 0x5e, 0xa2, 0x99, 0x3c, 0x40, 0xa9, 0x90, 0xbc, 0xb4, 0x83, 0xe6, 0xbd, 0xa5, 0x69, 0x18, 0x3e, 0x67, 0x2b, 0x1e, 0xbe, 0x1a, 0x22, 0x34, 0xbd, 0x97, 0xfc, 0xce, 0x3d, 0x53, 0xd2, 0x41, 0xbd, 0x08, 0x35, 0xa0, 0xbd, 0xbb, 0x8f, 0xb7, 0x3c, 0x6a, 0xe0, 0x24, 0xbd, 0x66, 0x0d, 0x20, 0x3d, 0x4d, 0xfd, 0xda, 0x3c, 0xb4, 0x4b, 0xc3, 0xbd, 0xd8, 0x97, 0xc4, 0xbc, 0xa2, 0x31, 0x09, 0xbd, 0xe8, 0x0f, 0xae, 0xbb, 0x32, 0xb4, 0x77, 0xbd, 0x1a, 0x6d, 0x88, 0x3d, 0x01, 0x51, 0x4d, 0x3c, 0x55, 0xc8, 0x09, 0xbe, 0x32, 0xb7, 0x83, 0xbd, 0x79, 0x00, 0x87, 0xbd, 0x8b, 0xc9, 0x1f, 0x3c, 0xf0, 0x72, 0x8d, 0xbd, 0xc9, 0xca, 0x07, 0x3b, 0x28, 0x38, 0x93, 0xbd, 0xc7, 0xed, 0xbc, 0x3d, 0xac, 0x38, 0x96, 0xbd, 0xe8, 0x6d, 0x89, 0xbd, 0xd8, 0x08, 0x93, 0xbd, 0xc7, 0xc5, 0xb7, 0x3a, 0xaa, 0x71, 0x34, 0xbe, 0x24, 0xb1, 0xc6, 0xbc, 0xcb, 0xb6, 0x37, 0xbd, 0xf8, 0x72, 0xdd, 0x3c, 0xf5, 0xad, 0x76, 0x3d, 0xe7, 0x6f, 0x06, 0x3d, 0x32, 0x85, 0xaf, 0xbd, 0xa6, 0xd6, 0x72, 0xbd, 0x82, 0xec, 0x9f, 0xbb, 0x96, 0xe2, 0x0f, 0x3d, 0x88, 0x55, 0x05, 0x3d, 0x23, 0x0d, 0xa4, 0xbd, 0xf6, 0xeb, 0x24, 0xbe, 0x1d, 0xc2, 0x0e, 0x3d, 0xa4, 0xcb, 0xc5, 0xbd, 0xa4, 0xbc, 0xcf, 0x3d, 0x05, 0x65, 0x02, 0x3d, 0x01, 0x01, 0x74, 0x3d, 0x0c, 0xce, 0xc6, 0xbd, 0x3a, 0xf6, 0x38, 0x3d, 0x28, 0x11, 0xe2, 0xbd, 0xd9, 0xa7, 0x90, 0xbd, 0x74, 0x20, 0xc0, 0xbd, 0x2c, 0x57, 0xc1, 0x3c, 0x06, 0x22, 0x39, 0xbd, 0x0d, 0x67, 0x86, 0x3d, 0xc5, 0xf1, 0x56, 0x3e, 0x29, 0xa5, 0x93, 0xbc, 0x29, 0xdc, 0x31, 0x3b, 0x0b, 0x86, 0x20, 0x3d, 0x42, 0x55, 0x41, 0x3e, 0x3b, 0x02, 0xd7, 0x3c, 0x6e, 0x25, 0xa1, 0x3d, 0x22, 0xb8, 0x9c, 0x3d, 0x43, 0x80, 0xa4, 0x3b, 0x04, 0xc3, 0xd2, 0xbd, 0x58, 0xc2, 0xb0, 0x3c, 0x3d, 0x47, 0x6b, 0x3d, 0x04, 0x4a, 0xbc, 0x3d, 0x60, 0x28, 0xf0, 0x3c, 0x53, 0x5f, 0xf9, 0x3b, 0x0a, 0x3e, 0x85, 0xbd, 0xaf, 0x2c, 0x1e, 0xbd, 0x8a, 0x99, 0x41, 0xbd, 0x60, 0x5c, 0x11, 0x3e, 0x68, 0xf8, 0xcb, 0xbd, 0x6d, 0xc5, 0x04, 0xbe, 0x37, 0x4e, 0x90, 0xbb, 0x6b, 0x9e, 0xfb, 0x3d, 0x1b, 0x52, 0xa7, 0xbc, 0xa7, 0xb2, 0x20, 0x3e, 0x6e, 0x76, 0xad, 0xbc, 0x10, 0xc8, 0x11, 0xbd, 0x5f, 0xa5, 0x46, 0xbd, 0xa7, 0x1e, 0x09, 0xbd, 0x3b, 0xf9, 0xfe, 0x3c, 0xbf, 0x8c, 0x69, 0x3e, 0x5f, 0x1e, 0x2f, 0x3d, 0xba, 0x1f, 0x90, 0xbd, 0x5d, 0xce, 0x66, 0xbd, 0x43, 0x05, 0x0f, 0x3e, 0xa3, 0xd9, 0x33, 0x3d, 0xa1, 0xaf, 0x12, 0xbc, 0xd2, 0xd9, 0x89, 0x3d, 0xc9, 0xef, 0xc7, 0xbd, 0x43, 0x6f, 0x2e, 0x3c, 0x06, 0x7f, 0xa6, 0x3d, 0xeb, 0x8a, 0xfd, 0x3c, 0xe2, 0x3e, 0x4a, 0x3e, 0x49, 0x44, 0xa5, 0x3c, 0xb3, 0x87, 0x4c, 0xbc, 0xef, 0x7a, 0xbf, 0x3d, 0xf0, 0xd7, 0xc5, 0xbc, 0x17, 0xbf, 0xe2, 0x3d, 0x52, 0x49, 0x76, 0x3d, 0xed, 0xd3, 0xb2, 0x3c, 0xec, 0x95, 0xcb, 0xbb, 0x3a, 0x2c, 0x91, 0xbd, 0x6f, 0xd6, 0x5c, 0x3d, 0xd8, 0x05, 0xf9, 0x3d, 0xcb, 0x8e, 0xb3, 0x3d, 0xef, 0x1e, 0xd5, 0xbc, 0xa8, 0x76, 0xd7, 0xbd, 0xf1, 0x70, 0x40, 0xbd, 0xd5, 0x6b, 0x26, 0x3d, 0xae, 0xb8, 0x1d, 0x3d, 0x97, 0x32, 0xf6, 0xbc, 0xf2, 0xce, 0xb7, 0xbd, 0x3e, 0x73, 0xb5, 0xbd, 0x02, 0x33, 0x47, 0x3a, 0x55, 0x74, 0xa0, 0x3d, 0xc6, 0x52, 0xb9, 0xbd, 0xc2, 0xe1, 0x8d, 0x3d, 0x46, 0xbb, 0xd4, 0xbd, 0x74, 0xee, 0x27, 0xbd, 0x63, 0xd9, 0x8d, 0x3d, 0x06, 0xe6, 0x52, 0x3d, 0x42, 0x92, 0x9c, 0xbd, 0xc7, 0x46, 0xa1, 0xbd, 0xf9, 0x38, 0x40, 0x3d, 0x56, 0xf7, 0x1e, 0xbe, 0x98, 0x97, 0x25, 0x3d, 0x89, 0x2a, 0xed, 0x3c, 0x6c, 0x28, 0xb2, 0xbc, 0x2f, 0xa9, 0x40, 0x3d, 0x79, 0xd0, 0xf7, 0xbd, 0x48, 0xab, 0x0e, 0xbe, 0x3f, 0x13, 0x9f, 0xbd, 0xc2, 0x9e, 0x1b, 0xbd, 0x83, 0x0b, 0x01, 0xbe, 0x46, 0x9b, 0xb8, 0x3a, 0xb2, 0x69, 0x02, 0x3d, 0xeb, 0xef, 0x43, 0xbd, 0xd5, 0x3d, 0xac, 0x3c, 0x87, 0xf4, 0xd2, 0x3d, 0x45, 0x8b, 0x53, 0xbd, 0xdb, 0xf9, 0x70, 0xbd, 0x86, 0x0b, 0xbc, 0xbc, 0x79, 0x12, 0xcb, 0xbd, 0xc7, 0x0d, 0xf9, 0x3d, 0x5e, 0xe1, 0x94, 0x3d, 0x53, 0xc2, 0x61, 0xbe, 0x39, 0x2e, 0x88, 0x3d, 0xd8, 0x5a, 0x41, 0xbd, 0x48, 0xa8, 0x8e, 0x3c, 0x12, 0x97, 0xea, 0xbb, 0xa2, 0x18, 0x97, 0x3d, 0x22, 0x59, 0xa8, 0xbd, 0x29, 0x58, 0xcc, 0x3c, 0xcf, 0xe3, 0xee, 0xbc, 0x01, 0x86, 0xc0, 0xbd, 0x76, 0x53, 0xe9, 0xbc, 0xc4, 0x91, 0x8c, 0x3a, 0xdb, 0x47, 0x5d, 0xbe, 0x86, 0xaf, 0xfe, 0x3d, 0xe9, 0x41, 0xeb, 0xbd, 0xd8, 0x85, 0x9f, 0xbd, 0x4e, 0x65, 0x02, 0x3b, 0x22, 0x5c, 0xab, 0x3c, 0xbc, 0x03, 0x40, 0xbe, 0x06, 0x60, 0x9b, 0xbd, 0x8c, 0xd6, 0xbe, 0xbc, 0x37, 0x26, 0xcc, 0xbc, 0xf3, 0x93, 0x43, 0x3d, 0x41, 0xee, 0x51, 0xbe, 0x4c, 0x22, 0x98, 0xbd, 0xeb, 0xfe, 0xa8, 0xbd, 0x45, 0x17, 0xf6, 0x3d, 0x9e, 0x4b, 0xa5, 0x3d, 0xbf, 0x32, 0x9b, 0xbd, 0x9a, 0xaf, 0x45, 0xbe, 0x04, 0x19, 0x1c, 0x3d, 0xfa, 0xf8, 0x08, 0xbc, 0x62, 0x75, 0xb9, 0xbd, 0x4b, 0x65, 0x97, 0xbc, 0x26, 0x46, 0x81, 0xbc, 0xcb, 0x69, 0x99, 0x3c, 0x3c, 0x67, 0x3b, 0x3d, 0x3c, 0x06, 0x83, 0xbb, 0x6a, 0x68, 0x85, 0xbd, 0x42, 0x32, 0xc5, 0x3d, 0xd8, 0x0c, 0x5f, 0x3d, 0xec, 0x22, 0x82, 0x3d, 0xda, 0x1e, 0xb4, 0xbd, 0x10, 0x0e, 0x73, 0xbd, 0x5b, 0x0f, 0x33, 0x3d, 0x37, 0xfe, 0xa1, 0xbc, 0xfe, 0x23, 0x15, 0x3c, 0xd0, 0x85, 0x33, 0x3d, 0x3a, 0x1f, 0xd6, 0x3d, 0x56, 0xad, 0x9a, 0x3c, 0x90, 0x8c, 0x37, 0xbd, 0x07, 0x64, 0x9c, 0xbc, 0x8d, 0x4c, 0x8f, 0x3d, 0x31, 0x54, 0x33, 0xbe, 0xef, 0xd4, 0x3e, 0x3d, 0x73, 0x0c, 0x84, 0xbd, 0xf6, 0x12, 0x2b, 0x3b, 0x9c, 0x8c, 0x5e, 0xbd, 0x32, 0x7e, 0xd0, 0xbd, 0x84, 0xb4, 0x81, 0xbd, 0x48, 0xfd, 0x4b, 0x3c, 0x71, 0x98, 0x94, 0x3d, 0x66, 0x43, 0xa8, 0x3d, 0xdd, 0x0a, 0xf7, 0x3d, 0x39, 0xda, 0xa5, 0xbd, 0x92, 0x4f, 0xe9, 0x3c, 0xd6, 0x18, 0x98, 0xbd, 0xcf, 0x6a, 0x21, 0x3d, 0x18, 0x30, 0x6d, 0xbd, 0xec, 0xe5, 0xd0, 0x3c, 0x07, 0xf8, 0x68, 0x3d, 0x91, 0x78, 0xb8, 0x3d, 0xa7, 0x84, 0x9f, 0x3b, 0x00, 0x65, 0xa3, 0x3d, 0xa2, 0xc4, 0x11, 0x3d, 0x17, 0xb7, 0x50, 0x3d, 0x10, 0x5a, 0xfc, 0xbb, 0xf3, 0x41, 0xe4, 0x3d, 0x45, 0x27, 0xde, 0xbb, 0x7d, 0x2a, 0x32, 0x3c, 0xca, 0xf1, 0xf8, 0xbc, 0xd6, 0xfb, 0x49, 0xbd, 0x68, 0x87, 0x45, 0x3e, 0xa6, 0xb0, 0x04, 0x3e, 0xc3, 0x41, 0x37, 0xbc, 0x00, 0x04, 0xdd, 0xbd, 0xf7, 0x10, 0xc9, 0xbd, 0x2a, 0xa3, 0xd7, 0xbd, 0xec, 0xf7, 0x31, 0x3e, 0x0c, 0xfc, 0x9f, 0x3d, 0x54, 0xe2, 0xe2, 0x3b, 0x44, 0xd1, 0xb7, 0x3d, 0xab, 0x78, 0x9c, 0xba, 0x61, 0xdd, 0xac, 0x3c, 0x86, 0xfe, 0xdd, 0x3d, 0x1b, 0xd1, 0xe5, 0x3d, 0xdb, 0x60, 0x9c, 0x3d, 0x12, 0x56, 0x9c, 0xbd, 0xde, 0xbd, 0xc2, 0xbd, 0x91, 0xd8, 0x7d, 0x3d, 0x48, 0x37, 0xde, 0x3c, 0x2c, 0x4a, 0x8b, 0x3d, 0x43, 0xb0, 0xaa, 0x3d, 0xe7, 0xed, 0x8c, 0xbd, 0x1f, 0xae, 0x58, 0x3c, 0x27, 0x00, 0xfe, 0xbd, 0x20, 0x51, 0xf8, 0x39, 0x02, 0xc1, 0xe9, 0xbb, 0x9e, 0xa2, 0xbe, 0xbd, 0x59, 0x7b, 0xde, 0x3c, 0x77, 0x8b, 0x83, 0xbd, 0x45, 0xec, 0xa6, 0xbd, 0x2b, 0x09, 0x29, 0x3e, 0x37, 0xa6, 0x90, 0xbb, 0xb6, 0x1b, 0x41, 0xbd, 0x16, 0x17, 0x14, 0xbe, 0xd3, 0x7e, 0x9b, 0xbd, 0xa0, 0xaa, 0x65, 0xbd, 0xc2, 0x98, 0xa0, 0xbc, 0x52, 0x85, 0x3a, 0x3d, 0xdd, 0x40, 0x53, 0x3d, 0x04, 0x95, 0xc8, 0xbd, 0x2a, 0x00, 0xb5, 0x3d, 0xdf, 0x1e, 0x61, 0x3d, 0x05, 0x00, 0x2d, 0x3e, 0x8f, 0x4b, 0x83, 0xbb, 0xab, 0xd9, 0xbb, 0x3d, 0x48, 0xa7, 0x17, 0xbe, 0xf2, 0xfd, 0x96, 0xbc, 0xfb, 0xbb, 0x89, 0x3d, 0xe2, 0x3c, 0xf1, 0x3d, 0x7a, 0x21, 0x48, 0xbd, 0xc9, 0xfd, 0x72, 0xbd, 0x3e, 0x34, 0x21, 0xbe, 0xd2, 0xa5, 0xe6, 0xbc, 0x8f, 0xea, 0x60, 0x3c, 0x9a, 0x1e, 0x22, 0x3e, 0x48, 0x0a, 0x60, 0xbd, 0xee, 0xc8, 0x16, 0x3d, 0x02, 0xe4, 0x3c, 0xbe, 0xb0, 0x78, 0x8c, 0xbd, 0x1e, 0x11, 0x3e, 0x3e, 0xdb, 0xa4, 0x27, 0xbe, 0xdb, 0xd3, 0x50, 0x3d, 0x4e, 0x42, 0xc8, 0x3c, 0x93, 0x94, 0x1c, 0x3d, 0x90, 0x15, 0x1b, 0xbd, 0x89, 0x8e, 0xe7, 0x3d, 0x11, 0x72, 0xe1, 0xbc, 0x83, 0x1b, 0x8a, 0xbd, 0xa3, 0x2d, 0x55, 0xbd, 0xf7, 0x7b, 0x18, 0xbe, 0xc5, 0x73, 0x1f, 0x3a, 0xc9, 0xee, 0x1c, 0x3e, 0x1b, 0x47, 0x5b, 0xbe, 0x6e, 0xdc, 0x53, 0x3d, 0xa0, 0xb1, 0xc6, 0xbc, 0x60, 0xda, 0x8c, 0xbc, 0xf3, 0x85, 0x5b, 0xbc, 0x1c, 0x22, 0x52, 0x3d, 0xd9, 0x1d, 0x38, 0xbd, 0x49, 0x9d, 0x4b, 0xbd, 0x92, 0xc4, 0xd2, 0xbd, 0x95, 0xae, 0xb5, 0xbb, 0x30, 0x19, 0x0d, 0x3b, 0x1c, 0x19, 0x10, 0x3e, 0x3f, 0x9c, 0x80, 0xbe, 0x2f, 0x7d, 0x69, 0x3d, 0x37, 0x20, 0x2b, 0x3b, 0x6e, 0x60, 0x9c, 0x3d, 0xe1, 0x25, 0xca, 0x3c, 0x2b, 0x0a, 0x20, 0x3d, 0x76, 0x50, 0x70, 0xbe, 0xfb, 0x45, 0x0b, 0xbd, 0x28, 0xca, 0x05, 0x3d, 0x30, 0x98, 0x35, 0x3c, 0x6b, 0x8f, 0x3e, 0xbd, 0x8d, 0x68, 0x2e, 0x3e, 0x09, 0xed, 0x24, 0xbe, 0x47, 0x25, 0xd3, 0x3d, 0x95, 0x20, 0x9a, 0xbc, 0x6d, 0xe5, 0x9b, 0x3a, 0x6c, 0x1e, 0x80, 0xbd, 0x6f, 0x10, 0x27, 0x3e, 0x41, 0x54, 0x6d, 0xbe, 0x09, 0xef, 0x0f, 0xbc, 0x8f, 0x04, 0x7e, 0x3d, 0x7f, 0x50, 0xb1, 0x3d, 0x3b, 0xa1, 0xee, 0x3c, 0xa5, 0x8a, 0x2b, 0x3e, 0x5e, 0xee, 0x64, 0xbe, 0x64, 0x51, 0x3a, 0xbe, 0xeb, 0xac, 0x60, 0x3d, 0x02, 0x8c, 0x57, 0x3d, 0x8a, 0xee, 0xc5, 0x3d, 0x30, 0x4f, 0x14, 0x3e, 0x00, 0x2f, 0x27, 0xbe, 0x98, 0x05, 0x31, 0xbe, 0xee, 0xc3, 0x17, 0xbd, 0x2a, 0x13, 0xe1, 0xbd, 0xc3, 0xb5, 0xd6, 0x3d, 0xe6, 0xf6, 0xff, 0xff, 0x04, 0x00, 0x00, 0x00, 0x34, 0x08, 0x00, 0x00, 0x27, 0x2d, 0xa4, 0xbd, 0xfe, 0x55, 0x4d, 0x3e, 0x82, 0x83, 0x27, 0xbc, 0x0c, 0x83, 0xe4, 0x3d, 0x37, 0xe4, 0x53, 0xbd, 0xa2, 0x9a, 0x48, 0x3e, 0xa7, 0x3b, 0x1b, 0xbe, 0xa3, 0x04, 0x9e, 0xbd, 0xd4, 0x71, 0x17, 0x3e, 0xce, 0xc4, 0x3d, 0x3e, 0xd9, 0xe8, 0x0f, 0x3e, 0xcf, 0xc0, 0x8c, 0xbd, 0x1a, 0xaf, 0x72, 0xbd, 0xdb, 0x17, 0x58, 0xbe, 0xaa, 0x5f, 0xa8, 0xbd, 0xf5, 0xd9, 0xdf, 0x3d, 0x0c, 0xbc, 0x0b, 0x3e, 0x71, 0x4a, 0xfc, 0xbc, 0x4c, 0x85, 0xb4, 0x3d, 0xe4, 0x14, 0xf1, 0x3d, 0x7f, 0x88, 0x86, 0x3d, 0xa6, 0x80, 0x1e, 0xbe, 0x9c, 0xaa, 0x59, 0xbd, 0x96, 0x47, 0x0c, 0x3e, 0xa0, 0x75, 0x9f, 0xbd, 0x46, 0x5f, 0x91, 0x3d, 0x56, 0x18, 0x05, 0xbe, 0x5c, 0x5e, 0x65, 0xbe, 0xb4, 0x77, 0x91, 0xbd, 0x3d, 0x99, 0x10, 0x3e, 0xa2, 0x58, 0x1a, 0x3e, 0x53, 0xe5, 0x92, 0x3d, 0x36, 0x39, 0xeb, 0xbc, 0x1e, 0x0d, 0x43, 0x3e, 0xcb, 0x65, 0xa8, 0x3d, 0xb3, 0x16, 0x5d, 0x3d, 0x9b, 0xe3, 0x17, 0x3e, 0xcc, 0x00, 0x7b, 0xbe, 0xcb, 0x0d, 0xa7, 0xbc, 0xc5, 0x3b, 0xc7, 0xbc, 0x4a, 0xc5, 0xa5, 0x3d, 0xef, 0xc8, 0x6a, 0xbe, 0xcf, 0x97, 0x31, 0x3c, 0x96, 0x75, 0x21, 0x3e, 0x9f, 0x7f, 0x41, 0xbd, 0xb0, 0xb8, 0xe8, 0xbd, 0x13, 0x1b, 0x9f, 0xbd, 0x00, 0x61, 0xe1, 0xbd, 0x7e, 0xbd, 0x9c, 0x3c, 0x65, 0x6f, 0x02, 0xbe, 0x98, 0x14, 0x95, 0x3c, 0xce, 0x14, 0x0b, 0x3e, 0x00, 0xb9, 0xfd, 0x3d, 0xb5, 0x2a, 0x75, 0xbd, 0xa5, 0xe7, 0xfc, 0x3b, 0x91, 0x0d, 0x95, 0xbe, 0x17, 0xe1, 0x06, 0xbd, 0x95, 0xc0, 0x08, 0x3e, 0x29, 0xd3, 0x3d, 0x3e, 0x6f, 0xcb, 0xcf, 0x3c, 0xd5, 0xdd, 0xc4, 0x3d, 0x79, 0xe9, 0x54, 0x3e, 0x7b, 0xc3, 0x2a, 0xbe, 0xdd, 0xc7, 0x28, 0x3e, 0xa7, 0x04, 0x5f, 0xbd, 0x9f, 0xa2, 0x9a, 0x3d, 0x68, 0x60, 0x53, 0x3e, 0xe0, 0x56, 0x5c, 0xbd, 0x99, 0x34, 0xe9, 0xbc, 0x32, 0x83, 0x87, 0x3d, 0xa4, 0xb2, 0xb4, 0xbd, 0x19, 0x41, 0xed, 0xbd, 0xbe, 0x9f, 0xa9, 0xbd, 0x99, 0xfd, 0x96, 0xbb, 0xfa, 0xe9, 0x23, 0xbe, 0x02, 0x66, 0x29, 0xbe, 0x86, 0xcc, 0x73, 0xbe, 0xd2, 0x86, 0xbb, 0x3d, 0x1a, 0x12, 0x02, 0xbe, 0xa3, 0x8a, 0x34, 0xbe, 0xe9, 0x1d, 0xa4, 0xbd, 0x79, 0x58, 0x06, 0x3e, 0xfd, 0x9f, 0x7b, 0xbd, 0x5f, 0x51, 0x98, 0xbe, 0x5b, 0x3c, 0xb3, 0x39, 0x5b, 0xea, 0xeb, 0xbd, 0x81, 0xf8, 0xa7, 0xbd, 0x4d, 0xd4, 0x20, 0xbe, 0x2c, 0xae, 0x47, 0x3e, 0x60, 0x8e, 0x9f, 0x3d, 0x92, 0xaf, 0x77, 0xbd, 0x6f, 0xc8, 0xc0, 0xbd, 0x17, 0xb0, 0x07, 0x3e, 0x07, 0x61, 0xd6, 0xbd, 0x80, 0xfa, 0x7d, 0x3d, 0xaa, 0x13, 0xe9, 0xbd, 0x79, 0xbf, 0x01, 0x3e, 0xb4, 0x4b, 0x93, 0xbc, 0x25, 0x6e, 0x1f, 0x3e, 0xf7, 0x7e, 0xe6, 0xbd, 0x53, 0xcd, 0xa6, 0x3d, 0x88, 0x86, 0x1d, 0x3e, 0xff, 0xc2, 0xb3, 0xbd, 0xa8, 0x37, 0x1f, 0xbe, 0xef, 0x95, 0x9e, 0xbd, 0xa8, 0x61, 0x52, 0x3e, 0x4e, 0x2c, 0x4a, 0xbd, 0x86, 0x26, 0xf3, 0xbd, 0x22, 0xbe, 0xbc, 0xbd, 0xa6, 0xc5, 0xc2, 0xbd, 0xa8, 0xdf, 0x81, 0xbd, 0xc8, 0xed, 0xbf, 0x3a, 0x61, 0x28, 0xd1, 0x3c, 0x0e, 0xb9, 0x39, 0xbe, 0x5f, 0xa3, 0x13, 0x3b, 0x2b, 0xa7, 0x61, 0x3e, 0x43, 0x49, 0x2c, 0xbe, 0x28, 0xd9, 0x61, 0x3d, 0x23, 0xb5, 0x3c, 0xbd, 0xd9, 0x73, 0x13, 0x3e, 0xb1, 0x7c, 0x37, 0x3d, 0x9d, 0x94, 0x0f, 0x3e, 0x7e, 0x94, 0x35, 0x3e, 0x83, 0x90, 0xba, 0xbd, 0x6b, 0xf9, 0x15, 0x3d, 0xbf, 0x7a, 0x18, 0x3c, 0x68, 0xf6, 0x30, 0x3e, 0x0a, 0x46, 0x7a, 0x3c, 0x14, 0x84, 0xd0, 0x3c, 0xd5, 0x0f, 0xbb, 0x3d, 0x7e, 0x87, 0x22, 0xbd, 0x97, 0x83, 0xf6, 0x3c, 0xcc, 0x4e, 0x99, 0xbe, 0x76, 0xf5, 0x52, 0x3e, 0xd7, 0x84, 0x35, 0xbe, 0xab, 0x7c, 0x5c, 0x3e, 0x7b, 0x39, 0x24, 0xbc, 0xe5, 0x04, 0x74, 0xbd, 0x00, 0xd0, 0xc3, 0x3d, 0xe7, 0xb8, 0x73, 0xbe, 0x65, 0xa9, 0x21, 0x3e, 0x62, 0x7e, 0xf6, 0xbd, 0xe4, 0x45, 0xb3, 0xbd, 0xad, 0xa3, 0x4f, 0x3e, 0x42, 0x32, 0x04, 0x3e, 0x8a, 0x71, 0x0a, 0xbd, 0x5a, 0x60, 0xbd, 0x3d, 0x17, 0xd6, 0xbf, 0xbd, 0x66, 0xf5, 0xbd, 0xbd, 0x95, 0xec, 0x39, 0xbe, 0x23, 0xdf, 0x60, 0xbc, 0xcc, 0xe0, 0x57, 0xbd, 0x91, 0x11, 0x35, 0xbe, 0xc5, 0x7d, 0x2f, 0x3c, 0xb1, 0x8e, 0x56, 0xbe, 0xc2, 0xe8, 0xe9, 0x3d, 0x64, 0xf8, 0x21, 0xbe, 0x33, 0x14, 0x73, 0xbe, 0x64, 0xfd, 0xdc, 0x3d, 0xab, 0x71, 0x2c, 0x3d, 0x4c, 0x7a, 0x19, 0x3c, 0xb2, 0xea, 0x55, 0x3e, 0x0b, 0x4c, 0x01, 0x3d, 0x99, 0x0b, 0xde, 0xbd, 0x9c, 0xd1, 0xb1, 0x3d, 0xf0, 0x7b, 0xb7, 0x3d, 0x2f, 0xbc, 0x9f, 0xbd, 0xb2, 0xd4, 0x84, 0xbd, 0x1f, 0x4b, 0x49, 0x3e, 0xf6, 0x0d, 0xe2, 0xbd, 0x41, 0x02, 0x0d, 0xbe, 0x7c, 0x62, 0x14, 0x3e, 0x1d, 0xba, 0x41, 0xbe, 0x1f, 0x63, 0xde, 0x3b, 0x3f, 0x76, 0x37, 0x3c, 0xdc, 0x41, 0x59, 0x3c, 0x3b, 0x2e, 0x49, 0xbc, 0xd6, 0x48, 0xef, 0x3d, 0xda, 0xb8, 0xf8, 0x3d, 0x4d, 0x8d, 0xab, 0x3d, 0xe9, 0x56, 0x88, 0xbe, 0x31, 0x30, 0x1b, 0x3e, 0x02, 0xc0, 0x7e, 0xbd, 0x35, 0xfb, 0x52, 0xbe, 0x6f, 0xc5, 0xc3, 0xbc, 0x54, 0x59, 0x44, 0x3e, 0x91, 0x81, 0xba, 0x3c, 0x96, 0xec, 0x1b, 0xbe, 0xf0, 0x23, 0x8d, 0x3e, 0x18, 0x55, 0xac, 0x3c, 0xff, 0x46, 0x6d, 0xbe, 0x09, 0x5a, 0x47, 0x3e, 0x14, 0x52, 0x19, 0x3e, 0x17, 0xc7, 0x00, 0x3e, 0x76, 0x17, 0x64, 0x3e, 0xc0, 0xae, 0x9b, 0x3d, 0x0c, 0xda, 0xa3, 0x3d, 0x37, 0x9c, 0x8b, 0xbd, 0x06, 0x27, 0x77, 0xbd, 0x91, 0x00, 0xff, 0xbc, 0x46, 0x84, 0xd5, 0x3d, 0x24, 0xd0, 0x4a, 0x3c, 0xe0, 0x71, 0x9f, 0xbd, 0xd9, 0x61, 0x2a, 0xbe, 0xca, 0x9d, 0xb2, 0xbd, 0xda, 0xdd, 0x5a, 0x3e, 0x13, 0x69, 0x77, 0x3e, 0x20, 0xa4, 0x65, 0x3c, 0x76, 0x75, 0x0c, 0x3e, 0x02, 0x8a, 0x1c, 0x3d, 0x6f, 0xd8, 0xa5, 0xbd, 0x44, 0xde, 0xd2, 0x3d, 0x37, 0x7b, 0x0b, 0x3e, 0x0a, 0x63, 0x30, 0x3d, 0xe4, 0x7a, 0xa2, 0xbd, 0xaa, 0xb8, 0x07, 0x3e, 0x2a, 0xc9, 0x92, 0x3e, 0x65, 0x5e, 0xbd, 0xbd, 0xd5, 0x51, 0xd0, 0x3d, 0x7b, 0x79, 0xea, 0x3d, 0x76, 0xe5, 0x44, 0xbe, 0x57, 0x1f, 0x40, 0x3e, 0x68, 0x8b, 0x62, 0xbd, 0x6b, 0xf1, 0x81, 0x3e, 0xa0, 0xbe, 0x07, 0x3e, 0xb4, 0x7d, 0x0c, 0xbb, 0x24, 0x01, 0x20, 0xbe, 0xa2, 0x61, 0xd3, 0x3c, 0x40, 0xb7, 0x96, 0x3b, 0xef, 0xe4, 0x74, 0xbd, 0xa7, 0xed, 0x64, 0x3e, 0xcf, 0x1f, 0xa6, 0xbc, 0x42, 0x21, 0x67, 0xbe, 0x87, 0xb0, 0xad, 0xbc, 0x79, 0x71, 0x83, 0xbc, 0xc8, 0x1b, 0x31, 0x3e, 0x0f, 0xb2, 0x82, 0xbe, 0xc5, 0xad, 0x31, 0x3e, 0xa3, 0x2b, 0xb2, 0xbd, 0x45, 0xc5, 0x11, 0xbe, 0xfc, 0x8f, 0xf9, 0xbc, 0x80, 0x6d, 0xd8, 0xbd, 0xb7, 0x82, 0xbc, 0xbd, 0x6d, 0xfd, 0xb2, 0x3d, 0x75, 0xed, 0x02, 0x3e, 0xee, 0x25, 0x01, 0xbd, 0x17, 0x95, 0x38, 0xbe, 0x25, 0x83, 0x77, 0xbc, 0xa1, 0x19, 0x2c, 0xbe, 0x27, 0xed, 0x6e, 0x3d, 0x85, 0x3a, 0x29, 0xbd, 0x10, 0x2f, 0x59, 0xbd, 0x3b, 0x88, 0xc2, 0xbd, 0x4d, 0xde, 0x0b, 0x3d, 0xea, 0x71, 0xf0, 0x3c, 0x2d, 0xec, 0xc0, 0xbd, 0xfe, 0x73, 0x9d, 0x3c, 0xda, 0xe3, 0x7b, 0x3d, 0x04, 0xbf, 0x21, 0x3e, 0x49, 0xed, 0xac, 0xbd, 0x50, 0x8b, 0xd1, 0xbd, 0x73, 0xd3, 0x1b, 0x3e, 0x83, 0x7d, 0xb9, 0x3d, 0x1b, 0x76, 0x80, 0xbd, 0x7d, 0x34, 0x78, 0x3e, 0xe1, 0x91, 0x3d, 0x3d, 0x61, 0xae, 0x5c, 0xbd, 0xb1, 0x05, 0x3e, 0xbe, 0x0d, 0x00, 0xf5, 0xbd, 0xcc, 0xf6, 0x3a, 0xbd, 0x70, 0x51, 0x54, 0xbd, 0x09, 0x30, 0xe4, 0xbd, 0x10, 0x2b, 0x3a, 0x3e, 0xa7, 0x78, 0xf6, 0xbd, 0x0e, 0xa3, 0x52, 0xbe, 0xdb, 0xef, 0xaf, 0xbd, 0xf8, 0xb8, 0x70, 0x3d, 0x34, 0xb7, 0x68, 0x3d, 0x60, 0x3c, 0xcf, 0xbc, 0x57, 0x09, 0x07, 0xbd, 0xe7, 0x5d, 0x6e, 0xbd, 0x04, 0x18, 0x27, 0x3d, 0x70, 0x7d, 0xc4, 0x3d, 0xd9, 0x7b, 0xb6, 0xbd, 0x40, 0x82, 0xc1, 0x3d, 0x6b, 0x0a, 0xa8, 0xbd, 0x8e, 0xf4, 0x48, 0x3d, 0xaf, 0x86, 0x1d, 0xbe, 0xad, 0xcd, 0x1f, 0xbe, 0x38, 0xe5, 0x97, 0xbd, 0xb0, 0x63, 0x41, 0xbe, 0x89, 0xbd, 0x4e, 0x3d, 0xe8, 0x6b, 0xdc, 0x3c, 0x16, 0x61, 0x29, 0x3e, 0x3f, 0x66, 0x9b, 0x3c, 0x8e, 0x70, 0xf7, 0xbd, 0x09, 0x3b, 0x52, 0xbe, 0x10, 0xf2, 0xe6, 0x3c, 0x23, 0x71, 0x5c, 0xbd, 0x31, 0x67, 0x7d, 0xbe, 0xa4, 0x8a, 0x48, 0x3d, 0xb2, 0xfe, 0x13, 0xbe, 0x25, 0xe5, 0x72, 0xbd, 0xa1, 0x3f, 0xff, 0xbd, 0x38, 0x80, 0x0f, 0x3e, 0xec, 0x7a, 0x16, 0x3e, 0xa6, 0xb6, 0xf2, 0xbc, 0xe6, 0xd9, 0xa8, 0xbd, 0x42, 0xfa, 0xd1, 0xbc, 0x11, 0x2b, 0x07, 0x3c, 0x5e, 0xc4, 0x12, 0xbe, 0xe2, 0x56, 0xc7, 0x3d, 0x63, 0x2f, 0x9e, 0x3d, 0x75, 0xf3, 0x17, 0xbd, 0xc2, 0x7d, 0x02, 0xbe, 0xc3, 0xf2, 0xb3, 0xbd, 0xc7, 0xf2, 0x52, 0xbd, 0xb5, 0x3f, 0x8a, 0x3d, 0x7d, 0xb8, 0xa5, 0xbd, 0xa6, 0x32, 0x6d, 0xbc, 0xa3, 0xb4, 0x31, 0x3d, 0xed, 0x11, 0x15, 0x3e, 0x4d, 0x96, 0xe7, 0x3d, 0x53, 0x9d, 0xb6, 0xbd, 0x7d, 0xfa, 0xcc, 0x3d, 0xc0, 0x56, 0x1c, 0x3e, 0x75, 0x5d, 0xfa, 0xbd, 0x56, 0x5c, 0x6b, 0x3e, 0xc8, 0x78, 0xaa, 0x3d, 0x44, 0x99, 0x95, 0x3d, 0x37, 0x8a, 0x1e, 0x3e, 0x20, 0xb7, 0x94, 0xbd, 0x58, 0x82, 0xa4, 0xbd, 0x64, 0xa3, 0x7e, 0xbd, 0xdd, 0x96, 0x51, 0x3e, 0xd6, 0x42, 0x54, 0x3d, 0x96, 0x27, 0x34, 0x3e, 0xd9, 0x29, 0x51, 0xbe, 0xce, 0xd7, 0xd7, 0x3c, 0x91, 0xff, 0x7c, 0x3d, 0x6c, 0x92, 0x6f, 0xbd, 0x58, 0xf1, 0x0e, 0x3e, 0xa3, 0xa4, 0xfd, 0x3d, 0x85, 0x0a, 0xbe, 0xbd, 0xc7, 0x7a, 0xaa, 0xbd, 0x42, 0x86, 0xbd, 0x3d, 0xbf, 0x25, 0x06, 0x3e, 0x6e, 0x16, 0xfe, 0xbd, 0x99, 0x62, 0xd3, 0xbd, 0x39, 0x23, 0x3a, 0x3e, 0x42, 0xf8, 0x59, 0x3d, 0x41, 0x3c, 0x41, 0xbe, 0x02, 0xa1, 0x81, 0xbe, 0x3c, 0x86, 0x9e, 0x3d, 0xc6, 0x23, 0xf4, 0xbd, 0xbf, 0x8f, 0x18, 0xbe, 0x6d, 0x86, 0xa9, 0x3d, 0x17, 0x18, 0xb0, 0x3d, 0x2b, 0xf7, 0x8c, 0xbe, 0x5e, 0xa3, 0x95, 0xbc, 0xc6, 0x9a, 0x00, 0x3e, 0x4c, 0xf2, 0x22, 0xbd, 0xe5, 0x79, 0xaf, 0xbd, 0xe7, 0x81, 0x84, 0xbe, 0xdc, 0xfd, 0xf2, 0x3b, 0x02, 0x63, 0x67, 0x3d, 0x98, 0xa3, 0xe8, 0x3c, 0x9e, 0xfc, 0x62, 0xbc, 0x24, 0xb6, 0x10, 0x3d, 0x7d, 0x36, 0x5b, 0xbd, 0xbf, 0xf0, 0x85, 0xbd, 0xd8, 0x43, 0x22, 0xbd, 0x30, 0xff, 0x35, 0xbe, 0x95, 0xbf, 0x47, 0xbc, 0x16, 0x75, 0xef, 0xbd, 0xe4, 0x67, 0x38, 0xbd, 0x6c, 0xef, 0xc1, 0x3d, 0x81, 0x1f, 0x7f, 0xbe, 0xae, 0xc9, 0x27, 0xbe, 0xf3, 0x7e, 0x9c, 0xbc, 0xd1, 0xe9, 0x24, 0xbe, 0xf3, 0x32, 0xb4, 0x3d, 0x71, 0x18, 0x00, 0x3e, 0xb0, 0x88, 0xf6, 0x3d, 0x6f, 0xae, 0xa8, 0x3d, 0xa2, 0x62, 0x2d, 0xbe, 0x47, 0xda, 0x35, 0xbe, 0x00, 0x21, 0x47, 0xbb, 0xed, 0x05, 0x1a, 0xbe, 0x5e, 0xc8, 0x10, 0x3e, 0x21, 0x3d, 0xdc, 0x3d, 0xc4, 0x13, 0x30, 0xbe, 0x2f, 0x38, 0x70, 0xbd, 0x26, 0x3e, 0x32, 0x3d, 0x47, 0x59, 0x36, 0xbe, 0x92, 0x6a, 0xc0, 0xbd, 0xb5, 0xb5, 0x44, 0x3b, 0x25, 0x8a, 0x29, 0x3d, 0xdc, 0xf9, 0x88, 0xbd, 0x7f, 0x44, 0x0d, 0x3e, 0x17, 0x9c, 0x95, 0xbc, 0xb7, 0xf8, 0x59, 0xbd, 0x34, 0x04, 0xbb, 0x3d, 0x79, 0x08, 0xfb, 0xbd, 0x98, 0x4d, 0x02, 0xbe, 0x22, 0xc4, 0x32, 0x3e, 0x50, 0x06, 0xcf, 0xbc, 0x66, 0xd5, 0x6e, 0xbd, 0x0c, 0x28, 0x06, 0xbe, 0x65, 0x6b, 0x8c, 0x3d, 0x6a, 0x8f, 0x84, 0x3c, 0x14, 0x59, 0x18, 0xbe, 0x64, 0xff, 0x43, 0xbd, 0x02, 0x59, 0x8c, 0xbd, 0xe7, 0xc6, 0xc0, 0xbd, 0xe6, 0xad, 0x9e, 0xbd, 0x9e, 0x41, 0xf9, 0x3d, 0xa8, 0xf3, 0x41, 0xbe, 0xef, 0xff, 0xd9, 0xbc, 0xa3, 0x4d, 0xb7, 0x3d, 0x8d, 0x01, 0x80, 0x3e, 0x7a, 0xf6, 0x91, 0xbc, 0xd5, 0x1e, 0x20, 0x3e, 0xf3, 0xcf, 0x1f, 0xbe, 0x80, 0xb6, 0xf3, 0x3d, 0x96, 0xea, 0x40, 0xbe, 0xf7, 0x3a, 0x71, 0x3d, 0xb9, 0x65, 0xf2, 0x3d, 0x1d, 0x71, 0x14, 0x3c, 0x99, 0xfe, 0xb2, 0xbd, 0xed, 0x81, 0xe4, 0xbd, 0x32, 0xa7, 0x05, 0xbc, 0x2e, 0x04, 0x70, 0xbe, 0x25, 0xda, 0x05, 0xbd, 0x43, 0x0d, 0xa9, 0x3c, 0x19, 0x49, 0x77, 0x3e, 0xdf, 0x08, 0x22, 0xbe, 0xdf, 0x4c, 0xcb, 0xbd, 0xac, 0x20, 0x3d, 0x3d, 0x5c, 0x44, 0x8d, 0xbd, 0x97, 0xc3, 0x87, 0x3e, 0x71, 0xb3, 0xfe, 0x3d, 0x53, 0x4c, 0x52, 0xb9, 0x09, 0xf2, 0x5c, 0xbd, 0xf4, 0x4e, 0x47, 0x3d, 0xda, 0x1d, 0x81, 0x3e, 0xa3, 0x74, 0x6f, 0x3d, 0x57, 0xbd, 0x6e, 0xbe, 0x37, 0xe0, 0x38, 0xbe, 0x3b, 0x10, 0x98, 0x3e, 0xc6, 0x9a, 0x2b, 0x3c, 0xbc, 0x31, 0xfb, 0x3d, 0xf6, 0x59, 0x28, 0x3e, 0xe1, 0x45, 0xb8, 0xbd, 0x91, 0x46, 0x4e, 0x3d, 0x3c, 0xfa, 0x83, 0xbe, 0x65, 0x1b, 0x3a, 0x3e, 0x2c, 0x59, 0xed, 0x3d, 0xa9, 0xe1, 0x52, 0xbd, 0x8e, 0x9b, 0x3a, 0x3e, 0xb2, 0xd1, 0x84, 0x3d, 0x25, 0xa5, 0xa8, 0xbd, 0xaa, 0x2a, 0x89, 0xbd, 0x04, 0x5f, 0xfc, 0xbb, 0xd9, 0x72, 0xdf, 0x3d, 0x93, 0x40, 0x20, 0xbe, 0x61, 0x3b, 0x55, 0x3e, 0x60, 0x66, 0x20, 0xbe, 0x81, 0x4f, 0x7e, 0x3e, 0x1b, 0x8c, 0x9a, 0x3d, 0x27, 0x9e, 0x04, 0x3e, 0xd5, 0x75, 0x4b, 0xbd, 0xab, 0xfc, 0x73, 0xbe, 0x78, 0xb2, 0x31, 0x3e, 0xc3, 0x0d, 0x3e, 0xbe, 0x6a, 0x36, 0x87, 0x3e, 0x74, 0xe1, 0x94, 0x3c, 0x4b, 0x41, 0xe7, 0x3d, 0x09, 0xec, 0xc3, 0x3d, 0xde, 0x09, 0x02, 0xbd, 0xa1, 0x7d, 0x10, 0xbe, 0x46, 0x17, 0x5c, 0x3d, 0x59, 0xb6, 0x31, 0x3e, 0x98, 0x92, 0x9f, 0xbd, 0x99, 0xb6, 0xa6, 0xbb, 0xb1, 0x53, 0xa9, 0x3d, 0x42, 0x61, 0x8e, 0xbd, 0xa8, 0xcb, 0x9d, 0xbc, 0x9d, 0x9a, 0x77, 0xbd, 0x67, 0xc4, 0xd6, 0x3d, 0x80, 0xfa, 0x49, 0xbe, 0xf2, 0xde, 0x13, 0x3e, 0x50, 0x51, 0x00, 0xbe, 0xcb, 0xf6, 0x08, 0xbd, 0x92, 0x1e, 0x17, 0x3d, 0x0b, 0xe4, 0xff, 0xbd, 0x2f, 0xda, 0x2e, 0xbc, 0x06, 0x58, 0x8c, 0xbe, 0x2b, 0xe6, 0x8f, 0x3c, 0x5f, 0x97, 0xcb, 0x3c, 0xa9, 0x97, 0x3a, 0xbe, 0x32, 0xe9, 0x67, 0xbd, 0x02, 0xd4, 0x99, 0xba, 0xad, 0x70, 0x4a, 0xbe, 0xf1, 0xb7, 0xfd, 0x3c, 0x4a, 0x2a, 0xdf, 0xbc, 0x00, 0x53, 0x2c, 0xbe, 0xf1, 0x26, 0xbd, 0xbd, 0x3e, 0xa1, 0xbb, 0xbd, 0x44, 0x0c, 0xf2, 0xbd, 0x0e, 0x72, 0x04, 0xbc, 0xe5, 0x27, 0x97, 0xbd, 0x90, 0x2c, 0xe9, 0xbc, 0x88, 0xb2, 0x84, 0x3d, 0x64, 0xed, 0x45, 0xbd, 0x38, 0xbf, 0x32, 0x3e, 0x3b, 0x30, 0x0c, 0xbe, 0x69, 0xf2, 0x08, 0x3d, 0x09, 0x6a, 0x83, 0xbe, 0x7f, 0x6a, 0xbb, 0x3b, 0x0e, 0xc5, 0x1f, 0x3e, 0x3d, 0x7c, 0x47, 0xbe, 0x58, 0x34, 0xfc, 0x3d, 0xea, 0x34, 0x9e, 0x3b, 0x76, 0x2b, 0x95, 0x3e, 0x26, 0xff, 0xff, 0xff, 0x04, 0x00, 0x00, 0x00, 0x08, 0x00, 0x00, 0x00, 0xff, 0xff, 0xff, 0xff, 0xaf, 0x00, 0x00, 0x00, 0x3a, 0xff, 0xff, 0xff, 0x04, 0x00, 0x00, 0x00, 0x1c, 0x00, 0x00, 0x00, 0xbe, 0x6f, 0x7e, 0xbb, 0x90, 0x17, 0xac, 0x3d, 0xeb, 0xe9, 0xc8, 0xbc, 0x3a, 0xf7, 0x19, 0xbd, 0x5f, 0xe5, 0xf4, 0x3c, 0x1d, 0x6c, 0x5d, 0xbd, 0xcb, 0x18, 0x1b, 0x3d, 0x62, 0xff, 0xff, 0xff, 0x04, 0x00, 0x00, 0x00, 0x0c, 0x00, 0x00, 0x00, 0x52, 0x45, 0x23, 0xbd, 0xb8, 0x48, 0xbe, 0x3b, 0x86, 0x23, 0x42, 0x3d, 0x84, 0xfa, 0xff, 0xff, 0x88, 0xfa, 0xff, 0xff, 0x0f, 0x00, 0x00, 0x00, 0x4d, 0x4c, 0x49, 0x52, 0x20, 0x43, 0x6f, 0x6e, 0x76, 0x65, 0x72, 0x74, 0x65, 0x64, 0x2e, 0x00, 0x01, 0x00, 0x00, 0x00, 0x14, 0x00, 0x00, 0x00, 0x00, 0x00, 0x0e, 0x00, 0x18, 0x00, 0x14, 0x00, 0x10, 0x00, 0x0c, 0x00, 0x08, 0x00, 0x04, 0x00, 0x0e, 0x00, 0x00, 0x00, 0x14, 0x00, 0x00, 0x00, 0x1c, 0x00, 0x00, 0x00, 0x34, 0x01, 0x00, 0x00, 0x38, 0x01, 0x00, 0x00, 0x3c, 0x01, 0x00, 0x00, 0x04, 0x00, 0x00, 0x00, 0x6d, 0x61, 0x69, 0x6e, 0x00, 0x00, 0x00, 0x00, 0x04, 0x00, 0x00, 0x00, 0xcc, 0x00, 0x00, 0x00, 0x94, 0x00, 0x00, 0x00, 0x50, 0x00, 0x00, 0x00, 0x04, 0x00, 0x00, 0x00, 0xc6, 0xff, 0xff, 0xff, 0x1c, 0x00, 0x00, 0x00, 0x00, 0x00, 0x00, 0x09, 0x1c, 0x00, 0x00, 0x00, 0x20, 0x00, 0x00, 0x00, 0x03, 0x00, 0x00, 0x00, 0x00, 0x00, 0x06, 0x00, 0x08, 0x00, 0x04, 0x00, 0x06, 0x00, 0x00, 0x00, 0x00, 0x00, 0x80, 0x3f, 0x01, 0x00, 0x00, 0x00, 0x09, 0x00, 0x00, 0x00, 0x01, 0x00, 0x00, 0x00, 0x08, 0x00, 0x00, 0x00, 0x00, 0x00, 0x0e, 0x00, 0x18, 0x00, 0x14, 0x00, 0x10, 0x00, 0x0c, 0x00, 0x0b, 0x00, 0x04, 0x00, 0x0e, 0x00, 0x00, 0x00, 0x14, 0x00, 0x00, 0x00, 0x00, 0x00, 0x00, 0x08, 0x10, 0x00, 0x00, 0x00, 0x14, 0x00, 0x00, 0x00, 0x02, 0x00, 0x00, 0x00, 0x50, 0xfb, 0xff, 0xff, 0x01, 0x00, 0x00, 0x00, 0x08, 0x00, 0x00, 0x00, 0x03, 0x00, 0x00, 0x00, 0x07, 0x00, 0x00, 0x00, 0x04, 0x00, 0x00, 0x00, 0x01, 0x00, 0x00, 0x00, 0x00, 0x00, 0x0a, 0x00, 0x10, 0x00, 0x0c, 0x00, 0x08, 0x00, 0x04, 0x00, 0x0a, 0x00, 0x00, 0x00, 0x0c, 0x00, 0x00, 0x00, 0x10, 0x00, 0x00, 0x00, 0x01, 0x00, 0x00, 0x00, 0x01, 0x00, 0x00, 0x00, 0x07, 0x00, 0x00, 0x00, 0x02, 0x00, 0x00, 0x00, 0x06, 0x00, 0x00, 0x00, 0x03, 0x00, 0x00, 0x00, 0x00, 0x00, 0x0e, 0x00, 0x14, 0x00, 0x00, 0x00, 0x10, 0x00, 0x0c, 0x00, 0x0b, 0x00, 0x04, 0x00, 0x0e, 0x00, 0x00, 0x00, 0x1c, 0x00, 0x00, 0x00, 0x00, 0x00, 0x00, 0x01, 0x28, 0x00, 0x00, 0x00, 0x2c, 0x00, 0x00, 0x00, 0x0c, 0x00, 0x14, 0x00, 0x13, 0x00, 0x0c, 0x00, 0x08, 0x00, 0x07, 0x00, 0x0c, 0x00, 0x00, 0x00, 0x00, 0x00, 0x00, 0x01, 0x0a, 0x00, 0x00, 0x00, 0x0a, 0x00, 0x00, 0x00, 0x00, 0x00, 0x00, 0x01, 0x01, 0x00, 0x00, 0x00, 0x06, 0x00, 0x00, 0x00, 0x03, 0x00, 0x00, 0x00, 0x00, 0x00, 0x00, 0x00, 0x05, 0x00, 0x00, 0x00, 0x02, 0x00, 0x00, 0x00, 0x01, 0x00, 0x00, 0x00, 0x09, 0x00, 0x00, 0x00, 0x01, 0x00, 0x00, 0x00, 0x00, 0x00, 0x00, 0x00, 0x0a, 0x00, 0x00, 0x00, 0xc8, 0x03, 0x00, 0x00, 0x60, 0x03, 0x00, 0x00, 0xf8, 0x02, 0x00, 0x00, 0xac, 0x02, 0x00, 0x00, 0x54, 0x02, 0x00, 0x00, 0x00, 0x02, 0x00, 0x00, 0x30, 0x01, 0x00, 0x00, 0xd4, 0x00, 0x00, 0x00, 0x5c, 0x00, 0x00, 0x00, 0x04, 0x00, 0x00, 0x00, 0x74, 0xfc, 0xff, 0xff, 0x14, 0x00, 0x00, 0x00, 0x1c, 0x00, 0x00, 0x00, 0x1c, 0x00, 0x00, 0x00, 0x0a, 0x00, 0x00, 0x00, 0x34, 0x00, 0x00, 0x00, 0x02, 0x00, 0x00, 0x00, 0xff, 0xff, 0xff, 0xff, 0x03, 0x00, 0x00, 0x00, 0x58, 0xfc, 0xff, 0xff, 0x19, 0x00, 0x00, 0x00, 0x53, 0x74, 0x61, 0x74, 0x65, 0x66, 0x75, 0x6c, 0x50, 0x61, 0x72, 0x74, 0x69, 0x74, 0x69, 0x6f, 0x6e, 0x65, 0x64, 0x43, 0x61, 0x6c, 0x6c, 0x3a, 0x30, 0x00, 0x00, 0x00, 0x02, 0x00, 0x00, 0x00, 0x01, 0x00, 0x00, 0x00, 0x03, 0x00, 0x00, 0x00, 0xc8, 0xfc, 0xff, 0xff, 0x14, 0x00, 0x00, 0x00, 0x1c, 0x00, 0x00, 0x00, 0x1c, 0x00, 0x00, 0x00, 0x09, 0x00, 0x00, 0x00, 0x54, 0x00, 0x00, 0x00, 0x02, 0x00, 0x00, 0x00, 0xff, 0xff, 0xff, 0xff, 0x03, 0x00, 0x00, 0x00, 0xac, 0xfc, 0xff, 0xff, 0x38, 0x00, 0x00, 0x00, 0x73, 0x65, 0x71, 0x75, 0x65, 0x6e, 0x74, 0x69, 0x61, 0x6c, 0x5f, 0x31, 0x2f, 0x64, 0x65, 0x6e, 0x73, 0x65, 0x5f, 0x31, 0x2f, 0x4d, 0x61, 0x74, 0x4d, 0x75, 0x6c, 0x3b, 0x73, 0x65, 0x71, 0x75, 0x65, 0x6e, 0x74, 0x69, 0x61, 0x6c, 0x5f, 0x31, 0x2f, 0x64, 0x65, 0x6e, 0x73, 0x65, 0x5f, 0x31, 0x2f, 0x42, 0x69, 0x61, 0x73, 0x41, 0x64, 0x64, 0x00, 0x00, 0x00, 0x00, 0x02, 0x00, 0x00, 0x00, 0x01, 0x00, 0x00, 0x00, 0x03, 0x00, 0x00, 0x00, 0x3c, 0xfd, 0xff, 0xff, 0x14, 0x00, 0x00, 0x00, 0x1c, 0x00, 0x00, 0x00, 0x1c, 0x00, 0x00, 0x00, 0x08, 0x00, 0x00, 0x00, 0x38, 0x00, 0x00, 0x00, 0x02, 0x00, 0x00, 0x00, 0xff, 0xff, 0xff, 0xff, 0xaf, 0x00, 0x00, 0x00, 0x20, 0xfd, 0xff, 0xff, 0x1e, 0x00, 0x00, 0x00, 0x73, 0x65, 0x71, 0x75, 0x65, 0x6e, 0x74, 0x69, 0x61, 0x6c, 0x5f, 0x31, 0x2f, 0x66, 0x6c, 0x61, 0x74, 0x74, 0x65, 0x6e, 0x5f, 0x31, 0x2f, 0x52, 0x65, 0x73, 0x68, 0x61, 0x70, 0x65, 0x00, 0x00, 0x02, 0x00, 0x00, 0x00, 0x01, 0x00, 0x00, 0x00, 0xaf, 0x00, 0x00, 0x00, 0x94, 0xfd, 0xff, 0xff, 0x14, 0x00, 0x00, 0x00, 0x24, 0x00, 0x00, 0x00, 0x24, 0x00, 0x00, 0x00, 0x07, 0x00, 0x00, 0x00, 0xa4, 0x00, 0x00, 0x00, 0x04, 0x00, 0x00, 0x00, 0xff, 0xff, 0xff, 0xff, 0x19, 0x00, 0x00, 0x00, 0x01, 0x00, 0x00, 0x00, 0x07, 0x00, 0x00, 0x00, 0x80, 0xfd, 0xff, 0xff, 0x82, 0x00, 0x00, 0x00, 0x73, 0x65, 0x71, 0x75, 0x65, 0x6e, 0x74, 0x69, 0x61, 0x6c, 0x5f, 0x31, 0x2f, 0x63, 0x6f, 0x6e, 0x76, 0x32, 0x64, 0x5f, 0x31, 0x2f, 0x52, 0x65, 0x6c, 0x75, 0x3b, 0x73, 0x65, 0x71, 0x75, 0x65, 0x6e, 0x74, 0x69, 0x61, 0x6c, 0x5f, 0x31, 0x2f, 0x63, 0x6f, 0x6e, 0x76, 0x32, 0x64, 0x5f, 0x31, 0x2f, 0x42, 0x69, 0x61, 0x73, 0x41, 0x64, 0x64, 0x3b, 0x73, 0x65, 0x71, 0x75, 0x65, 0x6e, 0x74, 0x69, 0x61, 0x6c, 0x5f, 0x31, 0x2f, 0x63, 0x6f, 0x6e, 0x76, 0x32, 0x64, 0x5f, 0x31, 0x2f, 0x43, 0x6f, 0x6e, 0x76, 0x32, 0x44, 0x3b, 0x73, 0x65, 0x71, 0x75, 0x65, 0x6e, 0x74, 0x69, 0x61, 0x6c, 0x5f, 0x31, 0x2f, 0x63, 0x6f, 0x6e, 0x76, 0x32, 0x64, 0x5f, 0x31, 0x2f, 0x42, 0x69, 0x61, 0x73, 0x41, 0x64, 0x64, 0x2f, 0x52, 0x65, 0x61, 0x64, 0x56, 0x61, 0x72, 0x69, 0x61, 0x62, 0x6c, 0x65, 0x4f, 0x70, 0x00, 0x00, 0x04, 0x00, 0x00, 0x00, 0x01, 0x00, 0x00, 0x00, 0x19, 0x00, 0x00, 0x00, 0x01, 0x00, 0x00, 0x00, 0x07, 0x00, 0x00, 0x00, 0xbe, 0xfe, 0xff, 0xff, 0x10, 0x00, 0x00, 0x00, 0x10, 0x00, 0x00, 0x00, 0x06, 0x00, 0x00, 0x00, 0x2c, 0x00, 0x00, 0x00, 0x34, 0xfe, 0xff, 0xff, 0x1c, 0x00, 0x00, 0x00, 0x73, 0x65, 0x71, 0x75, 0x65, 0x6e, 0x74, 0x69, 0x61, 0x6c, 0x5f, 0x31, 0x2f, 0x63, 0x6f, 0x6e, 0x76, 0x32, 0x64, 0x5f, 0x31, 0x2f, 0x43, 0x6f, 0x6e, 0x76, 0x32, 0x44, 0x00, 0x00, 0x00, 0x00, 0x04, 0x00, 0x00, 0x00, 0x07, 0x00, 0x00, 0x00, 0x0a, 0x00, 0x00, 0x00, 0x06, 0x00, 0x00, 0x00, 0x01, 0x00, 0x00, 0x00, 0x0e, 0xff, 0xff, 0xff, 0x10, 0x00, 0x00, 0x00, 0x10, 0x00, 0x00, 0x00, 0x05, 0x00, 0x00, 0x00, 0x28, 0x00, 0x00, 0x00, 0x84, 0xfe, 0xff, 0xff, 0x1b, 0x00, 0x00, 0x00, 0x73, 0x65, 0x71, 0x75, 0x65, 0x6e, 0x74, 0x69, 0x61, 0x6c, 0x5f, 0x31, 0x2f, 0x64, 0x65, 0x6e, 0x73, 0x65, 0x5f, 0x31, 0x2f, 0x4d, 0x61, 0x74, 0x4d, 0x75, 0x6c, 0x00, 0x02, 0x00, 0x00, 0x00, 0x03, 0x00, 0x00, 0x00, 0xaf, 0x00, 0x00, 0x00, 0x00, 0x00, 0x0e, 0x00, 0x18, 0x00, 0x14, 0x00, 0x13, 0x00, 0x0c, 0x00, 0x08, 0x00, 0x04, 0x00, 0x0e, 0x00, 0x00, 0x00, 0x14, 0x00, 0x00, 0x00, 0x14, 0x00, 0x00, 0x00, 0x04, 0x00, 0x00, 0x00, 0x00, 0x00, 0x00, 0x02, 0x2c, 0x00, 0x00, 0x00, 0xdc, 0xfe, 0xff, 0xff, 0x1c, 0x00, 0x00, 0x00, 0x73, 0x65, 0x71, 0x75, 0x65, 0x6e, 0x74, 0x69, 0x61, 0x6c, 0x5f, 0x31, 0x2f, 0x66, 0x6c, 0x61, 0x74, 0x74, 0x65, 0x6e, 0x5f, 0x31, 0x2f, 0x43, 0x6f, 0x6e, 0x73, 0x74, 0x00, 0x00, 0x00, 0x00, 0x01, 0x00, 0x00, 0x00, 0x02, 0x00, 0x00, 0x00, 0xaa, 0xff, 0xff, 0xff, 0x10, 0x00, 0x00, 0x00, 0x10, 0x00, 0x00, 0x00, 0x03, 0x00, 0x00, 0x00, 0x3c, 0x00, 0x00, 0x00, 0x20, 0xff, 0xff, 0xff, 0x2c, 0x00, 0x00, 0x00, 0x73, 0x65, 0x71, 0x75, 0x65, 0x6e, 0x74, 0x69, 0x61, 0x6c, 0x5f, 0x31, 0x2f, 0x63, 0x6f, 0x6e, 0x76, 0x32, 0x64, 0x5f, 0x31, 0x2f, 0x42, 0x69, 0x61, 0x73, 0x41, 0x64, 0x64, 0x2f, 0x52, 0x65, 0x61, 0x64, 0x56, 0x61, 0x72, 0x69, 0x61, 0x62, 0x6c, 0x65, 0x4f, 0x70, 0x00, 0x00, 0x00, 0x00, 0x01, 0x00, 0x00, 0x00, 0x07, 0x00, 0x00, 0x00, 0x00, 0x00, 0x0e, 0x00, 0x14, 0x00, 0x10, 0x00, 0x00, 0x00, 0x0c, 0x00, 0x08, 0x00, 0x04, 0x00, 0x0e, 0x00, 0x00, 0x00, 0x10, 0x00, 0x00, 0x00, 0x10, 0x00, 0x00, 0x00, 0x02, 0x00, 0x00, 0x00, 0x38, 0x00, 0x00, 0x00, 0x84, 0xff, 0xff, 0xff, 0x2b, 0x00, 0x00, 0x00, 0x73, 0x65, 0x71, 0x75, 0x65, 0x6e, 0x74, 0x69, 0x61, 0x6c, 0x5f, 0x31, 0x2f, 0x64, 0x65, 0x6e, 0x73, 0x65, 0x5f, 0x31, 0x2f, 0x42, 0x69, 0x61, 0x73, 0x41, 0x64, 0x64, 0x2f, 0x52, 0x65, 0x61, 0x64, 0x56, 0x61, 0x72, 0x69, 0x61, 0x62, 0x6c, 0x65, 0x4f, 0x70, 0x00, 0x01, 0x00, 0x00, 0x00, 0x03, 0x00, 0x00, 0x00, 0x14, 0x00, 0x18, 0x00, 0x14, 0x00, 0x00, 0x00, 0x10, 0x00, 0x0c, 0x00, 0x08, 0x00, 0x00, 0x00, 0x00, 0x00, 0x04, 0x00, 0x14, 0x00, 0x00, 0x00, 0x14, 0x00, 0x00, 0x00, 0x28, 0x00, 0x00, 0x00, 0x28, 0x00, 0x00, 0x00, 0x01, 0x00, 0x00, 0x00, 0x48, 0x00, 0x00, 0x00, 0x04, 0x00, 0x00, 0x00, 0xff, 0xff, 0xff, 0xff, 0xfa, 0x00, 0x00, 0x00, 0x06, 0x00, 0x00, 0x00, 0x01, 0x00, 0x00, 0x00, 0x04, 0x00, 0x04, 0x00, 0x04, 0x00, 0x00, 0x00, 0x20, 0x00, 0x00, 0x00, 0x73, 0x65, 0x72, 0x76, 0x69, 0x6e, 0x67, 0x5f, 0x64, 0x65, 0x66, 0x61, 0x75, 0x6c, 0x74, 0x5f, 0x63, 0x6f, 0x6e, 0x76, 0x32, 0x64, 0x5f, 0x31, 0x5f, 0x69, 0x6e, 0x70, 0x75, 0x74, 0x3a, 0x30, 0x00, 0x00, 0x00, 0x00, 0x04, 0x00, 0x00, 0x00, 0x01, 0x00, 0x00, 0x00, 0xfa, 0x00, 0x00, 0x00, 0x06, 0x00, 0x00, 0x00, 0x01, 0x00, 0x00, 0x00, 0x04, 0x00, 0x00, 0x00, 0x40, 0x00, 0x00, 0x00, 0x24, 0x00, 0x00, 0x00, 0x14, 0x00, 0x00, 0x00, 0x04, 0x00, 0x00, 0x00, 0xdc, 0xff, 0xff, 0xff, 0x19, 0x00, 0x00, 0x00, 0x00, 0x00, 0x00, 0x19, 0xe8, 0xff, 0xff, 0xff, 0x09, 0x00, 0x00, 0x00, 0x00, 0x00, 0x00, 0x09, 0xf4, 0xff, 0xff, 0xff, 0x16, 0x00, 0x00, 0x00, 0x00, 0x00, 0x00, 0x16, 0x0c, 0x00, 0x0c, 0x00, 0x0b, 0x00, 0x00, 0x00, 0x00, 0x00, 0x04, 0x00, 0x0c, 0x00, 0x00, 0x00, 0x03, 0x00, 0x00, 0x00, 0x00, 0x00, 0x00, 0x03};
const int model_data_len = 5900;